#version: 0.2
á º
n g
Ġ t
Ġ c
Ġ Ä
ĠÄ ĳ
n h
Ã ł
Æ °
Ġ v
Ã ¡
h á
há »
i á
iá »
Ġ l
Ġt r
Ġ k
Ġ b
h Ã
Æ° á
Æ°á »
Ġ m
Ġ s
áº ¿
Ġ nh
áº ¡
Ġ n
Ġt h
áº £
ĠÄĳ á
ĠÄĳá »
Ġ h
Ġ g
Ã ª
Ġ ng
Ġ d
iá» ĩ
Ġc h
Ġ p
Ġ T
áº ¥
Ġc Ã
´ ng
Ġv á
Ġvá »
Ãª n
Ã¡ c
» Ļ
á »Ļ
Ġt á
Ġtá »
Ã ¢
Ġv Ãł
Ġc á
Ġcá »
Ġk h
Æ ¡
u y
Ġ q
áº Ń
Ġt há»
Ġg i
áº §
Ġ N
ĠÄĳ Ã
Ġp h
Æ°á» Ŀ
» ĳ
á »ĳ
i áº¿
Ġ x
Ľ i
Ä ĥ
Ġ há»
Ġq u
Ġcá» §
Ġcá»§ a
Ġ r
áº¡ i
Ġl Ãł
Æ°á» £
Ġc há»
Ġ C
a n
o ng
Ã ¬
áº¥ t
Ġc Ã¡c
Ġ H
ĠcÃ ³
iá» ģ
hÃ ´ng
Ã¢ n
» ±
á »±
Ġ B
Ãł y
iá»ĩ n
Æ°á»£ c
â Ģ
áº ¯
Æ°á» Ľ
Ġ V
i Ãªn
Ã ´
» ĭ
á »ĭ
» Ł
á »Ł
ĠÄĳ Æ°á»£c
Ġch o
Ġtr ong
i nh
c h
ĠÄ Ĳ
Æ°á»Ŀ i
ĠÄĳÃ £
Ġvá» Ľi
iá» ĥ
iá»ģ u
á»Ļ t
hÃ Ń
Ãł nh
uy á
uyá »
Æ°á»Ŀ ng
Æ° Æ¡
Ġ 1
a nh
Ã¬ nh
Ġ 2
» ¯
á »¯
Æ°Æ¡ ng
áº§ n
Ġng Æ°á»Ŀi
Ġk hÃ´ng
a y
Ã ³
áº£ i
a i
Ã ´ng
Æ°á»Ľ c
a m
a o
a ng
© c
© ng
áº§ u
Ġm á»Ļt
Ġ M
ĠÄĳá» Ļ
áº ·
Ġ L
Ãł n
Ġm á
Ġmá »
áºŃ n
ĵ ng
ĠT r
Ã Ń
áº¿ n
Ġl á
Ġlá »
u ng
áº£ n
Ġn Äĥ
áº¿ t
Ġ hÃ
Ġ P
Ãł ng
u á»ĳ
Ã¡ n
Ġ (
ĠcÃ ´ng
Ġ S
Ġnh Æ°
Ã¢ y
ĠT h
ĠN g
Ã¡ t
Ġt hÃ
á»¯ ng
Ġnh á»¯ng
iá»ĩ t
ĠÄĳá» ĥ
Ãł i
iáº¿ n
ĠÄĳá» ĭ
Ã £
Ġn Ãły
Ġng h
Ŀ i
» ķ
á »ķ
o n
Ġtá» «
Ã ½
ĠÄĳÃ ³
Ġh o
Ġvá» ģ
Ã¡ o
Æ¡ n
e o
Ġs á»ĳ
Ġt áº¡i
¹ ng
Ã º
Ġkh i
Ġr a
Ġg iá»
Å ©ng
Ġ á»Ł
i n
± c
ĠÄĳ áº¿n
a u
Ġs áº
Ġp há»
¥ c
Ġ Q
áºŃ t
iáº¿ t
Ġ K
ĠnÄĥ m
Ġp hÃ
0 0
Ã´ i
áº¡ n
iá»ĩ c
Ġhá» į
Ġ A
ĠvÃł o
Ġth u
Ġ âĢ
áºŃ p
Ġtr Ãªn
ĠÄĳá» ĵng
áº ©
Ġh iá»ĩn
áº ±
Ġb á»ĭ
Ġthá» ĥ
Ġd á
Ġdá »
Ã¡ ng
Ġv iá»ĩc
Ġc Å©ng
ĠÄĳ áº§u
Ġnh iá»ģu
Ġc áº£
Ġ D
Ġc hÃŃ
Ã¡ i
Äĥ ng
âĢ Ŀ
Ġn Æ°á»Ľc
ĳ i
ĠÄĳá»Ļ ng
Ġsáº ½
Äĥ n
iá»ĩ u
Ã ²
áº «
Ãª u
» ĵ
á »ĵ
ĠlÃł m
Ġnh Ãł
Ġ G
Ġd o
Æ°á»£ ng
Ġqu an
Ġng Ãły
ĠÄĳá»ĭ nh
» į
á »į
Ġc hÃ
á»Ļ i
ĠN am
áº¡ t
Ġs á
Ġsá »
iá»ĥ m
Ġs á»±
ħ n
áº¥ p
Æ° a
Ã¡c h
á»Ļ c
ĠâĢ ľ
Ġchá» ī
áº£ ng
Ġnh Ã¢n
Ä Ĳ
Ġth Ãłnh
Ġb á
Ġbá »
0 1
Ġhá» Ļ
áº£ o
Ġl áº¡i
áº¡ o
Ġd á»±
Ä ©
Ġgi Ã¡
áº¥ n
Ġ 3
ĠV iá»ĩt
áº¥ y
Ġh Ãłng
Ġ -
Ġph áº£i
uy Ãªn
¬ nh
Ġgi a
áº± ng
ģ n
o Ãłn
iá»ĥ n
Ġ Ã´ng
Ġtr Æ°á»Ŀng
Ġc Æ¡
Æ°á» Ł
Ã ©
ĠchÃŃ nh
áº« n
Ġt iáº¿
Æ°á»Ł ng
áº¯ c
Ġq uy
Ãł o
Ã¡ p
Ã¢ m
Ġd Ã¢n
á»± c
ĳ ng
iá»ĩ p
£ p
uá»ĳ c
Ġvá» ¥
Ġx e
Ġt ÃŃ
Ã¡ nh
Ġthá» Ŀi
Ġkh o
uyá» ĩ
u áº¥t
Ġh Æ¡n
Ġthá» ±c
Ġt hÃ´ng
ĠN h
ĠÄĳá» ģ
Ġhá» £p
Ġph Ã¡t
Ġnh áº¥t
Ġhá»į c
ĥ n
ĠÄĳ iá»ģu
Ġh Ãłnh
ĠT há»
iá»ģ n
Ġng há»
Ã ¹ng
e r
² n
ĠÄĳ ang
Ġb iáº¿t
Ġ y
áº¡ nh
áº· t
¢ n
ĠcÃ ²n
Ġk á
Ġká »
áº¯ t
Ġm Ãł
Ġt áº¿
i a
Ġhá»Ļ i
á»ĭ ch
Ġv iÃªn
á»ķ i
áº· c
uyá» ģn
Ġmá» Ľi
ĠÄĳ i
Ġth eo
ĠP h
Ġs au
Ġchá» ©c
Ġn Ã³
Ġs áº£n
¥ ng
Ġc ao
ĠÄĳá» ĳi
Ġtá» ķ
Ġc on
Ġs inh
ĠnhÆ° ng
ĠthÃ ¬
Ã ¹
uyá»ĩ n
Ġt Ã´i
Ġqu a
Ġl Ã½
e n
hÃ ³
Ġnh áºŃn
áº ¹
ĠQ uá»ĳc
Ġ á
Ġá »
Ġngh iá»ĩp
iá»ĩ m
Ġk há»
á»ĳ c
áº£ m
áº¡ m
áº¥ u
Ġt Äĥng
u á»Ļc
ī nh
o áº¡i
Ġdá» ¥ng
ĠhÃ ¬nh
Ġx uáº¥t
Ġ U
Ġb á»Ļ
Ġl u
ĠcÃ ¹ng
Ġtiáº¿ p
Ġtr Ã¬nh
áº »
ĩ nh
Ġth áº¿
a r
. .
º ng
Ġt Ã¡c
Ġtr á
Ġtrá »
Ġt Æ°
áº¡ ng
Ġt in
Ġl Æ°á»£ng
Ġ2 01
i Ãªu
Ġtr Æ°á»Ľc
Æ¡ i
Ġr áº¥t
Ġc áº¥p
Ġ Ã¡n
Ġ 4
T h
ĠTr ung
Ġt u
» ¹
á »¹
Ġ 5
Ġtá» ĳ
Ġlá» Ľ
ĠÄĳ iá»ĥm
Ġl Ãªn
iá»ĥ u
Ġn Ãªn
» Ń
á »Ń
Ġ an
Æ°á»Ľ ng
Ġk inh
Ġthá» ĭ
Ġ "
ĠÄĳ Æ°á»Ŀng
áº£ nh
Ġk áº¿t
ĠC Ã´ng
Ġb Ã¡o
² ng
Ġm Ã¬nh
ĠQ u
Ã´ n
Ġt Ã¬nh
Ġchá» §
h i
Ġtr iá»ĥn
Ã¡ y
ĠH Ãł
T r
áº¿ u
iá» ħn
a l
Ġtá» īnh
Ġc áº§u
Ġl á»±c
Ġdo anh
Ġn ay
ĠnÄĥ ng
Ġtá» Ľi
Ġgiá» ¯
uyá» ħn
Ġv áº«n
Ġ anh
Ġkh u
o Ãłi
i m
³ ng
Ġx Ã£
Ġgi áº£i
« a
áº© m
e m
Ġt oÃłn
ĠB á»Ļ
ĠcÃ¡c h
Ġv Ã¬
Ġt iá»ģn
áº¡ ch
ĠÄĳ Ã¢y
Ġth Ã¡ng
ĠNg uyá»ħn
Ġb áº£o
Ġc uá»Ļc
Ġh ai
Ġqu á»ĳc
u a
Ġthá» §
Å ©
i Ãª
ĠnÃ³ i
Ġkh Ã¡c
Ãº c
Ġsá» Ń
uyá» ĥn
Ġlá»Ľ n
ĠÄĲ á
ĠÄĲá »
Ġgi ao
ĠG i
ĠM á»¹
Ġt Ã¢m
Ġgiá» Ľi
áº¯ ng
Ġcá» ©
N g
Ġthá» ĳng
á»į ng
ĠC h
Ġb áº¡n
Ġqu áº£
ĠÄĳá»ĭ a
Ġtr a
ĠphÃ ²ng
Ġquy áº¿t
Ġtá» ±
Ġbá» ĩnh
Ġph Æ°Æ¡ng
Ġt Ãłi
Ġ X
Ġ 6
Ġvá» ĭ
Ġ R
Ġn á»¯
Ġr áº±ng
á»ĳ i
ĠÄĳ áº¡o
Ġth i
Ġgi an
Ġph Ã¡p
Ġk hÃ³
Ġm áº·t
Äĥ m
£ i
Ġnh iÃªn
Ġ I
Ġ áº£nh
Ġn á
Ġná »
Ġt áº¡o
Ġtá» ¥c
e s
Ã² ng
Ġvá» ±c
Ġtr iá»ĩu
Ġph áº§n
Ġc áº§n
á»ĵ i
ĠÄĳá» ķ
Ġd iá»ħn
ĠN á»Ļi
Ġch Æ°a
Ġth áº¥y
Ġth Æ°Æ¡ng
Ġt iÃªu
ĠÄĳ áº¡i
Ġd á»ĭch
iáº¿ u
Ġl áº§n
Ġ Ã½
Ã¢ u
Ġ Ã
áº¯ n
ĠT P
Ġtá» ·
Ġl iÃªn
Ġb áº£n
Ġp hÃŃ
Ġb Ã¡n
Ġtr á»įng
á»Ļ ng
Ġt y
ĠhÃ ³
Ġtr Æ°á»Łng
Ġkh Ã¡ch
Ġhá» ĩ
Ġb áº±ng
ĠhÃ³ a
Ġtr á»ĭ
Ġho áº¡t
Ġt áºŃp
Ġm Ã¡y
ĠC há»
¢ u
Ġdá»± ng
o r
Ġm áº¡nh
Ã µ
Ġh iá»ĩu
áº¡ c
Ĺ i
Ġchá» ĭ
Ġkh ai
Ġs o
Ġth Æ°á»Ŀng
Th eo
ĠÄĳ Æ°a
ĠcÃ ´
ĠtÃŃ nh
Ġv i
Ġnh á
Ġnhá »
ĠC hÃŃ
Ã¡ m
Ġtu á»ķi
Ġgi áº£m
Ġy Ãªu
áº© n
áºŃ y
º c
Ġch áº¥t
ĠÄĳ áº¥t
ĠÄĳ iá»ĩn
00 0
Ġthá» ©c
e t
Ġth am
ı i
Ġn Ãło
« ng
2 01
áº§ m
Ġs á»Ł
Ġl Ã£
á»ĵ n
Ġ 7
Æ° u
ĠV Äĥn
ĠH o
ĠÄĳá»Ļ i
Ġtr á»Ł
Ġx Ã¢y
e l
Ġnh iá»ĩm
áºŃ u
ĠchÃ ºng
Ġh ay
Ġph áº©m
Ġs Ã¡t
Ġch iáº¿n
Ġg áº§n
Ġsá»ĳ ng
á»ķ ng
Ġqu Ã¡
Ġ em
áº ³ng
ĠA nh
Ġng á
Ġngá »
) ,
Ġtr ung
Æ° ng
Ġkho áº£ng
Ġb á»ĳ
ĠÄĳá»ķ i
Ġphá» ĳ
Ġch iáº¿
Ġmá» ©c
Ġch áº¿
Ġ1 0
Ġvá» «a
ĠtÃŃ ch
ĠK h
áº ¢
Ġq uyá»ģn
Ġb áº¯t
ĠÄ ĥn
Ġb áº¥t
ĠP hÃ
Ġcá» Ń
Ġc Ã¡o
Ġb Ãł
ĠÄĳÃ ¬nh
Ġhá» ĵ
Ġs Ä©
Ã© t
áº± m
ĠÄĳ Æ¡n
uá»ĳ ng
Ġ 8
uy áº¿n
Ġkh iáº¿n
u á»ĵn
âĢĿ .
Ġ2 0
Ġb iá»ĩt
Ġk iáº¿n
Ġgiá» Ŀ
Ġt Æ°á»£ng
áº£ y
Ġm ua
Ã³ ng
áº¢ nh
Ġnghá» ĭ
Ġch uyá»ĥn
Ġg Ã¢y
ĠÄĳ Ã¡nh
Ġng oÃłi
Ġk iá»ĥm
Ġ Y
Ġcáº£ nh
Ġh uyá»ĩn
Ġcá»© u
Ġthá» ©
Ġv áº¥n
Ãº p
ĠÄĳ o
Ġtá»ĳ t
N D
Ġph áº¡m
uá»ĳ n
) .
Ġ F
Ġl oáº¡i
Ġs Ã¡ch
âĢ ¦
Ġtr áº»
.. .
Ãł u
Ġ 9
Ġho Ãłn
Ġká» ³
Ġqu Ã¢n
ĠB Ã¬nh
ĠÄĳá»ģ u
Ġcáº£ m
Ġth iáº¿t
ª m
Ġtá» ĭ
Ġtr ang
Ġv Äĥn
ĠÄĳ áº¥u
Ġt a
Ġd iá»ĩn
Ġphá» §
Ġ1 9
Ġs Ã¡ng
Ã¬ m
Ġx á»Ń
Ġv áºŃy
Ġb an
uá»ĳ i
iÃª m
Ġl áºŃp
Ġtá»ĭ ch
Ġb Ãłn
Ġnh áºŃp
Ġgi Ãºp
Ä© nh
áº· p
Ġcá» ķ
Ġch u
Æ°á» Ľi
Ġá» ©ng
ĠthÃ ªm
ĠÄĳ oÃłn
ĠChÃŃ nh
º t
ĠThá» §
Ġd Ã¹ng
Ġd áº«n
Ġgiá»¯ a
áº· ng
¯ ng
ĠÄĳÃ ´
ĠTh anh
Ġsá» ©c
Ġtrá» £
Ġb Ãªn
Ġt Ã¬m
Ġtr ÃŃ
Ġb Ã¬nh
Ġnghá» ĩ
Ġphá» ¥c
Ġ E
Ġt hÃŃ
2 0
Ġl o
Ã² a
Ġb iá»ĥu
ĠÄĳ áº·c
Ġm ang
Ġt ay
Ġg Ã¬
Ġqu áº£n
Ġlá» £i
ĠhÃ ´
Ġnh au
ĠÄĳ áº¡t
Ġvá» ĩ
ĳ n
ĠT á»ķng
Ġng Ãłnh
Ġt iáº¿n
Ġc Ã¡
Ġtr uyá»ģn
Ġr á
Ġrá »
Ġtá»« ng
Ġlu áºŃt
Ġg Ã³
Ķ ng
Ġt Æ°á»Ľng
áº¹ p
Ġk áº¿
Ġh Æ°á»Ľng
Ġngh Ä©
Ġn Æ¡i
ĠM inh
Ġho áº·c
Ġchá» ©ng
Ġb ay
Ġbá» ı
áº¥ m
Ġt Ãªn
ĠA n
Ġthu á»Ļc
áº© u
Ġlá» Ŀi
Ġm uá»ĳn
Ġb iáº¿n
Ġ ÃŃ
S D
Ġng uyÃªn
ĠthÃ ¢n
© p
Ġv iá»ĩn
Ġt iÃªn
Ġk hÃŃ
a s
Ġgi Ã¡o
ĠChá» §
Ġvá» ĳn
ĠTr ong
Ġ J
Ġphá» ¥
Ġl á»ĭch
ĠâĢ ĵ
á»į c
Ġch uyÃªn
Ġk iá»ĩn
Ġho áº¡ch
Ġchiáº¿ c
Ġh áº¿t
áº§ y
Ġm áº¡ng
Ġtá»ķ ng
Ġm áº¹
i t
Ġtá» Ń
Ġtiáº¿ ng
Ġx Ã¡c
Ġn áº¡n
Ã¡ u
ĠThá» ĭ
o m
Ġch ung
Ġt o
Ġc a
áº¯ m
áº¡ y
Ã³ m
áº¯ p
Ġn áº¿u
Ġr á»ĵi
ĠT uy
Ġtr áºŃn
i l
Ġb ao
a t
Ġh áº¡n
Ġr Ãµ
Ġtr anh
i c
Ġv Ã¹ng
áº ½
Ġch i
Ġth anh
ĠU SD
Ġ W
ĠÄĳ áº£m
Ġkh áº©u
Ġl Ãºc
ĠH áº£i
Ġm inh
âĢĿ ,
Ġ áº¢nh
Æ°á»£ t
Ġd Ãłi
Ġb iá»ĥn
i s
Ġng uá»ĵn
Tr ong
Ġmá» į
Ġth ay
ĠÄĳ áº¹p
Ġv áºŃt
Ġl iá»ĩu
ĠÄĲ áº¡i
Ġch ia
Ġcá» ĳ
Ġn á»Ļi
C M
ĠÄĳá» ĳ
į n
Ġg áº·p
ĠB áº¯c
Ġch uyá»ĩn
o l
Ġk Ã½
á»Ł i
u Ã¢n
Ġx áº£y
Ġb u
ĠlÃ£ nh
Ġchá» ĳng
Ġchá» ĵng
ĠNg a
» ĵng
á »ĵng
ĠNh Ãł
ĠÄĲ Ã´ng
Ġthu áºŃt
u s
Ġá» §
ĠvÃł ng
Ġh Æ°á»Łng
Ġng Ã¢n
Ġb Ã³ng
iÃª ng
Ġtr á»±c
Ġmá»į i
Ġv áºŃn
Ġt Ãłu
Ġmá» Ĺi
Ġh uy
Ġvá» £
ĠÄĳá» §
Ġmá» ¥c
Ġgi áº£
Ġm áº¥t
Ġhá» Ĺ
ĠS Æ¡n
ĠÄĲá» ©c
ĠphÃ ¢n
» Ľi
á »Ľi
áºŃ m
Ġc uá»ĳi
Ġnhá» ı
Ġtr áº£
Ġs ao
Ġt iáº¿t
Ġxe m
áº« u
Ġx Ã©t
ĠB an
Ġchu áº©n
N h
B ND
ĠTh Ãłnh
Ġng ay
Ã³ c
Ġm á»Ł
Ġch Æ°Æ¡ng
ĠH á»Ļi
Ġd anh
Ġkh áº£
Ġ1 2
i d
ĠphÃŃ a
Ġs Ã¢n
Ġchá» įn
Ġg Ã¡i
Ġth Æ°
Ġ O
Ġd u
Ġk Ã©
ĠP hÃ³
Ġx uá»ĳng
há» ¯ng
u r
á»į i
Ġc áº¡nh
Ġ1 5
Ġtr áº¡ng
C h
a d
a c
ĠHo Ãłng
» ³
á »³
ĠÄĳo áº¡n
Ġcá»Ń a
Ã¢ ng
Ġlu áºŃn
ĠÄĳ áº·t
Ġlu Ã´n
į ng
Ġká» ĥ
Ġd Ã¹
Ġngh iá»ĩm
Ġc Ã¡i
© a
Ġnh Ã³m
ĠU BND
Ġb Ã©
ĠÄĳá»ĳ c
Ġkh Äĥn
Ġy áº¿u
Ġl ao
Ġ Ã¡p
ĠTh eo
Ġnh áº±m
Ġs ang
á»ĭ p
ĠÄĳá» ĵ
Ãª m
ĠÃŃ t
ĠthÃ ´
Ġk ÃŃ
Æ°á» ¡
Ġ3 0
Ġ Ã´
Ġná»¯ a
ĠL Ãª
ĠÄĳá» Ŀi
Ġm áº¯t
Ġ1 1
ĠÄĳÃ ºng
ĠC hÃ
Ġk hÃ
áº© y
ĠTr áº§n
á»ĵ m
Ġm Ã¹
u n
ĠgÃ³ p
Ġnh anh
Ġl áº¥y
Ġb á»Łi
ĠphÃ ©p
ĠÄĳÃ³ ng
Ġt Æ°Æ¡ng
Ġt áº¥n
Ġtr Ã²
Ġtr Ã¡ch
Ã ¨
1 9
Ġsáº »
Ġc ung
Ġn á»ķi
T T
Ġn Ã´ng
Ġph im
ĠTh Ã¡i
ĠthÃŃ ch
Ġh áºŃu
Ġ2 00
t er
Ġcá» ±c
Ġdá» ¥c
ĠÄĲ áº£ng
Ġg á»ĵm
iáº¿ m
Ġv Ã´
Ġch iá»ģu
¢ y
ĠT á
ĠTá »
l e
Ġc Ã¡n
Ġs áº¯c
o s
ı a
Ġtá» ĳi
ĠD Æ°Æ¡ng
Ġlá» ĩ
ĠÄĳ Ã¡
" .
Ġphá» ĳi
ĠcÃ ¢y
H CM
Ġg á»įi
Æ°á»¡ ng
Ãº t
Ġt áº£i
Ä ĳ
Ġtr Ã¡i
Ġr á»Ļng
Ġch Æ¡i
Ġhá» ıi
r a
Ġc Ãłng
Ġkh Ã¡
Ġl Æ°u
Ġhá»ĵ i
Ġn Ã¢ng
Ġd Æ°á»Ľi
» ¥
á »¥
ĠÄĳ Ã¡ng
P h
Ġt inh
Ġtu áº§n
Ġ áº¥y
¯ u
1 0
Ġb Ãłi
Ġ ai
Ġt á»Ļi
Ġt áº¥t
Ġt uyá»ĥn
Ġcá» ¥
Ġv Ã²ng
Ġkho a
ĠgiÃ¡ m
u áº¥n
ĠT Ã¢y
T há»
ĠNg á»įc
Ġph iÃªn
ĠNh áºŃt
Ġng hÃ
Ġg hi
t h
Ġqu áºŃn
ĠH á»ĵ
Ġng oáº¡i
Ġm áº¡i
ĠS au
ĠÄĳ Äĥng
ĠL ong
Ġs Æ¡
Ġhá» ¯u
t r
ĠchÃ ¢n
ĠC Ã¡c
Ã£ i
Ġnh u
âĢ ľ
ĠhÃ ²
u m
i ng
ĠhÃ´ m
V N
Ġt uyáº¿n
Ġ '
Ġd i
ĠÄĳ áº©y
Ã² n
ĠX uÃ¢n
Ġth uá»ĳc
Ġth áº¯ng
Ġch áº¿t
Ġd ung
Ġl á»Ļ
Ġc Äĥn
ĠÄĲá» ĵng
ĠcÃ ¢u
ĠÄĳ Ãłn
ĠÄĳ áº£o
ĠQu áº£ng
Ġká» ¹
ĠNg há»
Ġth áº¥p
ĠÃ ģ
Ġl Ä©nh
ĠÄĳá»Ļ c
Ġm Ã´
Ã Ķng
Ġs uáº¥t
Ġng uy
Ġl Ã²ng
Ġc á»Ļng
Ġph ong
Ġh áº¡i
Ã¬ n
ĠL an
Ãł m
ĠhÃ £
Ġr iÃªng
Ġth áº§n
Ġho a
» ¥c
á »¥c
Ġ 0
Ġm áº«u
Ġthu áºŃn
Ġchá» ¯
ĠTh u
Ł i
ĠnghÄ© a
Ġt uyÃªn
o o
Ġph áº£n
Ġch áº¡y
Ġb a
Ġlá» ħ
Ġm Ã´i
Ġth iáº¿u
Ãº ng
u Ã´i
Ġvá» įng
ĠÄĳ áº§y
Ġth o
Ġthu áº¿
ĠÄĳÃ ´ng
Ġph iáº¿u
á»Ń i
iá» ħ
Ġso Ã¡t
Ġkh áº³ng
áº¡ p
o t
ĠchÃ ¢u
Ġt ai
ĠÄĳ Ãªm
C Ã¡c
ĠchÃ º
ĠTr Æ°á»Ŀng
ĠmÃł u
Ġkhá» ıi
ĠÄĳ a
u i
ĠhÃ² a
Ġv ai
Ġká» ·
Ġc Æ°á»Ŀng
ĠH Ã²a
a g
Ġth áºŃt
Ġnh Ã¬n
Ġtr ai
Ġkho áº£n
Ġph Ã¡
Ġh iá»ĥu
Ġngh iÃªm
ĠS á»Ł
ĠÄĳá» ©ng
Ġch áº¥p
Ġg á»Ńi
Ġm Æ°a
Ġth oáº¡i
Ġá»§ y
o v
Ġdá» ħ
Ġngh iÃªn
Ġc Æ°
Ġ á»ķ
Ġn áº±m
Ġchá»ĭ u
Ġb Æ°á»Ľc
Ġ Æ°Æ¡ng
ĠmÃ¹ a
Ġná» ģn
S au
Ń a
uyá»ĩ t
áº¿ p
1 2
Ġd áº§u
uy áº¿t
ı e
Ġh iá»ĥm
Ġph áº¡t
Ġto Ã¡n
ĠI n
Ġg á
Ġgá »
ĠL iÃªn
1 1
i et
Ġnh áº¡c
ĠL u
Ġngá» Ŀ
ĠGi ang
Ġt Æ°á»Łng
Ġth iá»ĩn
Ġkhá» ıe
Ġbu á»ķi
Ġx Ãºc
ĠB áº£n
Ġn iÃªn
¦ y
Ġt Ãº
Ġ1 3
Ġ1 8
á»± a
iá»ģ m
Ġ1 4
Ġn áº·ng
Ġlá»Ľ p
ĠPhÃ º
ĠthÃ ºc
į c
Ġ1 6
Ġv Æ°á»£t
ĠÃ Ķng
Ġt Ã´
Ġd Ãłnh
Ġhá»į p
ĠvÃł i
Ġlá» Ńa
ĠtÃŃ n
e d
Ġc áº£i
Ľ m
Ġná» £
M á»Ļt
Ġkhá» Łi
Ġtr ao
Ġnghá» ģ
ĠQu ang
ĠkÃ© o
Ġb iÃªn
h o
Ġth áº£o
Ġá» ¦y
Ġb á»ķ
ĠÄĳÃ´ i
Ġt iá»ĩn
i p
ĠNh Æ°ng
Ng Ãły
Ġh áº¡
Ġm Ã´n
Ġx a
ĠphÃ ºt
Ġv Å©
© t
iá»ħ m
" ,
Ã£ o
áº§ ng
Ġn uÃ´i
Ġsá» Ľm
á»Ń a
Ġs Ã¢u
Tr Æ°á»Ľc
i r
Ġá»ķ n
ĠHo a
Ġn am
ĠH Ãłn
Ġx in
Ġ2 5
Ġb Ã¡c
ĠK hi
on e
ĠT Ã´i
Ã³ n
ĠN inh
ĠphÃ ¹
ĠphÃ ³ng
ĠH u
o i
Ġn inh
ĠPh áº¡m
Ġt áº§ng
Ġ1 00
ĠGi Ã¡m
ĠÄĲ Ã¢y
ĠÄĳ Ãło
Ġtr Ã¬
Ġph Æ°á»Ŀng
Ġv ay
» ĩ
á »ĩ
a p
ĠhÃ ºt
ĠM á»Ļt
ĠPhÃ ²ng
Ġch Ã¡u
Ġv ui
Ġl Ã¢u
ĠNg uyÃªn
Ġx uyÃªn
ĠthÃ´ n
Ġd uy
hÃ ¢n
Ġqu Ã½
ĠD o
Ġth Äĥm
ÄĲ T
Ġ Ã¡o
ĠÄĲ iá»ģu
Ġchá»ī nh
ĠB á
ĠBá »
ĠÄĲ Ãł
ĠV Å©
áº· n
Ġ1 7
ĠT Ã¢n
an d
Ġk iáº¿m
r o
ĠPh Æ°Æ¡ng
Ã³ a
Ġng Ã´i
Ġchiáº¿ m
Ġk Ãª
Ġm iá»ģn
Ġnghá» ī
Ġtá»ĳ c
Ġ Ã¢m
ĠT iÃªn
áº µ
Ġthá»§ y
Ġth áº©m
C há»
ĠK im
Ġm ong
ĠH á»ĵng
» ģ
á »ģ
ĠB ÃŃ
Ġm áº¯c
e b
Ġgi ai
Ġnh iá»ħm
ĠN áº¿u
Ġgi áº¥y
Ġb áº§u
Ġb iá»ĩn
Ġt Ã²a
Ġngh e
ĠT uáº¥n
Ġs Ã´ng
e w
Ġqu Ã¡n
ĵ n
á»ĭ nh
Ġtá» ©c
Ġs ai
Ġt áº¡m
Ġb uá»Ļc
Ġ uá»ĳng
áºµ ng
a k
Ġch Ã¡y
á»¯ a
ĠD N
Ġngh i
N há»¯ng
Ġt Ã¹
ĠN há»¯ng
Ġtr Ã¡nh
ĠPh Ã¡p
Ġgiá» ĳng
ĠK á»³
Ġs Æ°
Ġtá» ī
ĠLu áºŃt
Ġ5 0
T áº¡i
ĠÃ Ĥ
ĠN áºµng
Ã£ n
Ġchá»¯ a
ĠM ai
L V
Ġm á»ĳi
ĠL inh
ĠChÃ ¢u
Ġtr Ãº
Ġbá» ©c
ĠphÃ ª
Ġd a
ĠT áº¿t
Ġ2 4
Ġhá»į a
Ġh Ã¡t
ĠÄĳ au
T uy
Ġd áº¥u
ĠNg Æ°á»Ŀi
§ ng
Ġtá» ı
Ġth áº¥t
á»į n
Ġd Ã²ng
¨ o
Ġth Æ°á»Łng
ĠC á»¥c
ĠnÃ³ ng
ĠÄĳ Ã¡p
Ġchá» Ĺ
ĠT Ãłi
¬ n
Ġch uyáº¿n
ı ng
Ġkh áº¯c
Ġthu Ãª
ĠK hÃ´ng
Ġc am
Ġch áº¯c
á»ĳ ng
u p
Ġv ong
Ġt Ã¡i
Ġkh Ã¡m
Ġth iá»ĩt
ĠlÃ£ i
Ġ201 8
e x
u t
Ġ Æ°u
Ġv iáº¿t
Ġm áº·c
Ġb Ãły
ĠT H
p h
uá»ĳ t
Ġkh Ã¡n
Ġd Æ°á»¡ng
Ġl Æ°Æ¡ng
P T
Ġqu ay
Ġm a
Ġx anh
3 0
ĠD Å©ng
» Ĺi
á »Ĺi
ĠNg Ã¢n
Ġnh iá»ĩt
Ġtrá» Ŀi
Ġch Äĥm
ĠkÃŃ ch
ĠÄĳá» ı
Ġk á»ĭp
Ġm Ã¡u
Ġ2 2
ĠNghá» ĭ
A N
Ġh áº¡ng
Ġth Ã¡i
ĠC Ã³
ĠB áº£o
Ġt á»Ļc
ÃŃ nh
ĠV Ã¬
ĠhÃ£ ng
ĠÄĳÃ³ n
ÄĲ á
ÄĲá »
Ġ2 1
ĠTá» «
ĠÄĳ Ã¢u
Ġvá» ¯ng
Ã¹ i
Ġth Ã¡c
Ġnhá» Ŀ
T V
Ġcá» ¥c
T C
ĠC hi
Ġqu anh
Ġs iÃªu
Ġkhá» ĳi
Ġx á
Ġxá »
Ġl Ã¡i
ĠT á»ķ
ĠTh áº¿
i v
Ġlo áº¡t
Ġnh áº¥n
ĠÃĤ u
Ġnhá» Ľ
ĠH Ã¹ng
in e
i g
ai n
Ġphá» ķ
Ġx áº¿p
G i
o a
Ġthá» Ń
Ãº i
Ġchá» Ŀ
ĠT hÃ
ĠlÃł ng
Ġ201 6
Ġth áº³ng
Ġn á»ĳi
ĠhÃ´ n
Ġv áº»
T á
Tá »
ĠH LV
ĠTr iá»ģu
Ġtrá» ĵng
Ġsáº µ
Ġnh áº¹
T Ã´i
Ġsáºµ n
Ġh áº¡t
ĠNg oÃłi
Ġl á»±a
Ġ2 3
ĠcÃ ¢n
u e
Ġkhá» §ng
¢ m
Ġ201 7
H iá»ĩn
iáº¿ p
Ġm ay
Ġs ung
Ġgi Ãłnh
Ġs ong
ĠH iá»ĩn
Ġn iá»ĩm
ĠY Ãªn
ĠBá» ĩnh
Ġsá»Ń a
Ġt áº·ng
Ġl Æ°á»£c
ĠChá» ī
X VN
Ġ20 20
Ġg áº¯n
ĠnghÃ ¨o
ĠV N
B á»Ļ
Ġch áº·t
ĠV iet
Ġch áº³ng
Ġc áº§m
Ng Æ°á»Ŀi
á»³ nh
Ġqu Ãª
Ġb áº£ng
Ġchá» ©
ĠchÃ ³ng
ĠÄĲ Ã¬nh
Ġng á»ĵi
Ġ201 5
Ġc áºŃp
Ġt áº§m
y r
Ġrá» «ng
N H
Ġqu en
Ġl uyá»ĩn
Ġc an
Ġc áº¥u
ĠTh Æ°Æ¡ng
Ġl y
ĠL e
Ġm Ãłn
5 0
t on
Q u
Ġthá» ıa
Ġr Ãºt
Ġc Ã¡nh
ĠH iá»ĩp
ĠÃŃ ch
ĠL á
ĠLá »
/ .
Ġs uy
ĠK inh
Ġc áº¯t
Ġl Æ°á»£t
Ġc áºŃn
ĠKh Ã¡nh
¥ p
ĠL Ã¢m
ĠV á»Ľi
ĠÄĳá»Ļ t
um p
% .
Ġlá» ĩnh
ĠH Æ°ng
en t
Ġn Ãªu
ĠH Æ°Æ¡ng
ĠR e
ĠT iáº¿n
ĠPhÃ ºc
ĠH Ã³a
Ġth áºŃm
Ġ Æ°á»Ľc
Ġh áº£i
ĠtÃº y
Ġng Äĥn
S N
r an
Ġb inh
Ġd Æ°
Ġtr uy
Ġ Ã¡nh
Ġqu áº§n
Ġc oi
ĠphÃ ºc
Ġc Å©
Ġ áº¥n
V á»Ľi
Ġ4 0
2 00
Ġt áº¯c
K hÃ´ng
ĠkhÃ³ a
Ġná» Ĺ
n am
Ġngá» §
ĠT o
ĠÄĳÃ Ń
Ġd á»ĭp
Ġdá» «ng
Ġtr Æ°Æ¡ng
u l
2 1
Ġchá» £
Ġng áº¡i
Ġkhá» ķ
Ġthá» «a
Ġtr áº¯ng
Ġm Ã³n
a v
O V
Ġl iá»ĩt
Ġthá»ĭ t
Ġl áº¡c
Ġ201 9
Ġkh áº£o
Ġ Z
K hi
² i
Ġb Ã£o
Ġtrá» ¥
Ġtá» ĵn
Ġs áº¯p
Ġthá» ¥
a b
ĠN hÃ¢n
o an
Ġs uá»ĳt
S E
ĠD á»±
Ġ2 7
Ġx áº¥u
Ġtá» Ŀ
Ġ2 6
ĠTr ump
Ġ2 8
Ġn á»ķ
Ġch a
Ġgi Ã³
Ãµ i
yr ia
Ġá»§ ng
i k
ĠÄĲ oÃłn
Ġm áºŃt
ĠNg Ãły
ĠNg h
Ġd Ã¢y
ĠthÃ º
Ġd áº¡ng
Ġ19 9
Ġm á»Ļ
Ġd áº¡y
ĠQu Ã¢n
Ġl áº½
áº ¤
ĠT hÃ´ng
u á»ķi
Ġs áº¡ch
ĠS yria
ĠN ew
ĠkÃ© m
am p
Ġs Ãłng
ĠG D
ĠTr Æ°á»Łng
Ġl Å©
. /.
Ġb Ã¡nh
Ġt áºŃn
Ġm Ã£
Ġtr Äĥm
an k
Ġth iÃªn
Ng oÃłi
áº¹ n
Ġtr áº£i
Ġth ao
Ġth áº§y
Ġb áº¡c
Ġchá» ©a
ĠnghÃ ¬n
ĠÄĳ áº£ng
Ġgi Ã¡c
i e
Ġtho Ã¡t
Ġr Æ¡i
o b
Ġn Ãºi
ĠC Æ¡
Ġg á»ĳc
t e
Ġchá» Ł
i on
Ġs Ã³ng
ĠÄĳ Æ°Æ¡ng
Ġsá» £
Ġl ai
ĠÄĳÃŃ ch
ĠG ia
ĠNg oáº¡i
£ t
c o
Ġsá» ¹
ĠT áºŃp
Ġch áº¯n
Ġx ung
ĠM ar
ĠB Ãł
á»Ļ n
Ġlá» Ĺi
ĠPh ong
Ġ f
T P
2 3
Ġl Ã¡
C Ã´ng
Ġt iá»ĥu
Ġ2 9
ĠN Äĥm
ĠTr Æ°á»Ľc
l y
Ġd áº§n
Ġchá» ¥c
Ġh áº¥p
ĠL Ã½
á»ĳ n
ĠThá»§ y
ar d
ĠÄĲ á»Ļ
ĠB a
Ġt áº¡p
į a
ĠT áº¡i
Ġx Äĥng
Ġng áº¯n
Ġc áº¥m
Ġtá» ĩ
Æ°á»Ľ p
ĠkhÃ ºc
Ġchá» ¥p
Ġs Ã³c
ĠV Ä©nh
Ġ201 4
Ġl áº¡nh
ĠA l
ĠC áº£nh
is t
I D
Ãº a
ĠÄĲ H
ĠkhÃ ´
ĠH ÄĲ
Ġv Ã©
ĠH á
ĠHá »
Ġth áº£i
Ġh Ãłi
Ã© p
ĠPh Ã¡t
ĠNh iá»ģu
Ġ in
á»Ļ p
ĠA r
oo k
Ġl áº¡
Ġph áºŃn
Ġph i
Ġmá» «ng
Ġn áº¯m
Ġgi áº£n
Ġph Ã¡n
Ġkh uyáº¿n
C hÃ
ĠB Ã¡o
ĠcÃ º
Ġ i
ĠV iá»ĩn
K h
ĠV Ãł
ĠTh Æ°á»Ŀng
Ġth Æ¡
ĠÄĳ en
Ġmá» Ŀi
ĠTr ang
Ġs Ãºng
ĠphÃ ³
ĠB iÃªn
Ġn iá»ģm
Ľ t
Ġkho Ã¡n
I I
Ġk áº»
ĠPh an
in es
Ġcá» ±
ĠC S
Ġb áºŃt
Ġl an
ĠV inh
Ä© a
n et
Ġh áº¡nh
ĠÄĳá» ©a
ĠÄĳ ua
Ġd Ãµi
al d
Ġt uyá»ĩt
¥ t
Ġnh áº¯c
ĠNghá» ĩ
ĠV Ã¢n
ĠÄĳ Ã¡m
ĠV iá»ĩc
in a
Ġb ÃŃ
ĠÄĳ Ãłm
ĠP há»
u b
ĠH uy
áº¤ n
H Ãł
Ġth iá»ĩu
Ġk Ãªu
r e
G T
T á»ķng
Ġm áº¥y
Ġk im
Ġs áº¯t
Ġth áº§u
Ġch áº·n
TT XVN
á»Ļ m
Ġd á»¯
ĠH ai
Ġt im
Ġh y
Tá» «
ĠÄĲ áº¿n
§ y
Æ°Æ¡ i
ĠÄĳá» £t
ĠThu áºŃn
s e
ĠthÃ´ i
Ġng uyá»ĩn
t y
ĠKh u
Ġx u
m ar
ĠÄĳá» įc
Ġh áº§u
Ġb áº¡i
Ġb á»ĳi
il l
Ġch áºŃm
Ġh Æ¡i
C Ã³
Ġc Ãł
Ġs á»¯a
i b
% ,
Ġm áº½
Ġc Æ°á»Ľi
Ġl iá»ģn
Ġg h
d on
Ġn áº¯ng
ĠÄĳÃ ²i
ĠP ar
ĠT T
ĠÄĳá»ĭ ch
Ã³ t
iáº¿ ng
Ġ6 0
ĠL a
ÄĲá» ĥ
Ġr u
Æ°á»Ŀ n
Ġh Æ°Æ¡ng
Ġb áº¯n
V á»ģ
Ġlá» ¥c
SE AN
Ġt uy
Ġ201 3
Ġn á»Ļp
Ġtr áº¥n
Ġb Ã¨
Ġkh áº©n
Ġqu áº£ng
ĠChÃ ºng
Ġb Äĥng
k g
Æ°á»£ u
ĠNh Æ°
l o
Ġho Ãłng
Ġb Ãło
Ġg áº¯ng
Ġnh áºŃt
Ġr Ãłng
ĠÄĳá» ¡
Ġ3 1
Ġ201 2
p p
Ġng o
ĠC Ã²n
ĳ t
ĠÄĲ á»ĭnh
Ġt Ã´n
ÄĲ Ã¢y
Ġ áº¤n
Ã³ i
Ġk Ã¨
ĠTh iÃªn
Ġgi Ãłu
ag ue
Ġth ai
Ġk á»ĭch
Ġra u
c e
Ġsá» ©
ĠNh a
Ġl áº¯ng
ĠM an
ĠÄĲ Ã³
ĠÄĲ Ãło
Ġbá» Ŀ
Ġx ong
Ġ19 8
Ġs Ãłn
ĠL Ãło
Ġnhu áºŃn
ĠTh áº¯ng
ĠTP HCM
ĠÄĳo Ã¡n
Ġthu a
ĠA SEAN
âĢ Ļ
ĠÄĳ em
Ġm iá»ħn
ĠC Ã´
N áº¿u
X H
Ġg Æ°Æ¡ng
Ġb ang
a h
¨ n
or e
Æ ¯
ĠC Æ°á»Ŀng
Ġr Ã¡c
á»į t
Ġk iá»ĥu
á»¯ u
ĩ t
Ġl Æ°á»Ľi
Ġm Ã¡i
Ġr Æ°á»£u
Nh iá»ģu
ģ m
Ġc áº·p
Ġdá» ©t
Ġrá» §
ĠTr á»įng
Ġrá» Ŀi
Ġc Æ¡n
Ġc Æ°á»Ŀi
» ©c
á »©c
c k
Ġqu á»¹
Ġ201 1
Ã£ y
Ġb Ã£i
on ald
Ġng Æ°á»£c
Ġd uyá»ĩt
Ġbá» ģn
o d
i an
Ġc Æ°á»Ľp
v n
Ġqu Ãł
es t
201 8
Ġn á»Ńa
q u
ĠC ao
Ġd ao
Ġth Ã¡ch
ĠkÃŃ nh
Ġm Ãª
Ġt áº¥m
Ġph a
ĠT Æ°
N N
ĠS Ãłi
ĠP V
¹ a
ĠD u
Ġt Ã¡
A nh
ĠhÃ£ y
ĠTr Æ°Æ¡ng
Ġd Æ°Æ¡ng
Ġkh iá»ĥn
ĠD uy
ĠGi Ã¡o
ĠH á»¯u
ĠÄĲá» ĥ
2 5
ĠB Ãªn
Ġb á»ĵi
C C
ĠB r
l ip
ĠKh oa
c om
Ġngá» «ng
Ġl áº«n
ĠS a
es s
ĠH CM
Ġ5 00
Ġh iá»ĩp
Ġ w
Ġhá» §y
ĠG Ã²n
į t
ĠhÃ ¨
a z
ĠD Ã¢n
Ġdá» įa
o p
Ġd á»ĭ
ĠgÃ³ i
ĠC up
B Ãªn
Ġgi áºŃt
ĠÄĲ iá»ĩn
ÃŃ t
20 20
ĠH á»į
Ġkh áº¯p
o u
ĠÄĲ áº§u
2 2
Ġthá» ķ
Ġl á»ĳi
N G
Ġd Ãłng
) ;
Ġm Å©
Ġl inh
Ġng ang
s ia
Ġch iáº¿u
Ġk m
Ġgi áº¿t
Ġgá» ¡
ĠThá» ©
Ġt Ã³c
Ġl áº¯m
Ġg Ãł
Ġb uá»ĵn
Ġ201 0
201 7
i ch
Ġcá»± u
Ġt Æ°Æ¡i
ĠPh Æ°á»Ľc
Ġc áºŃu
ĠQu áº£n
Ã´ m
£ n
201 6
l d
ĠTH PT
Ġg áº¥p
eb ook
Ġch Ãłng
ĠM al
n Äĥm
Ġng Å©
N Äĥm
Ġtr i
Ġhuy áº¿t
ĠB Ã¹i
ĠN Ã´ng
L B
Ġ ung
Ġ7 0
Ġl áº»
ChÃ ºng
C Å©ng
ĠV Ãµ
ĠPh i
Ġc uá»ĳn
Ġng Ã´n
Ġtr áºŃt
¥ y
Ġbu Ã´n
ac ebook
Ġng Ãłn
Ġg áº¡o
Ġho áº£ng
Ġphá» ©c
Ġc Äĥng
ĠÄĳo áº¡t
ĠÄĳá» £i
V iá»ĩc
ĠchÃ ºt
Ġx áº¿
ĠHu áº¿
Ġtr Ãło
V iet
Ġch Ãło
Ġh uáº¥n
201 5
Ġmá» ¹
ĠB ar
ĠIn ter
Ġtr á»Ļm
Ġt ung
ĠQ uyáº¿t
ĠL Æ°Æ¡ng
ĠÄĲ áº·c
Ġtá» ıa
Ġs áº¡n
ĠÄĳá» īnh
Ġd Ã¡ng
Ġv áº¿t
ĠT Ä©nh
Ġhá» ģ
Ġch áº¥m
Ġch áº¥n
Ġdá»± a
ĠtÃº i
ĠC áº§n
Ġvá» ¡
Ġth uyá»ģn
ho w
Ġkh Ã¡ng
Ġ o
Ġng áºŃp
ac k
ĠÄĳ e
ĠB iá»ĥn
k r
Ġth iá»ĥu
C P
ĠL á»Ļc
Ph one
Ġr o
g i
ĠX Ã¢y
Tr ung
ĠM y
201 9
Ġth áº»
Ġt iá»ģm
ĠCh Æ°Æ¡ng
Ġtr á»¯
Ġch áº½
i f
Ġy Ãªn
ĠkhÃŃ ch
áº¯ k
Ġth áºŃn
ĠC á»Ļng
ĠT Ã¢m
it y
ÄĲ áº¡i
ĠH Ãłng
a x
ĠkÃª nh
Ġ Ċ
á»ĳ t
1 5
e y
ĠGi ao
Ã£ ng
Ġkh áº¥u
ĠB H
ĠI ran
Ġch áº¡m
Thá» §
Ġtrá» «
ĠN H
Ġ Æ¡n
ĠV Æ°Æ¡ng
Ġ Ã©p
k m
ĠS t
Ġgá» Ĺ
iáº¿ c
ov id
ĠTh e
ĠS h
Ġ áº¥m
e v
Ġh Ãło
e z
Ġtr Æ°ng
ĠÄĳÃ ¨n
ĠTh Æ°á»£ng
Ġtr á»ĳn
Ġkhu Ã´n
Ġth uyáº¿t
ĠTá» īnh
Ġmá» ģm
ĠÄĳ uá»ķi
ĠTh Æ¡
T S
Ġtr áº¡m
ĠkÃ¨ m
ĠÄĳ áº¡n
ĠÄĳ Ã¢m
Ġth áºŃp
ĠÄĲ á»ĳi
Ġ3 5
Ġk iá»ĩm
ĠC ovid
L ÄĲ
Ġng Ã£
Ġm áº¯n
Ġm áº¡c
Ġr Ãło
Ġm Æ¡
Ġh áº¹n
Ġxá» ©
Ġgi am
ĠNg Ã´
ĠC LB
ĠÄĲ Ãłi
ĠT NH
Ġtr Ã¹ng
Ġ3 00
áºŃ c
Ġl Ã¢m
Ġm Æ°u
Ġm áº¡ch
o k
Ġ8 0
Ġtr Ãºng
ĠTNH H
Ġcáº£ ng
s on
5 00
o h
s t
Ġg hÃ
ÄĲ áº¿n
Ġt Ã¡n
ĠC on
ĠhÃ ¢m
D o
Ġtr Ãºc
kr ain
or t
Ġná» Ĺi
Ġph áº¥n
201 4
Ġt ang
ĠG iá»
u ch
Ġb áºŃc
ĠÄĲ á»Ļi
Ġlá» Ĺ
d a
ĠH y
OV ID
Ġ3 6
Ph Ã¡t
ĠÄĲá» Ĺ
S Ã¡ng
ĠÄĳ áº³ng
ĠNgh Ä©a
ĠC OVID
áº ³
Ġá» ŀ
Ġb Ã¹
Ġng á»¯
Ġgi Ãł
or d
ĠtrÃŃ ch
ĠPh il
al ia
Ġv Æ°á»Ŀn
ĠThá» Ŀi
Ġr Ãł
Ġ áº©n
C N
er a
ĠM áº¡nh
Ġlá» £n
Ng uá»ĵn
Ġb om
ĠgÃ³ c
ĠÄĳ áºŃp
Ġkh en
ÄĲ á»ĳi
ĠU krain
Ġb Ã²
Ġn Ã©t
r y
Ġk ia
A ND
ay sia
Ġm ai
Ġl Ãºa
Ġl áº¯p
Ġx Ã³m
Ġr á»ĳi
TV T
Ġsá»ĳ t
Chá» §
ĠT áº¥n
ĠTh áº£o
i o
ÄĲ Æ°á»£c
Ġkh ung
B Ãł
Ġm u
i z
d eo
ĠT iá»ģn
Ġchá» ĳt
Ġm Ã£i
Ġi Phone
Ġvi deo
Ġb áº¡o
Ġtá» ¥
Ġlo áº¡n
Ġlá» «a
Ġgh áº¿
Ġ19 7
Ġh uá»ĳng
ip p
am a
ĠT Ã¹ng
Ġrá»§ i
Ġch áº£y
ĠV á»¥
Ġtr Ã´ng
ĠthÃ ¹
Ġv iÃªm
ĠS ing
Ġng áº§m
Ġ9 0
ĠC P
ĠCh iáº¿n
Ġx Ã¢m
ĠchÃ ³
ĠQu á»³nh
ĠlÃł nh
ĠÄĲ a
ĠL ai
el l
ĠcÆ¡ m
h a
Ġd Ã¢m
Ġn Ãłng
Ġqu Ãªn
201 3
ĠThá» į
Ġd áºŃy
es ia
áº³ n
ÄĲ á»ĵng
ĠE m
ĠÄĲ áº·ng
ĠT oÃłn
Ġx o
Ġx inh
ĠÄĳ Ã¡o
ĠN ai
Ġth Ã¡o
Ġng á»įt
P hÃ³
Ġngo Ã¡i
Ġb Ã³
ap ore
don esia
Ġr áº»
ĠL ao
or ld
ĠK iá»ĥm
ĠÄĳ Ãłi
ĠMal aysia
Ġtr áº¡i
4 0
Ġt Ãºc
Ġng Æ°
ĠH áº¡
Ġnh Å©ng
ĠlÃł n
ĠV in
Ġt iÃªm
o g
Ġgi áº£ng
Ġngá» ¥
ĠhÃ ¹ng
ĠD Ã¹
ĠA F
ĠS á»±
ĠkhÃ³ c
ĠE U
Ġk iÃªn
ĠB á»Łi
Ġh iáº¿m
ĠL oan
ĠG TVT
Ng ay
Ġb á»¯a
4 5
D á»±
C S
iá»ĩ ng
ĠH áºŃu
ĠUkrain e
Ġc áº£n
o ur
o w
» ŀ
á »ŀ
ĠI s
Ġth áº£m
ĠchÃ ºc
u d
Ġd Ãły
C á»¥
ĠC amp
ĠP r
Ġb áº¡ch
Ġdá» ¥
Ġhá» ©ng
Ġhá» ĵng
Ġh áº³n
ĠthÃ ©p
ĠQ uy
1 8
ĠchÃ ¬
l Æ°á»£ng
ĠC á»¥
ĠÄĲ inh
Ġho ang
K S
ĠF acebook
ter s
Ġng on
ĠC áº§u
Ġbá» ¥ng
Ġ á»ĳng
as hi
s en
ĠLe ague
Ġthá» Ł
ĠÄĲ T
ĠHu á»³nh
Ġm iá»ĩng
Ġl oÃłi
Ġph áº«u
ĠÄĳ ai
ĠPhil ipp
Ġtá»ķ n
Ġhá» ıa
Ch iá»ģu
á»ĭ a
ĠphÃ º
ĠA ir
Ġn iÃªm
1 6
áº« y
ĠNg ay
Ġth Æ°á»£ng
ĠSing apore
ĠIn donesia
ĠÄĳá»ĵ n
Nh Ãł
2 4
ĠH áº±ng
Ġc lip
ĠkÃŃ n
ĠK áº¿t
Viet nam
Ġnh áº£y
ĠÄĳÃ£ i
ĠÄĳá» ©c
Ġb Ã¢y
Ġd Ã¡m
r us
Ġtr Ãłn
b er
ĠW orld
pp le
Ġs á»ķ
Ġn Ã©
ĠKh o
Ġn on
Ġth ang
t Ã´
T hÃ´ng
ĠThÃ º
Ã£ nh
Ġ4 5
Ġh iáº¿n
C Ã¹ng
Ġt áºŃt
ĠtÃ¹ y
Ġch Äĥn
Ġhá»Ļ p
Ġgiá» įng
Ġph Ã¡o
Ġnh iÃªu
ĠC ity
Ġ uy
Ġhá» ıng
Ġnh áº¯n
Ġtiáº¿ c
H ai
Ġru á»Ļt
uch ia
ĠK áº¿
Ġr á»Ńa
Ľ p
ĠThá» ķ
ĠÄĳá»ĳ t
Tr Ãªn
ĠÄĳ áºŃu
Ġgiá» ıi
Ġb Ãª
Ġg a
u ters
ĠlÃ£ m
ĠNh áº¥t
ĠPhilipp ines
ĠmÅ© i
ĠGi áº£i
ĠC an
Ġng Æ°á»¡ng
ĠNh Ä©
ĠH iáº¿u
1 7
Ġc á»Ļt
Ġl Ã¢y
Ġhuy nh
f f
3 5
Ġw eb
Ġchá» ĳi
ĠHá» £p
ĠS p
ĠH á»ĵi
ĠPar k
Ġ e
ĠchÃ ©
ĠH oÃłi
ĠN hÃ
b ank
Ġh Æ°
Ġ200 9
M á»¹
ĠS am
ĠTr Ãł
er s
1 4
ĠM áº·t
áº¥ c
Ġb áº¿n
ĠThá» ±c
ĠT S
Ġd Ã¢u
Ġl Ã´
e c
r i
ur o
ĠK iÃªn
ic o
ÄĲ iá»ģu
Ġv inh
6 0
ĵ i
Ġs u
ĠÄĳá» ģn
ĠB áº¡n
C B
Ġn Ã£o
ĠH oÃłn
ĠC á»ķ
ĠcÃ £i
ĠPh Æ°á»£ng
201 2
ĠQu Ã½
u k
Ġ áº©m
Ġt Ã´ng
ĠLá» ħ
Th anh
ĠC Å©ng
Ġn áº¥u
Ġh a
V á»¥
ĠB áº±ng
ĠC ÄĲ
ĠCamp uchia
ª nh
» £
ĠÃ´ m
á »£
Ġt Æ°á»Ŀng
ĠCS GT
Ġl áº¡m
Thá» Ŀi
t a
Ġtrá» ©ng
ĠB V
Ġvi rus
Ġm Ã¡t
ĠÄĳ iá»ĥn
ĠT Ãº
ĠÄĲ Æ°á»Ŀng
S á»±
Ġs Ãºt
h an
ĠTr Ãªn
us tr
ĠA pple
ĠInter net
» ·
á »·
Ġx Æ°a
ĠV á»ģ
Ġvá» ı
ĠmÃ¹ i
ĠL Ãºc
+ )
ĠchÃ ¹a
x i
Ġnh Æ°á»£ng
Ġcá» Ŀ
ĠRe uters
D Ã¹
Ġmá» ĩnh
Ġx Æ°Æ¡ng
Nh Æ°
201 1
Ġtr eo
Ã½ t
Ġtr áº§n
Ġs how
ĠT uyÃªn
ĠT Ãłu
Ġd Ã´ng
Ġm á»±c
Ġv ÃŃ
Ġthu áº«n
ĠL Æ°u
ĠTh Äĥng
Ġthá» Ŀ
Ġth Äĥng
m an
A T
se a
ÃŃ ch
Ġtrá» ¥c
Ġl a
H o
ĠC á
ĠCá »
Ġt Ãłng
Ġy áº¿t
Ġc Æ°Æ¡ng
Ġhá» ©a
Ġngá» «a
Ġkho e
N T
Ġgi áº¥u
ĠCh Ã¡nh
on a
hÃŃ nh
ĠtÃ´ m
ĠB Ã¡c
ĠViet nam
ĠChá» ĭ
am es
Ġs áº¯m
Ġchá»§ ng
Ġnh Ã¡nh
l ine
Gi Ã¡
Ġ ,
e g
ĠT áº¥t
ĠM á»Ĺi
Ġb á»Ļt
al l
Ġtr áº§m
ĠlÃ£ ng
ĠGi Ã¡
Ġd inh
ĠI S
Ġbá»ĳ n
ĠC ar
ĠRe al
Ġ3 2
ĠT Ã²a
ĠThá» ¥y
ho áº£ng
Ġcá» ©ng
S C
ĠH á»įc
ist an
or k
ĠCh ung
Ġtr Æ°a
ĠThÃº y
Ġth an
Ġgá» £i
r id
ĠÄĳá» «ng
Ġnh Ã£n
ĠH iá»ģn
V Ã¬
Ġchu á»Ĺi
ĠC A
Ġl áºŃu
Ġc Ã¡t
» ĥ
ĠH uyá»ģn
á »ĥ
Ġd iá»ĩt
Ġtr iá»ĩt
n e
ai l
ĠB ÄĲ
Ġs Ã´i
Ġ al
Ġt áº£ng
ĠN há»
c há»
V OV
i er
ĠC N
ĠS u
c a
Ġb ia
ĠS ong
Ġx Ã³a
B Ã¡o
un d
Ġc anh
ĠÄĳ áºŃm
ĠÄĳ iá»ĩu
Ġb á»ĳc
ĠHÄĲ ND
ĠthÃ ³
Ġl Æ°ng
ĠNh i
el sea
Ġt Ã¢y
e p
t á
tá »
ustr alia
ĠM ad
ĠT Ã¬nh
ĠÄĳ áº¥y
l in
ĠA s
Ġhá» ĳi
B C
Ġ .
ĠT AND
ĠS á»ĳ
Ġl á»Ł
Ġnh i
Ġch e
Ġv Æ°á»Ľng
Ã¹ m
ĠÄĳ áº¯t
7 0
Ġv en
1 3
Ġh áº§m
Ġt áº¯m
¥ i
Ġmá» ĩt
ĠD ung
Ġkhu áº©n
Ġm Ã¢y
ĠC ty
k y
ad a
Ġb áº¯c
ĠC Ã¹ng
Ġlá» įc
Ġf an
» Ŀi
á »Ŀi
8 0
ĠThá» ĳng
am in
Ã¹ a
er n
I n
Ġtá»ĳ n
ĠgiÃ¡ p
C Ã²n
ĠM áº·c
e i
E C
201 0
K áº¿t
ĠU n
ĠK hÃ
ĠT N
C Ã´
ĠD onald
Ġphá» ıng
Ġx uÃ¢n
Ġcá»ķ ng
ng Æ°á»Ŀi
Ġ &
ĠAn d
ĠD i
Ġl áº§m
áº¹ t
Ġb Ã¹ng
C hÃŃnh
ĠCh u
Ġc áº¥t
Ġh ung
ĠO b
o y
ĠTr á»ĭnh
ra el
Ġt áº£
Ġ3 3
L iÃªn
Ġxá» ©ng
ashi ng
Ġqu ang
ĠTr uyá»ģn
Ġb áº¿p
ashing ton
Ġx áº£
ĠQu a
Ġc áº¯p
ĠNh iá»ĩt
M áº·c
ĠB l
Ġcá»ĳ t
Ġcam era
N am
ĠT iá»ĥu
Ġlá»ĩ ch
> >
ĠTr inh
ĠTr á»ĭ
Ĺ ng
Ġ4 00
Ġb Ã¡m
as s
Ġd Æ°á»£c
mar t
Ġg á»įn
Ġmá» ıi
ĠNew s
Æ°Æ¡ n
ĠNg Ã£i
ĠT am
ĠA ustralia
Thá» ±c
ĠÃ´ tÃ´
Ng uyá»ħn
a w
9 0
Ġv áº¯ng
Ġhá»ĵ n
Chá» ī
Ġv Ã¡y
Ġm á»ĳc
G S
Nh Æ°ng
Ġt an
Thá» ©
ĠC ai
ĠÄĳ iá»ĩp
ĠTh Æ°
Ġs a
ĠÄĳ áº¡p
k hÃ´ng
Ġt Ã¢n
hÃ³ m
Ġv a
Ã¨ o
ĠÄĲ áº¯k
2 6
Ġ200 8
ĠW ashington
Ġd Æ°á»Ŀng
Ġm áº£nh
¹ y
ĠÄĳ Ãł
Ġ3 7
ĠÄĳá» Ĺ
Ġng á»±c
ĠA m
ĠA P
Ġng áº¡ch
e k
Ġtr Ã´i
Ġmá» ķ
c on
ĠA b
G iá»
Ġmá» ı
ĠC áº£
ĠIs rael
ĠÄĲá» ģ
Ġ3 4
Ġd Ãłn
ĠH áº¡nh
it e
Æ¡ m
ĠS an
Ġ3 8
ĠCh elsea
Ġth áº£
C T
iv er
Ġl áº·ng
ng Ãły
Ġ15 0
Ġvá» Ŀi
ĠA i
Ġk g
Ġt Ã¡o
Ġtu Ã¢n
ĠLá» £i
t há»
Ġ20 21
P hÃ
Ġg am
Ġv Ä©
ĠC Ã¡ch
V iá»ĩt
Ġkhá» ĳng
ĠÄĲ Æ°á»£c
ĠOb ama
Ġt áº¯t
Ġm iáº¿ng
ĠH ar
ĠB ra
z il
p o
in i
m p
Ġchá» «ng
ĠQu á»¹
Ġm Ã¢u
Ġbá» Ľt
ĠGi áº¥y
Ġv iá»ħn
ĠÄĲ Äĥng
Ġl ang
t el
ut in
ĠB áº¿n
ĠtrÃ² n
Ġth iá»ĩp
Ġm uá»ĳi
Ġlá» ĵ
2 7
ĠI I
L e
ĠI t
Ġdá» įc
Ġnh á»±a
V Ãło
ĠX Ã£
Ġr áº¯n
Ġhá» ķ
ĠÄĳ eo
Ġtrá» «ng
ĠThá»ĭ nh
ĠP l
Ġh Ãłm
Ġkh iáº¿u
» «a
á »«a
oo g
ĠY áº¿n
is s
ĠS inh
ĠY ork
ĠC uá»Ļc
Ġd uyÃªn
ĠchÃŃ n
Ġg an
Ġtr Ãł
ic k
s ung
T M
ĠV áºŃy
ĠbÃ© o
oog le
Ġs Ã³t
ĠC am
ÃŃ n
ĠTT XVN
ĠM i
ĠT im
Ġgi Æ°á»Ŀng
ĠB áº¡ch
Ġgi Ã¢y
ph one
C on
sen al
ĠJ oh
t in
ĠTr ÃŃ
Ġkhá»ķ ng
E A
ĠK há»
ĠK iá»ģu
ĠB Ãłi
C uá»Ļc
ĠThá» ĥ
ĠThá» «a
ĠCh o
th Ã¡ng
ĠH Æ¡n
ĠM os
Ļ i
ĠthÃ ¹ng
ĠP utin
Ġtho áº£i
ĠchÃ¬ m
ĠBH XH
Ġh Æ°u
Æ°á»£ n
Q ua
Ġt iá»ħn
ĠthÃ³ i
es ter
Ġng á»Ļ
Ġt áº¿t
Ľ n
iá»ħ u
Q T
as h
g iá»
ĠkhÃ ¢u
A G
Ġkh uyáº¿t
Ġkh uyÃªn
ĠG u
Ġh áº£o
Ġch uyá»ģn
Ã© o
Ġr Äĥng
ĠNg hi
oo d
Ġná» ģ
Ġtr á»į
ĠTh áºŃm
Ġph Ã¡i
ĠD iá»ħn
I V
% /
Ġs Äĥn
Ã¹ n
2 8
Ġho an
ĠL am
Ġ áº£o
B ank
Ġm Ã³c
ĠM Ã´i
ĠNg uá»ĵn
ra b
Ġlá» įt
ĠM au
en n
Ġtho Ã¡i
g e
9 9
ĠC Ã¡t
Ġcá»§ ng
x Ã£
Ġgi Ãły
ĠS o
s k
ĠÄĲ B
ĠC Ã¡i
ĠC áº©m
Chá» ĭ
ra q
A R
M á»Ľi
ĠS Ã¡ng
ĠthÆ¡ m
Ġs áº¡t
Ġngh iá»ĩn
ĠThÃ ¹y
Q ÄĲ
Ġ19 6
ĠL á»±c
Ġl ÃŃnh
ĠAF P
d ex
Ġd áº¡
ĠC Ãł
y a
C Æ¡
Ġtr á»ĳng
as t
Ġth Æ°á»Ľc
Ġm Ã©t
Ġd áº¯t
á»± u
ĠT u
± ng
Ġr Ã©t
ĠQu an
C Ã¡ch
ion s
Ġ Ã¡c
Ġv ua
Ġs ay
e ng
Ġkh Ã¡t
ĠÄĳ áº¿
Ġcá» ı
Ġcá» ¡
Ġt Ãłn
ĠTh áº¡ch
2 9
ÄĲ áº·c
Ġbá»ı ng
ĠPh áºŃt
A M
Ġh áº±ng
ĠN Ã³
onald o
Ġta xi
) :
Ng há»
in d
Ġh áº¹p
Ġbu Ã½t
ĠMad rid
ĠJoh n
Ġh eo
Ġd áºŃp
Ġnh á»ĭp
1 00
Ġb Ã¡
Ġthá» ±
Ġtá» §
7 5
Ġm áº§m
Ġt iá»ĩc
ĠBra zil
ĠÃ ļ
ĠDo anh
T N
Ġgi áº¥c
ĠG oogle
Ġm Ã£n
ĠC r
ĠI raq
Ġv áº½
ig h
Ġ áº¥p
Ġd ÃŃnh
c el
Ġv Ãµ
Ġcá» ĳng
ly mp
M inh
hÃŃ a
ĠL iÃªm
ĠTh iá»ĩn
ĠX II
ĠK H
ar a
ĠÄĳ am
Ġsá»ĳ c
Ġbá» ģ
Ġv áº£
ī a
Ġ5 5
ĠG r
P V
ĠM a
Ġch ua
ĠS er
Ġm áº¡o
ĠÃģ nh
Ġs Ã¡nh
ĠHu á»ĩ
Ġl Ã²
Ho Ãłng
Ġl eo
Ġb Æ¡i
t o
id eo
l and
ĠÄĳá» ±ng
ĠnÃ© m
Ġc o
Ġt Ä©nh
ĠAr senal
ĠT in
ĠÄĳ áº»
ĠghÃ ©p
ĠC H
ĠÄĲ Ã´
I C
ĠR iÃªng
ĠV Å©ng
H á»Ļi
at e
á»Ń u
er o
ĠSam sung
ĠTh i
B Ã¬nh
Ġg Ã¡nh
ĠQ L
en d
h uyá»ĩn
T in
m a
Ġná» ĵng
Ġv Æ°Æ¡n
Ġgi áºŃn
ĠO lymp
Ġkho Ã¡ng
Ġb á»įn
ĠU y
an i
Ġ Ã¡i
Ġn á»Ł
Ġvá» Ļi
ĠG al
t ain
ĠL ÄĲ
ĠV Ãłng
H Ã¬nh
ĠV i
Ġnh Ã©
L á
Lá »
F F
N ÄĲ
ĠN á»¯
Ġkhá» Ľp
Ġt Ã¡ch
ĠH Ãłnh
Ġc áº©n
Ġr áº¡ng
Ġ u
Tr ao
B á
Bá »
C o
Ġ4 8
mart phone
Ġcá»¥ m
ĠÄĳÃ³ i
Ġng á»įn
or n
Ġv áº¹n
Ã¨ n
. âĢĿ
ĠgÃ¬ n
Ã ģ
- -
ĠCan ada
Ġmu á»Ļn
ĠTh áº¡nh
Ng uyÃªn
ĠL y
Ġv áº¥t
Ġd Ã£
G ia
po ol
k h
ĠA le
B áº¡n
3 00
ĠC TC
Ġ 01
ĠE l
ĠHÄĲ QT
Ġtr inh
Y T
200 9
ĠC o
ĠY o
inh o
Ġl áº¥n
ĠT iáº¿p
H Ã´m
ĠL á»ĩ
3 6
´ n
Ġnh Ãłng
ĠS eo
ĠCS ÄĲT
ĠÄĲ áº¡t
Ġn Ãºt
ĠD áº§u
qu áºŃn
Ġ3 9
á»ĳ m
Le ague
e ch
T hÃ
Ġc Æ°á»¡ng
áº± n
iver pool
A S
In dex
el a
Ġv Æ°Æ¡ng
Ġk Ã¬
ĠT ÃŃnh
Ġvi t
at ion
ĠCh amp
E m
ĠA ng
ĠM C
ĠH Ã¬nh
Ġgam e
Ġ :
Ġv áº£i
Ġng áº¡c
Â ł
4 00
. "
Ġng Ãµ
_ _
Ġvit amin
Ġtr á»Ļn
Ġch iÃªu
ar t
Ġtr á»įn
Ġgi Ã£n
Ġs Æ¡n
Ġ6 00
ĠV áºŃn
ĠchÃ ªnh
Ġphá»ķ i
ĠTr iá»ĩu
Ġlá» ıng
3 7
ĠB Ã¡
Ġb áºŃn
ĠthÃ ¢m
Ġtu á»ĩ
D I
ĠÄĳá» Ľi
Ġk iÃªm
ĠD e
ĠÄĲ áº¥t
ĠN N
os t
Ġtá» ©
Ġso áº¡n
ĠâĢ ĺ
Tr Æ°á»Ŀng
ĠL H
M T
on da
Ã² i
Ġbá» ¥i
Ġkh Æ¡i
ĠD anh
ĠX uyÃªn
ot a
ĠT á»Ń
Ġb Ã¬
an mar
ĠH S
N á»¯
ĠkhÃ³ i
ÄĲ Ã³
ĠBÃŃ ch
ĠTr áº¯ng
Ġp in
ĠGD P
ĠR o
Ġs martphone
Æ°á»Ľ t
Ġ Ã¹n
ĠC ol
Ġnh áº¡y
le y
ĠÄĳ áº¯p
Ã Ģ
ĠhÃ´ i
th eo
Ġ Ã¡m
ĠR onaldo
Ġdá» įn
Ġch im
Ġc u
ĠchÃ© m
ĠP et
% ;
ĠN S
al y
ess i
Ġl Ã¹i
Ġl áº¥p
ĠkhÃ´ i
Ġ7 5
Ġnh an
t or
Ġthá» £
ĠNH NN
Ġch ai
Ġmá» ¡
Ġl Ã´ng
Ġd Ã¢ng
Ġthu áº§n
ĠB e
ĠS Ã´ng
Ġ6 5
áº« m
ĠH Ã£y
N hÃ¢n
Ġr Ã£i
Ġx Æ°á»Łng
Ġm áº·n
H Ãłng
G D
f t
ĠOlymp ic
ĠÃ Ŀ
Ġhá»Ĺ n
ĠD av
i x
Ġs áºŃp
ĠG ames
ĠTh Ã¡p
ĠÄĲ á»Ļng
ĠT Ã´
Ġsá» ¥t
Th áº¿
Ġxá» ī
© o
Ġv ang
Ġdá» Ŀi
ĠM il
Qu áº£ng
Ġmá» ĵ
l a
ĠL Ã£nh
e al
Kh u
Ġd Ã²
ĠS ang
ĠPhá» ¥
b a
Ġr áº£i
ĠB u
ĠTh iáº¿u
Ġhá» ¥t
C áº£nh
v a
v er
Ġn áº¡i
T iáº¿p
Th Ãłnh
ĠT Äĥng
ĠPh áº§n
Ġh iáº¿p
Ġt iá»ĩm
ĠChamp ions
Ġm Æ°á»£n
c Ã³
3 4
Ġto p
Ġr Å©
H áº£i
r am
ĠMy anmar
ĠB o
Ġn Ã¡t
Ġlá» ģ
ĠB KS
ĠJ ong
Ġru á»Ļng
Ãº n
ĠGi Ã³
Ġqu Ã©t
Ġ1 20
Ch iáº¿c
Ġb áº¿
ĠT Æ°á»Ŀng
Æ°á»¡ i
Ġxo ay
Ġl iá»ģu
Ġb Ã¡t
ĠH AG
U BND
l or
I A
3 8
Ġh áº¯n
Ġd á»Ļi
ĠT ÃŃn
Ġrá» ¡
ĠM er
Ġv Ã¢y
giá» Ŀ
ĠG S
B á»ĭ
ĠTh Ã¡ng
Ġdá» ¡
Ġ á»ĳc
Nh áºŃn
k e
Ġb á»įc
K T
Ġx Ã¡ch
Ġnh áº§m
ax y
ĠL iverpool
ĠM ay
20 21
Ġb Ã´ng
Ġ Ġ
ĠV Ãło
ĠlÃ£ o
4 6
K hoáº£ng
Ġn áº£y
ag e
á»ĳ p
Ġvá» īa
Ġe uro
ĳ c
Ġho Ã£n
ic e
Ġ Ã¢n
' .
on don
T B
ĠH á»ĩ
P L
ĠR ob
Ġnh áº«n
Ġtá»± u
ĠTH CS
O T
J C
an s
PT NT
Th u
Ġm Ã¬
Ġm Ãºa
Ġ4 6
L Ãł
5 5
B an
Ġb Ã³n
T Ã¬nh
U SD
ĠPar is
Ġá» ©c
g o
ĠÄĳ Ã¡n
ĠH ang
Ġb Æ¡m
ĠPhÃ ¹ng
Ġth áº¯t
Ġl ÃŃ
4 7
ĠM U
Ġquy áº¿n
ar y
ĠS EA
Å© i
ĠNh ung
ĠP al
Ġm áº¡n
m m
Ġ4 3
Ġchu á»Ļt
Ġng áº¯m
B S
Ġk áº¹t
Ġkho an
ĠH ong
ĠT á»±
ĠA d
l ad
Q H
ot e
ĠÄĲ Ãłm
Ġngá» £i
Ġlá» ¥t
ĠH iáº¿n
TT Q
Æ°á»Ł i
Ġtr Ã¹m
¯ a
L á»±c
Ġl áºŃt
ĠS Ã³c
Ġo f
F A
9 5
ĠK iáº¿n
Ãº y
Nh áºŃt
Ġm áº£ng
á»ĭ n
it ed
Ġl ÃŃt
ot t
ĠLe e
ĠL ondon
L Ãºc
áº¹ o
ol a
h am
Ġd á»ĳc
Th Ã¡i
o x
ĠB á»ĵ
O S
Ġb á»ķng
s inh
ĠN a
Ġbá» Ĺng
Ġm áº¿n
X X
Ġ200 7
ĠBÄĲ S
Ġlá» ĵng
ĠH iá»ĩu
G P
H oa
AT O
Ġ4 2
l ines
ĠÄĳ Ä©a
Ġdá» ĵn
ĠH N
r os
´ i
Ġkhá» ©
tain er
Ġg om
ĠM á»Ľi
Ġs Ã¡u
X e
ĠNh Æ¡n
ĠE x
d i
s ite
ĠL áº¯k
Ġmá» ıng
ĠÄĲ iá»ĥn
ĠCh áº¥p
ĠNgh iÃªn
ex ico
C V
Ġlu á»ĵng
Ġtá» įa
ĠÃļ c
T X
Ġx áº¡
ĠM essi
u g
ac e
S á»ĳ
ent ina
Ph Æ°Æ¡ng
ĠD á»ĭch
S á»Ł
T A
H Æ¡n
er t
U Y
ĠV FF
ĠÄĳá»ĵ i
ĠM ich
d o
ĠC áº£ng
ĠD ai
Ġg áº¯t
3 3
ĠC áºŃp
V Ãł
ĠkhÃ ©o
ĠX Ã´
Ġth a
Ġtr uyá»ĩn
Ġch áº©n
ĠM V
tá» «
ĠGal axy
C ÄĲ
ĠBH YT
h e
A n
V Äĥn
ĠM Ã£
ĠK r
Ġm ÃŃ
ĠP C
in o
Ġkho Ã¡c
ro up
ĠBar ca
Ġ25 0
ĠH onda
X em
ĠcÃ ºng
ĠHAG L
ĠK ong
Ġng Ãło
Ġ Æ°a
Ġlá» ©a
Co V
Ġl Ã´i
ĠÄĳ áº¯c
Ġ4 7
Ġnh á»Ł
ĠS á»¹
ĠS te
T H
i en
ĠAir lines
igh t
Ġgi Ã¡n
Ġ Ãºy
Ġsá» £i
ĠM at
ĠV I
Ġcon tainer
m á»Ļt
V ideo
ĠL áº¡t
ac c
ĠÄĲ á»ĭa
e en
3 1
ĠL áº¡c
' ,
ĠN Æ°á»Ľc
Ġ8 00
n a
e a
Th Ã¡ng
ĠÄĳá» ĩ
M á»Ĺi
Ġl áºŃn
ĠS ao
B Ãłi
8 8
ĠD uyÃªn
E D
C H
ĠPr em
Ġr Ã¨n
Ġn áº¥m
t hÃ
o un
b iz
Ġ4 9
ĠS c
Ġg Ã£y
Ġ4 4
N Ã³i
T ÃŃnh
Ġm Äĥng
) -
Ġlá»Ļ n
ĠC al
Ġc áºŃy
Ġr á»±c
E O
CC C
L Ãª
ĠÄĲ an
ĠB ang
ĠM exico
ĠÄĲ áº¡o
D C
ĠV KS
Ġl á»ĳc
ĠÄĳ Ãłnh
B Æ°á»Ľc
ic a
Ġtr Ã¢u
Ġx ao
Gi áº£i
C K
ĠT Ã´n
Ġl ong
ĠB áº¡c
Ġ4 1
ĠF ran
co w
os e
Ġvá» Ł
ĠcÃº m
our inho
ĠM áº¹
ĠO n
l et
ĠV ÄĲ
ĠTr Äĥng
ĠA f
ÄĲ á»Ļi
ĠS en
ĠB S
ĠÄĳ Ãª
Ng á»įc
ĠÄĳ áº§m
ĠTr Ã¡i
% )
ĠS JC
Ġtá» ¥ng
ĠChá» ©ng
Ġch Ã¡n
ub a
ĠL áº¡ng
ĠV TV
Ġd Æ°a
Ġ im
Ġc áº¯m
Ġná» ¥
Ġph un
3 9
Bá» ĩnh
T ÄĲ
e e
g entina
ĠGiá» Ŀ
ĠS Æ°
Ġk em
Ġkho áº£nh
ĠTh iáº¿t
Ġnh áºŃu
Ġg áº¡ch
Ġ5 1
Ġtr Æ°á»£t
Ġ ong
ĠTo p
ĠV iÃªn
Ġvá»£ t
D A
Ġth e
ĠTuy áº¿t
ĠB Ã¡i
Ġtr Ã¡ng
ĠJ u
an t
Ġm Ãły
ĠS H
ĠO s
% ),
Ġs Æ°u
Ch o
ĠC a
Ġd Ä©
Ġg ay
ĠL á»ĭch
6 00
I S
» ©
á »©
Ġc Æ°á»Ľc
Ġtho Ã¡ng
Ġmá» Ŀ
ar k
ĠKhÃ ª
Ġho t
ĠNh Æ°á»¡ng
ĠtÃŃ m
iá»ģ ng
ĠH iá»ĥn
ĠcÃ³ c
Ġr Ã²ng
ĠÄĲ iá»ĥm
Ġhá» Ł
Ġdá»ĭ u
ĠCh Æ°a
Ġ7 00
ĠAle x
ĠTo Ã¡n
ber g
ĠL ib
ĠB en
Ġb i
Ġv áº¯c
3 2
Ġx Ã´
ĠÄĳ Ã¡y
6 5
Ġtr Ã¢n
Ġ on
ĠÄĲ á»ĵn
ĠA g
0 5
Ġn Æ°á»Ľng
ĠÄĳ uÃ´i
ĠN hÃ³m
ĠÄĳá» ©t
ĠJ o
ĠM TTQ
ĠUn ited
Ġho áº¡i
4 8
Ġweb site
k há»
ĠB OT
ĠM on
ĠM á»įi
Ġn áº¿p
Ġl Æ°á»Ŀng
p r
Ġm Ã³ng
ĠL áºŃp
ĠA T
ĠMos cow
Thá» ĭ
ĠN Ã³i
ĠÄĲ Ã£
ĠS on
ĠL Ãł
ĠChá» £
ĠA t
Ġch inh
ĠKho áº£ng
Ġk iá»ģu
ĠS AR
P C
Ġdá» ĩt
ĠNhá» Ŀ
Ġv u
H LV
ĠThu áº¿
ĠR áº¥t
u c
ĠÄĳá» Ľn
ĠTo y
ĠDav id
ĠU S
4 9
ĠM o
ÄĲ oÃłn
ot te
Ġtr áº¯c
ĠP CCC
ĠV H
ĠQ uyá»ģn
Ġb áº©n
Ġph u
Ġb Ãºt
Ġnh ÃŃ
ĠP GS
ĠchÃº a
Ġc ay
ik e
ĠL iÃªu
Ġd á»Ł
p hÃ
ĠC l
ĠP ro
ĠR á»ĭa
Ġg á»ĳi
b um
ub e
ĠI II
cel ona
Ġh ang
ĠR a
Ġng Æ¡i
Ġg Ã£
ĠPhá» §
tr ong
ĠC Ã¢u
Ġmá»į c
Ġtr iá»ģu
ĠViet tel
ĠAr gentina
ĠR om
er ia
ĠN ATO
g on
8 00
ol d
Ġh uyá»ģn
N hÃ
ĠB ay
ĠÄĳÃ ¹a
Ġph áº¿
ĠT w
Ġth Ã¡p
ĠK iáº¿m
acc ine
Ġs Æ°Æ¡ng
ĠM c
ÄĲ Ãł
ĠB al
ĠT á»ĳi
ĠC áº¥p
Ġv oi
ĠÄĲ iá»ģn
Ġ5 6
ĠPh áº£i
Ġs an
Ġc Ã¡p
Ġph iáº¿n
. ,
Ġng Ã³n
ĠHÄĲ XX
ĠF or
Ġng á»±a
ĠT iáº¿ng
ĠPrem ier
ĠV y
ĠE d
au l
ĠS Ä©
ĠC uá»ĳi
Ġm áº»
ĠGi Ã¡p
T á»ĳi
Ġph e
Ġm Ãłng
Ã Ĥ
C áº§n
ĠH uyá»ĩn
ter net
H O
ĠToy ota
ĠO anh
com bank
ĠM in
ĠH Ã´m
Ġph anh
Ġs uá»ĳi
ĠTh am
B áº£o
ĠM ourinho
Ġ200 6
ĠC uba
ĠDai ly
ĠkhÃ ©p
Ã Ĭ
om p
ĠÄĲ Ã¡ng
Ġ +
a e
Ġs Ã¡p
l ÃŃt
ĠHo l
8 5
at h
an e
Ġtr á»Ļi
Ng a
Ġt áº©y
ĠIt aly
ĠL Ãłm
ro id
ĠCh áº³ng
Q G
k hoáº£ng
N A
ĠE r
Ġlá» ¡
hi m
Ġng á»Ļt
Ġ oan
Ġx Ã´ng
Ġthá»ķ i
y l
Qu ang
Ġh iáº¿u
o áº¡n
Ġchá» Ń
Ġch áº·ng
Ġn Ã£
ĠH IV
Ġ19 5
ĠchÃ ¢m
ĠS áº£n
Nghá» ĩ
Ġc ai
Ġr á»Ļn
Ġl Äĥng
ÄĲ áº§u
ĠK on
c m
Ġ >>
ĠS e
G áº§n
Ġv Ã³c
ĠCh iá»ģu
Ġrá» ĥ
ĠM ac
Æ¯ á
Æ¯á »
Ch ia
Ġv accine
» §
á »§
Ġ9 5
ĠhÃ £i
Ġl Ã¢n
Ġc áº¡n
Ġnh áº¯m
ĠCh iáº¿c
C áº£
Ġbá» ĥ
Ġm en
ĠL áº¡p
ĠV en
, âĢ¦
ĠF DI
an a
iv e
Ġin ch
x in
Ġm anh
ĠTr Ã¬
Ġshow biz
ĠC Æ°Æ¡ng
b ia
Ġ2 000
Ġl Äĥn
Ã© n
Ġ á»ĵn
k a
Ġb áº£y
L u
D L
i es
Ġ5 4
Ġh i
ĠÄĲ Æ¡n
C uá»ĳi
L Ãłm
Ġth áº¯n
Ġ Æ¡i
Ġx i
il e
ĠTh áº¥y
Ġch Äĥng
Ġ8 5
Ġl Æ°á»¡ng
ĠP er
ĠS un
ĠKh áº¯c
ĠS ch
Ġgi Ãłn
ĠÄĳá» įng
g han
Ġnh áº¡t
ĠB áº¥t
ĠB er
a el
ĠBá» ī
ar l
7 7
S G
ĠNh u
Ġk iá»ģm
Ġng á»±
ĠP ak
0 6
ĠCh r
ĠBar celona
Ġs Ã©t
Ġth áº§m
Ġc Ãłi
% ).
Ġb áº¯p
e h
I M
N hÃ³m
ĠVÄĲ V
P há»
0 8
ĠlÅ© y
ĠA rab
Ġng Ã¢m
7 00
Ġin ternet
ĠTr Æ°ng
k o
, ...
ĠchÃ ´n
ghan istan
Ġch anh
ĠT M
Ġch uá»ĳi
9 8
E U
Ġ6 4
ĠK á»¹
Ġká» ģ
ĠAnd roid
Ġd Ã¡n
ĠCTC P
ĠchÃ ¨
Ġm áº¯m
o c
Ġg Å©i
Ġm Ã²
oun ce
ÄĲá» ©c
l er
x y
it ter
ĠÃ Ķ
p e
Ġgh en
Ġthá» į
ĠX e
Ġth áº¥u
ĠchÃ ª
ĠQu áºŃn
ĠTr áº¡m
¥ n
n ey
Ġho Ãłnh
Ġg á»¥c
ĠTim es
ĠSAR S
ĠS al
ĠT V
Ġchá»Ń i
P P
L Ã£nh
Ġx Ã´n
» Ĺ
á »Ĺ
ĠTr e
N et
ĠNhÃ £
ÄĲ á»ģ
ĠC á»Ńu
an o
ĠV á»ĭnh
ĠAf ghanistan
ĠV an
Ġph iá»ģn
ĠB á»ĭ
Ch Æ°Æ¡ng
0 2
Ġkh Ã¡nh
Ġkh e
Ġdá» «a
Ġb á»Ļi
ĠQ uyÃªn
Ġ á»ĳm
Ġx Æ¡
o ft
ĠC á»Ńa
ĠL áº§n
Ġn á»ĵi
Ġv áº¡n
Ġchu á»Ļng
ĠÄĳÃ ²n
Ġcá» ĵn
áº» o
ĠTh ay
ĠTo ky
ĠM Ã´n
Ġ5 2
Ġkho ai
Ġh Ã¡i
Ġs ex
Ġqu Ã£ng
ĠV ÃŃ
ĠQu áº¿
Ġtho áº£ng
6 8
ĠB Ã¡ch
Ġd á»ĳi
ĠB Äĥng
b ao
Æ ł
g h
ĠToky o
ch ester
D N
4 4
Ġ6 3
ol l
T iá»ģn
T áº¥t
Ġ0 2
ÄĲ iá»ĥm
Ġx Ãł
Ġx Æ°ng
Ġl Ã¹ng
K há»
ĠV al
ĠKh ang
N há»
ĠNhÃ ¬n
ĠM ic
6 7
Ġ5 8
Ġl áº·n
Ġg Ã¡c
ĠT um
ĠCÄĲ V
Tr áº§n
Ġd Å©ng
Ġá» Ľt
ĠTr áº¡ch
ĠN G
ĠÄĲ á»ĳng
ĠMar k
iv es
Ġt Ãª
tr e
Ġ200 5
H S
Ġh iá»ģn
Ġ5 7
ĠE VN
Ġná» ©t
NhÃ ¬n
Ġ Ãło
H á»ĵ
T Ãłu
ĠM Æ°á»Ŀng
Ġh áº¡m
en s
ĠH D
ĠK y
ĠS á»©c
ĠM á»©c
ĠE n
ĠLH Q
ĠBan k
ĠM iss
ÄĲ Ã£
Ġth Æ°a
T oÃłn
ĠCá» ©
D Ã¢n
Ġb Ãłng
ĠS Ã¡u
ĠUy Ãªn
ĠG áº§n
Ġ ao
ĠC or
B a
ĠV P
» «ng
á »«ng
Tr áº£
b ur
Ġal bum
ĠKh áº£i
ĠKh anh
ĠÄĳ uá»ĳi
200 8
ĠÄĳá» ¥ng
Ġc ua
ĠV iáº¿t
ĠT hÃŃ
ĠcÃ´ n
Ġk iá»ĩt
Ġngh iÃªng
ĠM ob
Ġx Ã¡
ĠTw itter
ĠNg uyá»ĩt
ar i
ĠV ND
N E
Ġ Ã´n
ĠE uro
Ġl á»Ļi
Ġng Ã´
ĠÄĳÃ ºc
Ġm m
ol f
Ġng oan
Ġkho Äĥn
TT g
Ġn Ã´n
r l
Ġ9 8
ĠI d
ĠPak istan
H á»į
Ġl áº¯c
Ã Ķ
ĠK Ã´ng
Ġon line
t Æ°Æ¡ng
ĠB TC
Ġbu Ã´ng
0 9
v ent
t i
Ġth áº¥m
Ġqu Ã¡i
ĠchÃ ©p
ĠD iá»ĩu
Ġho Ãłi
t á»ķng
ĠvÃł nh
á»ĭ t
H u
Ġr áº¡p
ĠK á»·
0 7
P A
ĠJ ack
is h
Ġl Ãµi
m e
' :
B áº£n
ĠH TX
Ġ áº¢
ĠV ic
v e
Ġr áº½
Ġth áº¯c
Ġm á»Ļng
¹ m
ĠTr iá»ĥn
ros oft
ic s
et ty
id en
in k
Ġrá» ī
L Ã½
ĠV iá»ħn
Ġd áº£i
ĠÄĳo an
H N
Ġb Ã¡ch
ĠH am
Ġt uyáº¿t
Ġ6 7
Ġh áºŃn
Ġb áº¥m
ĠC B
ĠN iÃªn
Ġd áº¡o
ĠT R
ĠQ H
en a
tá» īnh
ĠU B
ar e
ĠM or
Ġx ÃŃch
Ġnh Ã¬
ĠX in
ĠH Ã£ng
Ġ20 30
ur a
Ġb Äĥn
Ġg as
Ġc áº¯n
Ġ5 3
ul l
Ch Æ°a
6 6
Ġh Æ°á»Ľc
Ġt áº§n
G B
Ġd áº¡i
.. ..
Ġcá»ĳ c
ÄĲ Ã¡ng
Ġho áº¡n
ov ic
ĠM od
ĠD iá»ħm
ĠÄĳ áº¯n
f ord
ĠHN X
Ġr Ã¡p
ĠXII I
» ı
á »ı
ĠKh ai
Ġph Æ¡i
Ġnh o
Ġcá» Łi
B Ã¡c
ĠH e
er ry
B áº¯t
ch e
ĠK iá»ĩt
ĠH uÃ¢n
Ch iáº¿n
u z
4 3
ĠH CV
ĠK CN
Ġb á»Ļc
Ġ7 2
Ġnh Ã¡t
ĠG l
ĠG roup
Ġc ong
» µ
á »µ
ĠV lad
Ä Ĥ
TC K
ĠN Ãªn
0 3
Ġch áºŃt
ĠOn line
H Ãłnh
Ġso i
H á»įc
ou th
T á»ķ
ĠM á»¥c
ĠSau di
Ġs Ãºc
on d
Ġvá» Ľt
nh am
f i
Ġh iá»ĥn
t u
ĠT hÃ¢n
ĠkhÃ´ n
ĠÄĳ áº±ng
Ġv Ã£
Ġtá» ĵi
ar ao
Ġ199 0
C O
it co
Ġth Ã¡nh
Ġhá» ĳ
r on
Ġm an
T áºŃp
ĠV TC
Ġlo a
ID V
Ġ0 9
ĠM as
Ġ6 8
C A
ĠR á»ĵi
ĠÄĳ iÃªn
et h
ĠÃ Ĳ
et ro
¨ ng
ĠcÃº p
ĠPl us
Ġnh áº·t
n er
ĠMan chester
Lá» ħ
i u
Ġt Ãºng
B P
C Ã¢u
Ġtrá» ħ
Ġmá» ¥n
ĠKhá» ĳi
Ġng Æ°ng
Ġl Æ°á»¡i
Ġm Ã¡
Ġtá»± a
ĠB áº£y
Ġgi áº¿
ĠAng el
ĠV áº¡n
Ġvá»ĭ t
ĠX uáº¥t
4 2
Tr ang
ĠS N
Th am
ĠW al
Ġná» Ľi
Ãª nh
ĠB á»ĳ
Ġl Ã¡t
T Äĥng
Ġl Ã¡ng
Ġr ung
ĠZ ing
ĠMil an
ĠAP EC
w ood
áº ¾
ĠH áº§u
Ġ9 9
al a
Ġn áº¡p
er r
ĠCN TT
id e
Ġto ur
V TC
M W
ov a
Ġr ao
ĠAF F
ĠC lin
âĢĿ -
on et
t á»©c
Ġb ar
ph Æ°á»Ŀng
5 2
ĠÄĳ áº¯ng
B ÃŃ
ind ow
Ġng áº¥t
ĠTá» ·
Ġd áº¹p
ĠTu áº§n
Ġ11 0
otte nham
ĠP hÃŃa
¹ i
ĠH O
ĠH Ã¢n
Ġt áº·c
ig a
ĠT Æ°Æ¡ng
ĠLib ya
Lu áºŃt
ĠA N
Ġs áº¡c
K H
Ġ6 2
Ġthá»ĭ nh
Ġch áº£
ĠV á»ĭ
Th e
ĠD Æ°á»£c
Ġr áº¯c
Th ay
ĠTr Ãºc
4 1
ĠmÃŃ a
o z
il k
t t
Ġsá» ¥p
Ġcu á»ĵng
Ġx Ã³t
Ġng u
ĠKh Ã¡ch
c ar
ĠF PT
ĠÄĳ áº¡m
ed ia
u ela
m er
Ġ5 9
Ġh Ãł
ĠY ou
Ġt Ã¡ng
ĠN Äĥng
Ġr anh
ĠX anh
q ue
Ġkh uy
Ġth iÃªng
ĠB us
Ġlu Ã¢n
Ġchi p
ĠCh uyÃªn
ad e
Ġr á»Ļ
ĠhÃ ²n
im ir
ĠTh áº§n
ĠBl ack
it h
Q uá»ĳc
ĠC ung
arao ke
? âĢĿ.
ĠP H
ĠThÃ ªm
ĠCh inh
H Ã£ng
C hi
Ph áº¡m
ĠQu Ã¡
khá» §ng
ĠH ay
ĠGiá» Ľi
Ġth áº±ng
C Äĥn
ĠMic rosoft
ĠÄĲ Ãłn
w w
C á»¥c
Ġm Ã¨o
ĠAT GT
Ġdá» ĵi
Ng Ã¢n
and al
ez uela
n y
one y
Ġrá» ĵng
ĠP a
ĠL á»¥c
ĠT iÃªu
Ġth iÃªu
Ġt Ã¹ng
ÄĲ Æ°á»Ŀng
Ġ ax
N LÄĲ
s h
Ġt áº¡ng
ĠG eo
Ġl Ã©o
Ġm Ã²n
c á»ķ
ĠJ e
Ġthá» ģm
ia l
ĠnghÃ ªnh
D iá»ħn
P hÃŃa
at a
ĠGi Ã¡ng
Gi Ã¡m
ĠU A
Ġvá» ©t
ĠKh Æ°Æ¡ng
Ġtr Äĥng
ĠÄĳá» ĳng
Ġk áº¹o
Ġp r
Ġl áº·p
Ġl Æ¡
m ua
Ġd Ã£y
Ġthá»§ ng
Ġv iáº¿ng
pr ess
ĠX I
ĠA S
Ġtá» ĳng
C a
Æ¯ T
ĠG Ã²
Ġth áº¡ch
M Ã¡y
Ġnh á»įn
ĠChÃ º
ĠVlad imir
ĠH Ã¡n
at ar
o ck
ĠT Ã¡m
Ġ eo
ĠC áºŃn
ĠQu Ã¡n
Ġ20 25
w ei
A P
Æ°Æ¡ m
Ġgiá» įt
ian o
Ġh am
an ia
ĠT uá»ķi
ĠH Æ°á»Ľng
ĠS iÃªu
l Ãłm
ĠÄĳ áº¡c
ĠG etty
Ġbu á»ĵng
Ch uyá»ĩn
ĠClin ton
Ġkh Ã¡i
L C
ĠTr áº¥n
ĠBay ern
K im
SC L
ĠF C
ĠTr áº»
ĠH ua
indow s
H Ã£y
ĠbÃ¹ n
ĠC EO
Ġcá» įc
Ġd e
ot o
-- --
ĠW ill
Ġmá» ĵi
ĠV áº¥n
Qu an
0 4
en z
V Å©
Ġtá» ıi
Ġngá» ¡
d ar
áº ł
6 9
ab e
ĠVKS ND
ĠkÃ© p
Ġb á»ĵn
ill a
D Æ°á»Ľi
if orn
ĠSeo ul
Ġs on
G ÄĲ
V á»£
Ġhá»į ng
iforn ia
l u
ew s
Ġkhá» ĳc
Ġ0 5
th uá»Ļc
ĠC T
ĠH an
ĠIn f
Kh Ã¡nh
ĠTh áºŃt
Ġx ÃŃ
ĠM TV
ĠB Æ°á»Ľc
Ġvá»ĭ nh
Ġnh Æ°á»Ŀng
ĠI r
ĠVen ezuela
c ed
ĠC Äĥn
Ġvá» įt
Ġ200 4
ĠG a
ĠSp ort
ation al
Ġm Ã¹ng
9 00
Ġs en
Ġkho ang
' s
ĠS V
ĠF ord
Ġ6 1
Ġb áº¥y
ĠghÃ ©
Ġs Æ°á»Ľng
ĠIt alia
t s
ĠB lo
Ġm á»Ļc
Ã ©c
V á»«a
ur e
ĠThá» ©c
Ġg iá»ģng
Nh iá»ĩt
ĠC ap
5 7
R iÃªng
AN TÄĲ
T Ãłi
M áº¹
Ġkh iáº¿p
H á»ĩ
M C
Ġgiáº¿ ng
Ġk áº½
áº· m
Ġs c
n ik
K ho
Ġm i
ĠT uyáº¿n
Ġh Ãłn
Ġx Äĥm
t Äĥng
Å© a
K á»ĥ
Ġs iáº¿t
Ġch ay
Ġx Ã¡t
Ġx Ã´i
ĠD el
B áº¥t
ĠL Äĥng
ĠV GP
ĠÄĳÃ ¨
i am
a ch
P ad
ĠT ottenham
ĠF ed
ĠI V
Ġk Ä©
Ġkhá» Ń
Ġ200 3
Ġt Ã³m
S ong
Ġ7 8
Ġk araoke
Ġt Æ°á»Ľc
ĠM Ã¡y
Do anh
ĠCal ifornia
T iáº¿n
ĠLÄĲ LÄĲ
Ġc m
Ġf acebook
ĠW indows
R áº¥t
Ġ13 0
H á
Há »
ar b
Ng h
Ġdá» Ĺ
6 3
Ġv áº·t
¨ m
Ġgi ang
Ġ a
Ġo xy
Ġtr e
PhÃ ²ng
ĠK hÃŃ
ĠM Ã´ng
Qu Ã¡
ĠB iden
ĠF I
ĠB IDV
ĠP an
ak e
9 7
eal and
Ph áº§n
Ġn Æ°Æ¡ng
ĠS up
Ġngh iá»ĩt
L áº§n
ĠD iá»ĩp
in s
Ġvu Ã´ng
ĠT áº¡
ĠMich ael
ĠC NN
al o
ak h
Ġng áº§n
itco in
C áº§u
Ġv Ãº
H á»ĵng
9 2
ĠNh áºŃn
ĠV á»«a
ĠM á»Ļc
H á»ĵi
Ġlu i
Ġ0 3
ĠJ ames
ov er
y d
ÄĲ Ã¡nh
Ġnh iáº¿p
ĠS Ã¢n
Ġem ail
ĠB i
thÃ ¹ng
! !
T Ã¢y
vent us
Ġg áº§m
B N
M á»įi
Ġs t
ĠZ ealand
ĠL uÃ¢n
ĠO r
ĠK á»ĥ
Ġtr Äĥn
w e
Ġng á»įc
ĠC AND
M áº·t
Ġ6 6
ĠT p
T W
Ġh áº¡ch
b o
Ġ199 2
ĠÄĳáº¿ m
ĠN T
Ġl au
Ġkhi Ãªu
ĠM Æ°á»Ŀi
ĠS ai
ph u
c Ã´ng
ĠB Ãłn
T Æ°Æ¡ng
c hÃ
ĠÄĲ i
ĠTr á»Ŀi
ĠG re
Ġrá» ĩt
Ġr Ã¡o
Ġl ives
Ġv áº¡ch
ĠGu ard
ĠHÃł m
Ġch áºŃu
Ġ0 4
Ġgi rl
Ġan d
Ġ18 0
ĠV ina
Ġt Ã²
Ġt Æ°á»Ľi
Ġd áº·n
Ġnghá»ĭ ch
ĠnÃ© n
ĠW e
N Æ°á»Ľc
ĠÄĳÃ´ n
ĠR am
Ġb Æ°á»Łi
ĠT al
ĠK ur
ĠViet in
, âĢĿ
Giá» Ľi
Ġxe n
N Q
b y
I NH
Ġ3 50
Q uy
ĠV Ã¹ng
Ġb á»ĵ
ac o
ĠcÃ ²i
Ġd áº¡n
Ġ Ãª
5 4
Ġ8 8
Ġv an
Ġkh uáº¥t
Ġqu Ã¡t
ĠN LÄĲ
w ard
A D
ĠTr i
C lip
Ġc Ãłnh
ĠN V
Ġv Æ°á»£ng
ĠT ay
ĠBÄĲ BP
ĠKhu Ãª
ĠB ol
E R
ced es
Ġng áº·t
ĠVic tor
ĠG P
ĠR os
ib ank
s a
Ġb áº«y
Ġ9 2
p ort
ÃĬ N
ĠChÃ ¢n
Ġn Ã¢u
ĠQu áº£
Ġm Æ°á»Ŀi
r ol
ĠchÃ© o
t d
ĠHua wei
ĠÄĲ áº£o
S A
ĠM Ã¹a
ĠÄĲ Ãªm
ĠKho áº£n
ĠM us
ĠPh iÃªn
ĠM u
Ľ c
ĠÃģ o
ĠGeo r
ĠÄĲB SCL
ĠT om
Ġth Ã¡m
j a
V áºŃy
Ġ9 00
ĠG en
ĠV á»£
ĠViet combank
ĠG rab
ĠT el
ap p
Ġ /
ĠthÃ¬ a
ĠCh uyá»ĩn
ĠHol ly
ĠN o
hÃ³ a
7 2
Ġth áº¯p
ac om
T Ã¢n
Ġn eo
5 8
Ġd Ã©p
ĠPhÃ ¹
ĠCh áº¥t
ĠkÃŃ p
âĢĿ ;
ĠNgh e
! âĢĿ.
ĠS á»Ń
H Ãłn
Ġ j
Ġax it
y an
ĠMai l
Ġl Ã³t
at es
O N
Th iáº¿u
ĠTr Ã¢m
ĠM Ãł
7 8
ch o
ĠS L
ĠN ÄĲT
X uÃ¢n
ĠBu Ã´n
Ġ áº¿
ĠL Æ°á»£ng
Ġ6 9
e ing
ÄĲ Ãªm
el d
ĠBar ack
k ok
ĠA TM
at ch
t á»±
ĠM un
ĠÄĳá»ĩ m
Ġr Ã²
ĠM Ã¬nh
__ __
est ine
Ġl á»Ļc
Ġm Ã¢m
ĠT Q
al i
6 2
Ġl Ãª
ĠÄĳÃŃ nh
ĠD Æ°á»Ľi
ĠJ ose
ĠS G
m en
âĢ ĵ
an y
ĠB Ã³ng
Ġm á»ĭn
ĠPhá» ķ
ĠS ol
ĠÄĲB QH
ĠbÃ³ p
w n
ĠC as
áº» m
or s
Q uÃ¢n
ĠM Ãª
T u
Ġv Äĥng
ĠIn st
r en
ĠW est
ĠÄĲá» Ŀi
Th Æ°Æ¡ng
T uá»ķi
ĠArab ia
ĠS l
I á
Iá »
ĠÃĤ m
Ġl á»Ļt
/ /
ĠTá» ©
ĠG T
ĠS w
ĠÄĲ Ãºng
ho p
ĠB ig
ĠL Ä©nh
ĠA c
Ġkh ao
ob ot
ÄĲ i
Ġn Ãłn
K á»³
ĠNg Ã´i
ĠCá» §
l i
t op
Ġmá» ī
V á»ĭ
Äĳ áº¡i
at t
Ng Ã´i
az a
ote in
Ġm Ã¡c
ĠÄĲá» «ng
Ph áº£i
ĠÄĳ Å©a
Tr áºŃn
j i
Ġra dar
ĠS hi
ĠÄĳ áº·n
ĠV n
ag ram
it s
Nam Net
ĠJ on
ĠS il
Ġs Æ°á»Ŀn
ĠB Ã©
Äĳ Ã£
ĠH ill
ĠAs s
Ġh ao
n áº¿u
ok ia
Ġ7 7
ĠÄĳi Ãªu
Ġb Æ°u
ĠA v
Ġká» ī
ĠhÃ ©t
p s
tr Ã¡i
lo g
Ġm Ã¬n
Ġn á»ĳt
ĠH Ãło
Ġx áº»
TN O
ĠJu ventus
Ġnhá» ©c
T hÃŃ
ĠPhá» ĳ
Ġchu i
ĠPal estine
N á»Ļi
ĠT ech
Hu áº¿
Ġchu Ã´ng
ĠV á»ĩ
ĠV áºŃt
Ġt Ã¡m
m i
o C
Ġ áºŃp
SC O
ing s
en c
Ġqu á»µ
: //
Ġ198 2
b Ã¡n
Ġsc andal
ĠL áº¡i
ĠGr and
Ġtá» ¥t
Ġgi áº·t
T O
Ġn o
ĠÄĲá» ı
Q uyáº¿t
Ġ7 1
Ġqu áº§y
Ch uyÃªn
ch Æ°a
ĠG o
6 4
und ai
Ġq uyÃªn
Ġthá» Ńa
ĠN D
Ġ199 5
Ġ áº¡
ĠP aul
w ay
b i
ĠTh Ã¡nh
ĠM B
Ġi Pad
ĠA CB
ĠS outh
Th áº¥y
ĠFI FA
Ġl á»ĳp
ĠCTC K
ĠTN GT
ĠT TCK
ĠM áº¡ch
Ġn áº¯p
ĠÄĳÃ ¹i
M B
s á»ĳ
Ph iÃªn
» ¦y
á »¦y
S ao
Äĳ á
Äĳá »
Äĥ k
Ġv Ä©nh
S I
ĠCh an
Ġb Ã¡u
ĠTh an
O C
UY á
UYá »
Ġthá» ĳi
ĠCA TP
on y
ĠBang kok
ĠghÃ ©t
ĠÄĳ áº¯m
Ġchu á»ĵng
200 7
Ġn Ã²ng
bur g
ĠchÃ¬ a
Ġtr Ã¡n
5 9
ĠB Ã¢y
Ġx Ã¬
D anh
ĠB Æ°u
Ġd Ãło
M ai
I N
ĠC Ãºp
Ġb Ã³c
ĠÄĳÃ ¨o
ĠX K
H C
m ent
Ġtr Ãłng
į i
Ġn an
Ġkhi Ãªm
ĠHolly wood
B ÄĲ
B áº¯c
Ġd Æ°ng
ĠVN PT
ie v
C á»±u
Ġn áº¡
ĠB el
it al
ay a
Ġb Ã´i
Q L
Ġ199 3
ĠâĢ ¦
Ġ Ãºt
Ġc áº¥y
Ġ7 9
âĢ ¢
ĠR od
Ġ hÃŃ
Ġ7 3
us e
and er
ĠC á»ĳ
A r
Ġ200 2
Ġx Ã¡m
ĠM áº«u
ĠÄĲ áº¯c
ĠÃĤ n
Ġ0 8
f e
ĠE s
Ġ7 6
am ilk
ĠMer cedes
ĠQ atar
A i
Ġl Ã¡nh
ey mar
Ġx uÃ´i
Ġ8 6
Th iÃªn
Ch inh
ĠBo eing
Ġt áº©u
Ġr ong
Ġs Æ°ng
Ġ8 1
ĠL o
er g
áº¿ m
Ġkhuy a
Ġb Æ¡
Ġtr Æ¡n
Ġv áº¥p
ĠPh im
ĠNS Æ¯T
en ko
ĠK m
ĠT Ã¡o
ĠthÃ ¨m
t áº¥n
Ġc áº©u
Ġn uá»ĳi
Ġc Æ°ng
ĠB ur
¥ a
ĠÄĳ iá»ģn
F TA
Ġl uá»Ļc
ĠK ar
ĠL Ã²
N S
ĠC Ã¡
ĠPhÃ³ ng
Ġxo Ã¡y
X uáº¥t
Ġx Ãło
us s
ĠN Ãºi
ĠV Ä©
en e
m y
Ġv Ã¢n
ĠhÃ ©
Ġqu áºŃt
ĠPhá» ¥ng
ĠphÃ ¬
Ġt áº¡
Ġ Æ°á»Ľt
ĠNg Ãłnh
ec t
Nghá» ĭ
Ġ7 4
ĠM ot
Ġchá» ĳn
ĠKhÃ ´i
ĠÄĲ Ã´i
Ġc Ã¡m
Ġgá» «ng
st an
Ġch iÃªn
ĠW ar
e on
ĠV Æ°á»£ng
Æ¯á» Ľc
Ġxo áº¯n
ĠM iá»ģn
Ġh áº»m
z o
Ġpr otein
ĠSh in
e ar
S inh
Ġch Ã¡o
Ġhá» ĳt
Ġt Ã¡t
Ġnhá» ¥c
Ġ8 3
ĠKhá» Łi
u el
ĠB MW
ĠÄĳ un
ĠR i
Ġ8 2
7 9
ĠP at
âĢ¦ ,
ĠE ver
Ġl Æ°á»Ľt
ĠX V
ĠC Ã¡n
áº½ n
ero in
Ġchá» įc
5 3
ĠM áºŃu
Ġ ?
ĠÄĳ inh
Ġr á»ĳt
Ġ199 9
Ġqu i
ĠO ne
ĠRob ert
ĠNS ND
Ġ8 4
n Ã³ng
Ġm áºŃp
ĠInst agram
ĠR ich
Ġv Ã¡n
ĠI m
ĠÄĲ iá»ĩp
S o
Ġr Äĥn
Tá» Ŀ
ĠYou T
Ġ199 4
, "
i F
ell a
ĠG old
ĠphÃ ´
ĠYo ung
Ġm áº¯ng
Tá» ·
ĠB BC
ĠSH B
ĠC áº£m
Kh Ã¡ch
Ġ199 1
g an
ak a
y n
Ġqu áº¡t
ch iáº¿m
ĠChr ist
Ġr obot
Ġngá» ı
Ġc or
ĠX i
ĠO p
Ġl Ã¡ch
Ġthá» īnh
Äĳ Æ°á»Ŀng
Ġgi eo
ĠQ U
Ġ200 1
Chinh phu
Ġh eroin
Ġsá» ıi
or m
ĠchÃ ¨o
Ġ am
Ġx oa
ThÃ ªm
ĠB ill
let ico
ĠF lor
ĠTP P
Ġt áº¥p
ĠT a
ĠC Æ°
ĠchÃ© n
M Ã¹a
iv i
an c
ĠP ost
Ġho i
es h
ĠO DA
Ġ16 0
C Ã¡i
ĠTr a
ex it
m ail
Ġx áº¯n
Ng hi
Ġch iÃªm
c Ã¡c
ĠÄĳá» ¥c
ĠJ enn
Ġ14 0
Ġx á»ķ
TT P
ĠS ir
id a
in t
K inh
g a
Ġph áº³ng
ut nik
ĠC om
Ġch en
Ġ Æ°á»Ľp
ĠH áº£o
ĠK u
l ay
ĠT inh
ĠG ar
ĠK T
Ń ng
Ġl á»Ļng
Ġr Ã¢u
ĠkhÃŃ a
ĠM H
ĠT á»Ľi
Ġ199 7
ĠM oh
uk i
Ġm Ãłi
Ġlá» ¥y
Ġv Ã¡c
Ġng Ãłng
K V
d e
ĠT Ã´ng
ĠU ber
ĠK S
Ġá» ¨ng
T Ãªn
Ġrá» ¥i
Ġl áº«y
Ġl Ã©n
ĠTh áº¥t
Ġ Ãł
ĠD a
Ġr áº«y
ĠL iga
ÄĲ H
ĠT y
ÃŃ p
Nhá» Ŀ
ĠB N
Ġs Ãłnh
Ġg ai
Ġb áº¡t
âĢ¦ âĢĿ.
ĠLan d
Ġm Æ°Æ¡i
ĠH Æ°á»Ŀng
Ġm áº¡
r ibank
P hi
Ġg áºŃy
s eo
ĠN TM
ĠTh áº§y
Ġnh á»Ļn
Ġg olf
7 6
B A
9 6
em en
Ġkh an
Ġt i
ĠL Ã¢n
ĠC Ã¢y
ĠN áº¡n
l us
Ġgi Ã²
Ã¹ y
Ġx Æ°á»Ľng
os hi
T uáº¥n
ĠJ ord
Ġ *
Ġ ...
NLÄĲ O
ĠN okia
us tin
V C
Ġn áº¥y
Ġ Ãªm
ĠTM CP
ÄĲ Ãºng
5 6
Ġ9 1
ĠOs car
ĠNg á»¯
Ġch iáº¿t
Ġr Ã¹a
ĠBr un
R O
ĠSL NA
Ġt ia
Gi Ã¡o
ĠhÃ£ m
Ġt em
S iÃªu
Ġcho Ã¡ng
ĠIn d
Ph Ã¡p
ĠI P
ĠYouT ube
ĠA z
iv al
ĠÄĲ am
M S
el and
Ġ198 0
ĠthÃ ª
ĠPhÃ ºt
Ġcá» Ľ
Th áºŃt
H iá»ĩp
Ng oáº¡i
ĠT Ã½
ĠP SG
Ġ12 5
Ġ9 6
ĠT X
Ġcá» Ĺ
om berg
ph áº£i
ĠAb e
Ġs Ã¢m
B á»©c
Ġl Ãºn
ĠD am
z a
b in
Ġb ong
Ġg áº¥u
az on
Ġ199 6
ab a
ĠN ote
Ġ áº¡t
» ħ
á »ħ
Ġb Ãºn
ĠHo áº¡t
Ġx áº¥p
el s
ĠB iáº¿t
TP O
ĠW on
ĠV ua
ch i
Ġg áº¡t
M á»¥c
ĠNhu áºŃn
U V
nh Ãł
ĠSup er
ĠS n
Ġl ung
ĠÄĳá» ĳn
Ġx ay
W h
ĠKh áº£
Ġd iá»ĩu
ĠS im
ĠÄĲ áº±ng
Ġ8 7
ĠV Æ°á»Ŀn
ĠSt ar
ĠTh áº©m
H áºŃu
Phá» ¥
p er
ĠHy undai
ĠL ang
Ġm Ã´ng
ĠT uÃ¢n
ĠK ia
Ġr Ã¡ch
ĠM el
Ġbá» Ľi
ĠL at
is e
Ġt ao
Ġ Ã¢u
ĠD an
Ġá»§ i
s á»Ńa
ĠR es
us t
Ġcor ona
Ġ8 9
Ġs áº¥u
Ġn á»Ļ
Ġv iá»ĩt
ĠT Ãªn
as c
Ġt áº¥u
Ġ9 7
ĠCol om
ĠH ung
ĠC á»ķng
Ġt am
ĠX em
ĠL oáº¡i
Ġrá» Ľt
Ġd ai
X in
Ġcá» į
ĠO ld
ĠRo oney
ĠCh arl
ĠVin amilk
ĠInf onet
ĠCh a
Th Æ°á»£ng
ra gon
ĠP ep
Ġs á»į
ĠL i
ĠB itcoin
ĠCh áº¥n
Æ¯ Æł
Ġbá» ©t
M A
ĠX IV
l an
» ģn
á »ģn
ĠMar tin
ĠC anh
ĠWill iam
ĠphÃŃ m
Ġb áº¡
Ġr Æ°á»Ľc
ĠMi ura
Ġd áº»o
ĠTá» ©c
ĠHá» £i
s iÃªu
Æ¯Æł NG
c i
ĠS tr
ĠN eymar
Ġl am
Ġ197 5
ĠUA E
B Ã©
Ġlives how
Ġv Ã¡ch
th Ãłnh
p a
ĠMun ich
X Ã¢y
Ġq uyá»ĥn
ĠM Ã¹i
ol i
Ġngo áº¡n
Ġ0 6
Ġ11 5
ĠBr exit
ĠL iá»ĩu
im ex
ĠNg Æ°
ĠV áº¥p
Ġg u
F C
et a
ĠN or
y e
r es
Ġd iá»ħu
Ġsex y
Ġ199 8
x e
Ġl á»¯
om e
ĠCh áº¿
» «
á »«
Ġch Æ°ng
az da
ĠM e
Ġr áº¡ch
Ã² m
ĠA I
Ġngh áº½n
Ħ N
Ġn uá»ĳt
Ġg áº§y
Tr iá»ĥn
Ġlá» ¥a
ĠNg Å©
il a
Ġl Ã¬
Ġng áº«u
8 9
ĠTr Ãłng
P G
ah a
ĠP VN
V áº¥n
Ġqu áº¥y
Ġx Ãłi
ĠTr áºŃn
ĠJ un
Ġ Ãºng
os h
ĠK iev
ĠPhÃ ¢n
ĠC á»±u
ĠH er
Ġg á»ĳm
ĠAt letico
âĢ¦ .
Ġ á»ĵ
ĠL ou
ĠÄĲ á»ĵ
T uyÃªn
v an
Ġi OS
ĠG B
S áº£n
ĠÄĳ áº¥m
ĠL á»¯
ÃĤ N
B TC
Ġnh a
ĠA h
C Ã¡
Ġrá» ħ
al e
ĠÄĳ an
ĠM ax
H Æ°Æ¡ng
ĠB or
c Æ¡
ng á»¥
ĠK i
ĠAs ian
ĠSp utnik
ĠW all
E F
Ġká» ĩ
Ġrá» ¥ng
Ġngu á»Ļi
Ġlo g
ĠC Ãºc
ud i
ĠJord an
ĠR á»ĵng
ng uyÃªn
PhÃ º
Ġg áº·t
Ġsu Ã½t
acom bank
ĠN Æ¡i
chá» §
Tr Æ°á»Łng
ĠB Ã¡n
chá» ī
Ġnh Æ°á»£c
M an
Ġ198 8
Ġnh áºŃm
ÄĲ B
ĠJ i
Ġx Ã©
ÄĲ Ã´ng
Ġsá»Ł i
it t
v i
ĠT á»ĳ
ĠHá» Ĺ
ĠÃģ i
ĠL áº§u
UYá» ĦN
ĠCh iá»ĥu
AN G
ĠBlo omberg
u ck
C Ã¢y
Ġmu á»Ĺi
Ġv Ã¹i
sk i
Ġnh iá»ħu
ĠD Æ°
5 1
c Ã´
Ġ198 9
M á»©c
Ġb Ã£
ĠJo e
ĠC áºŃu
Ġ9 3
ĠAm azon
ĠTh o
ĠNg Æ°á»£c
M P
Ġm ini
ĠT á»ĭnh
? âĢĿ
l á
lá »
H Ã²a
ob al
Ġth on
ĠGi ai
ĠDo Ã£n
ĠS C
ĠN ov
ĠNghi Ãªm
ĠNg á»į
Ġt áº¡t
ID S
ut ube
ĠN et
ĠL os
Ġho Ã¡n
ĠK e
) âĢ¦
Ġt ivi
ĠC ro
ĠDN NN
k s
n ational
nh Æ°
ĠM ed
ĠS Ã¡ch
Ġb Æ°á»Ľ
Ġm ÃŃt
ĠB áº£ng
Ġbá» ĩ
ĠÄĲ Ã¡
Tr iá»ģu
Ph an
ĠThÃŃ ch
ĠTr á»±c
Ġná» ©c
ĠD Ã¹ng
ff ord
ĠId ol
ĠL á»Ļ
Ġn áº£n
Ġkho Ã¡i
Ġ( +
ĠO ai
Ġng áºŃm
Ġk iÃªng
Ġnh Ã¡i
ĠC Ã´n
ĠT or
os a
ĠTá» Ŀ
ĠP e
ĠC u
m o
ĠthÃ ²i
Ġph áº«n
el le
ĠThá» Ľi
es el
Ġv Ã²i
ĠM áº«n
ĠColom bia
n i
8 6
ĠM uá»ĳn
ĠE a
ĠY Ãªu
ĠT áº¡p
gi o
ed a
ĠCr im
Ġná» ĥ
Ġth áº£n
ĠThu á»Ļt
E x
Ġm od
Ġgi Ã²n
ĠU r
Ġkho anh
... ,
ĠV II
ĠT Ã¡c
m l
B V
Ġ0 7
Ã ļ
ĠMoh am
Ġhá»ķ ng
ĠAg ribank
ĠKur d
Ġt Äĥm
AN H
Ġsá» «ng
NE SCO
D u
s o
ĠT ur
ĠM eg
ĠV o
il le
Ġng á»Ńa
Äĳ á»ĳi
âĢĿ âĢ¦
is hi
Ġ1 000
ĠB ern
PhÃ ºt
and a
k i
im es
ĠN at
S Æ¡n
T R
Ġb á»±c
ĠN av
ĠV ang
ĠT CT
ĠT Ã¬m
ĠC os
Ã³ p
nh á»¯ng
ĠL Ãłng
Ä ĳi
ĠÄĳÃ ²
Ġ20 22
Ġtá»ĳ p
ĠS ky
p há»
Ġ uá»ĳn
ÄĲ Æ¡n
as er
P GS
ĠMar t
ce an
Ġt Æ¡
ÄĲá» «ng
ĠLá» Ľn
ak i
est ival
ĠT Æ¯
ak u
Ġb ik
Ġlá» į
L inh
Ġ4 50
M O
Ġchá» įi
ĠC R
ĠbÃ© n
Ġbá» «ng
Ġ198 6
ĠV Ã²ng
Ġb áº©m
ĠH a
L Ã¢m
Ch u
ĠB Ã¡t
id er
ĠVH TT
ud e
ĠJ er
Ġl áº©n
Ġcá» ĳi
ĠÄĳ áº«m
pp o
Ġtr Ãªu
B á»Łi
Ng he
» Ĺng
á »Ĺng
ĠMar ia
ĠE ur
Ġ Ã³c
ĠD ani
Ġx oÃłi
Ġn á»į
ĠTra fford
ĠchÃ³ t
g ar
7 3
ĠT eh
Ġh Äĥng
ĠS m
Ġnh Ã´m
Ġn Ã¡o
B I
ĠChá» ¯
ĠÄĳ u
ĠKh uyáº¿n
Ġph ao
ow er
C á»©
et t
Äĳ Æ°á»£c
lo w
Ġgi Ã£
K iá»ĥm
Ġh Ã¡o
Th áº§y
Nh áº±m
Ġng Ã¢y
Ã Ŀ
Ġtrá» ĩ
T E
ĠD inh
ĠM ur
ĠCrim ea
Th áºŃm
iF one
B áº±ng
Ph ong
g er
ĠCh áº¯c
Ġk eo
ĠG Ã³c
H ÄĲ
w a
Ġbá» ī
Ġbá»ĭ t
Ġtu i
Ġ( -
ĠTr Ã¢n
Giá» Ŀ
h Ãłng
n es
l l
er son
ĠA sia
8 3
ĠMo on
ut s
N áº¡n
tr Ãº
7 4
ĠC Q
Ġd ang
ĠX Ã¡
t is
PhÃ³ ng
ĠD is
ĠN ig
ĠH iá»ĥu
ĠB ao
Ġnh á»įc
L á»Ŀi
ĠHO SE
Ġn Ã´
L A
Ġth áº¡c
k el
Ġ áº¤
ĠInter national
Ġr á»ķ
ĠNg uy
ĠÃļ t
Ġd Ã¬
Ġs áº¿p
Ġ Â
ĠC M
S áº½
ĠChÃ ¹a
ĠÄ Ĥ
ĠL ED
Ġn áº¡o
Ġv Ã©t
ĠB Ãłng
ĠH Ã²n
Ġh tt
ĠLH P
ĠM Ã³ng
L Ãło
ĠC en
r ov
ĠT uyá»ģn
NH NN
ĠL G
Ġ10 8
ĠY emen
Ġngh áº¹n
ĠS ar
Ġmu Ã´n
ag en
ĠC at
it a
Ġnh Ã£
ĠT D
Ġcan xi
l Ãł
im bank
ĠP u
Ġr áº§m
Ġ198 7
ĠVictor ia
ĠB ro
Ġkh iáº¿m
SN N
Ġ17 0
V i
Ġlá» Ŀ
ĠHar ry
L Æ°u
ĠV ol
ĠQu Ã¡ch
i um
ĠU td
M Ã¬nh
Ġng áº¡t
M á»Ł
ĠS E
Ġm Æ°Æ¡ng
ĠH áº¡t
if e
§ a
y m
) ...
Ġnhu á»Ļm
ĠL im
Ġ2 20
Ġcu á»Ļn
Ġl iÃªng
ĠAm er
ĠBe ck
Th iáº¿t
ĠF l
T Ã²a
ĠN ic
b ra
ĠF A
an ce
ĠJohn son
Ġk Ã¬m
ĠY am
á»§ a
us h
1 50
Ġvá» Ĺ
ĠI M
ir e
ĠB áº§u
ĠN ex
Lá» £i
ĠTeh ran
ĠS acombank
phÃ ºt
Ġb Ãº
ÄĲ á»Ļng
ĠB R
r is
ĠUS S
Ġd Ã¨
ĠSon y
Ġr un
Ġr Ã£
s u
ĠChi le
ai r
ÄĤ n
Ġv áº¯t
ĠQu á»·
ĠCar l
Ġg en
Ġphá» Ł
ĠSer g
ag es
ĠL S
ĠD áº§n
ĠG ÄĲ
ĠAl l
ĠcÃ µ
ĠM azda
Tu áº§n
ĠBl u
K iáº¿n
C áº·p
Khá» Łi
se y
ĠR AM
ĠÄĲ á»Ļc
Ġhá» ©c
ĠL ad
ern and
g á»ĵm
ĠÄĲ Äĥk
H áº§u
8 4
ĠL iá»ħu
Ġph Ãł
ĠAb d
ĠU NESCO
6 1
Ġx á»ĭt
á»ĩ t
ĠT áº¡o
y Ãªu
ĠNh áº¡c
gi áº£m
9 3
ĠH un
ĠSai gon
ĠD on
ĠAng ela
Tr uyá»ģn
ĠR áº«y
Ġbik ini
L ong
ĠH al
7 1
ĠCh ina
Ġs et
Ġnh á»ĭn
tr Ãªn
Ġ198 5
ĠnÃ³ c
ĠM ir
ĠgÃ³ t
ap top
Ġ Ã¡ch
ĠViet NamNet
s s
Ġch áº£o
ĠK ing
ĠV ideo
ĠMob iFone
ĠS UV
ĠR ed
og an
u ay
ar o
ĠHo an
V n
ĠIr eland
ĠB áº¯t
ĠcÃ ²
ar ez
B á»ĳ
el e
Ġh áº£
ĠM áº¡c
v en
A I
ĠL av
k ho
ĠÄĤ n
Ġn i
Gi ao
Ã© m
d inh
Ng Ãłnh
ĠÄĲá» ģn
ĠTh iÃªm
Ġth en
s i
Ġm iá»ĩt
Ġngá» ©a
h iá»ĩn
eng er
k ov
ĠR ang
T Ã¬m
DC ND
ĠS á»Ńu
ĠV CK
V Å©ng
j et
ĠSu z
ix el
ĠN ay
Ġgi Ã´ng
Ġnhá» §
ĠB in
ĠB T
Äĳ Ã¡nh
Ġ10 5
Ġg Ãµ
Ġt áº£n
ĠB Ã£i
ĠB os
ĠD ong
gi áº£i
8 2
n ews
C L
r ig
M á»Ŀi
Thá» ĳng
ĠÄĲ Ã´n
ChÃ º
Ġn ang
I áº¾
ĠO cean
Ġh Æ°ng
ĠChÃ ºc
Ġkhá» ıa
Tr Ã¡i
ĠF LC
am e
L o
ĠÄĲ en
ĠO l
t Ãªn
ĠD r
P H
if er
ĠT an
Ġá» ©
Y Ãªu
ĠYo utube
Ġy áº¿n
9 1
T Ã¡c
ĠV OV
ĠÄĳ áº£
op a
200 6
ĠL au
ĠB L
» ©ng
á »©ng
ĠT uáº¥t
9 4
ass age
Ġthá» ¥c
Ġs áº§u
g r
ĠN ik
ĠGl obal
ĠGeor ge
thá» ĭ
Ġd Ãª
Ġb á»įt
Ġchá»£ t
Ġs er
ĠD Ä©
ĠX Æ°Æ¡ng
ĠVietin Bank
ĠJ ae
Ġb Ãºp
ik a
en ce
ĠM W
ĠLá» Ŀi
Ġr áº¡n
V T
ĠbÃª nh
Ġkhá» ī
º p
Ġ9 4
ÃŃ u
ĠThá» ıa
ÄĲ iá»ĩn
X D
ĠV u
ĠChá» ĵng
ĠcÃ´ i
ĠMos k
Ġnh Äĥn
ĠK Ã½
ĠbÃ¬ a
ed an
ian a
m und
B uá»ķi
et ing
Ġs áº¯n
ĠR áºŃp
ĠcÃº i
ĠGiá» įng
Ġl i
ĠT Æ°á»Łng
T Ã¢m
z one
Ġdi esel
r ic
D uy
Ġvá» Ŀ
Ġs im
ĠP le
ĠP o
Ġb Ãºa
ĠÄĲ áºŃu
ĠmÃ£ nh
Ġ 00
ĠCP I
ĠAngel es
Ġc Ãło
ĠSG K
H oÃłi
ÄĲ oáº¡n
Ġmu á»Ĺng
Ġtr iáº¿t
Ġ áº§m
s ter
ĠW il
Ġl Å©ng
Ġh áº¥u
Ġm á»ĳt
ĠAn ton
E P
Ġt een
ĠU Ã´ng
iss an
ĠK áº¡n
ines s
C ao
Ġ Æ¯á»Ľc
Ãº m
Ġc Æ°á»£c
v Ãł
ĠthÃ ¢u
Ġgiá» ¥c
b or
X B
Ġd áº¡t
al k
og ba
Ġc arb
Ġd áº¥y
ĠNo el
ĠKr Ã´ng
Ġx Ã¡o
ĠLou is
ĠHo áº·c
Ġkhá» ĳn
d er
Ġt áº¡c
ĠNgh iá»ĩp
Ġnh á»ĭ
Ġl en
ĠEx imbank
20 25
S h
im e
Ch áº³ng
ĠHá» ıa
Ġ198 4
Ġnh uyá»ħn
C áº£m
ĠAnd re
ĠMod el
ĠHy un
ĠL Ã¡ng
ĠM Ã¢y
ĠR anh
ĠL iá»ĩt
ĠS áº½
Ġchá» ¯ng
M áº«u
ı m
ÄĲT CK
ĠS uá»ĳi
ĠH Ã¨
Ġs áº¥y
ĠTr ao
Ġ ac
Ġto a
Ġnh á»ĵi
Ġph Ã¡c
ĠS i
c ao
ĠTh áº¯m
ĠPh u
Ġv s
ĠCH DCND
ĠMosk va
ĠZ h
Ġsá» Ŀ
L á»ĭch
Ġs Ã²ng
ĠD áºŃu
ĠTr Ã¬nh
H Q
ĠC O
ĠhÃŃ t
ĠTr áº¡i
thá» ±c
Ġg Ã²
Ġng Ãłi
ĠC omp
Ho áº¡t
tu áº§n
ĠM ek
ĠCh Ã¡u
ĠÄĲ Ã¡nh
ĠChÃº a
C hÃ¢n
ĠF ox
abe co
ĠM ike
c á»§a
Ġtr Ã¨o
ĠK a
ad i
Ġqu á»·
c Ã¹ng
B Ãłn
ĠL Ã´
Qu á»³nh
ĠNh Ãłn
Ġ [
Ġl Ãºng
G hi
ĠÄĳ ao
ĠS Ã©c
st ar
ĠH en
Ġ Ã¡
ash in
Ġmá» ³
Ngh iÃªn
Äĳ iá»ĥm
Ġqu áº¥n
i ola
ĠM áº¥y
tre et
ĠCr ist
ĠFor m
ĠM ah
k in
o ut
ĠTr anh
8 7
ĠCh Äĥm
ĠQ uáº¥t
Ġng Ã¡n
Ġm iá»ĩn
Ġx áº£o
K hÃ³
ĠW hi
Ġv Ã´i
Ġth áº¡o
Ġgi áº·c
ĠKS ND
h ot
Ġkh ang
os ter
Ġ hÃ´ng
g in
Ġ197 0
V in
ov e
Äĳ áº§u
ĠNhÃ ¬
b us
ĠTr Ã£i
H ay
l es
ĠW enger
! âĢĿ
Ġtr Ã¹
GD VN
ĠQL TT
ĠchÃ ¹m
ĠthÃŃ nh
ĠH aw
is a
Æ ¯u
ik u
Ġh it
Ġmá» §
Ġb áº»
l ing
V áº«n
p t
ĠKh Ã¡m
ĠThÃ ¬n
ĠGa al
Ġc Æ°a
ĠghÃ ª
ĠFran k
ĠF ab
Ġng áº£
ĠN ad
h ai
ĠS ev
K TS
ĠA C
ĠN SNN
Ãµ m
ĠMer kel
ĠCQ ÄĲT
E M
r ed
Ġg Ã¢n
ĠTh om
ĠF estival
Ġqu áº¥t
g ia
ib an
Ġkh áº¯t
ĠTr á»¥
TP HCM
AS A
tr ess
? ".
ÄĲá» Ĺ
tre am
ÄĲ ang
ĠV á»¹
ĠC áº§m
ĠP ol
m it
m Ã£
ÃĶ NG
ĠD ie
ĠP T
» ¡
á »¡
ĠnÃ³ n
at ia
D Æ°Æ¡ng
k ara
Ġt Ãł
Ġl aptop
ĠT ex
k er
Ġchá» Ľp
Chá» ©ng
ort mund
Tá» īnh
CC I
ĠS ec
il on
» Ŀ
á »Ŀ
ĠFran c
Ġlo go
A C
ĠHy e
Ġl á»±u
Ġ áº©u
ĠIm ages
ĠCh ia
H uy
ĠV áº«n
Ġgi áº±ng
av e
Ġtá» ¥y
Ġtá» ħ
k aku
ic ester
ĠcÃ ºc
ÃĢ NG
ester ol
Ġh u
Ġngo áº·t
ĠF in
ĠB Ã¨
ĠBer lin
Th i
ĠV er
Ġ198 3
ĠV ir
ĠL in
ist ics
ĠN e
ar us
t hi
ĠH Ã³c
ĠÄĳÃ ºp
S á»©c
ĠMot or
Ġph Ãłn
Ġ )
ĠY ang
ĠB Ã´ng
ad o
ĠM ag
ĠM áº¡ng
H Æ°á»Ľng
Ġlá» «ng
Ġm assage
ĠM á»Ł
ĠGre en
tr o
Ġn áº§n
ĠS and
ĠVo ice
ĠW HO
Ġthá» ĳn
ĠM Ã´
ĠD ub
h Æ¡n
ĠT á»ĳng
ĠNT K
I P
Ġl áº§u
ĠK hÃ³
Ġs Æ°a
ĠJ in
Ġthá» ĳt
Ġv Ã¡
Ġs Ãło
Ġm iÃªn
Ġtr á»ķ
ĠR oy
Ġn Ãªm
E S
Ġv Ã¡ng
ĠL Ã£ng
Ġg áºŃt
Ġqu á»³
T á»±
ĠÄĲ Æ°a
Ġh Ã¡n
c ol
Äĳ á»ĵng
ĠCos ta
ĠK en
ar m
ĠAF C
ĠP ogba
Ġv un
ĠM r
Æ°á»Ŀ m
ĠGuard iola
Ġgi Ã¡ng
ĠM ong
ak ar
Ġto an
Ġ1 01
Ġc Ãły
S V
ĠJon es
V iá»ĩn
ig n
s á»±
ĠGiá» ¯a
p hi
Ġr Æ°á»¡i
8 1
Ġng uyá»ĩt
ĠB uá»ķi
T á»Ľi
Ġph áºŃt
ĠIn s
ĠBá» ©c
re am
Ġlo Ã©t
ĠB CH
ĠJ ung
b es
Ġc áº©m
ĠT Æ°á»Ľng
ĠMek ong
ĠE V
K D
ĠÃ įt
n á»¯
Ġ197 9
ĠN m
od y
D P
Ġn áº¿n
Thá» §y
Ġro ck
ĠT iá»ĩp
ard o
ĠK o
th áº§n
ĠPet er
ĠAn kara
Tr á»Ł
ib aba
I T
B iÃªn
v el
Ġr áº£nh
ĠRod rig
ĠKhi Ãªm
ol e
ack er
b e
ag o
ĠW TO
ĠA udi
Giá» ¯a
ĠD iÃªn
N inh
if ic
Ġhá» Ŀ
ĠN K
Ã² e
l ott
ĠPl ay
Tá» «ng
Ã¨ m
ch iáº¿n
X Ã©t
b rid
Ġcho l
A l
ĠT C
Ġtr o
ĠNig eria
ĠW at
ĠN iÃª
ĠBal e
D B
ĠT ai
ĠH uáº¥n
og a
ĠhÃ³ c
rol imex
Ġx ÃŃt
Ġl iá»ħu
Ġ11 3
ÄĲ Ã´i
Ġ36 0
ĠI bra
p op
asc us
ĠP ac
ĠD j
áº¿ ch
D á»ĭch
ĠNH TM
Ġvá»¥ n
ĠHar i
V P
ĠTr Ãłm
âĢ¦ âĢĿ
Ġnh á»ĳt
ĠTal iban
Ġb log
ĠHill ary
Ġtá»ī a
Ġr áºŃp
our n
Ġng Æ¡
K CN
il y
V Ã²ng
ĠJ ul
L S
Ġru á»ĵi
S t
H y
Ch uyáº¿n
Ġv iá»ģn
ĠL uyá»ĩn
ĠI l
Ġg á»Ļi
ĠSu arez
ĠX á»Ń
Ġrá» Ĺi
ĠvÃł n
Ġtho a
n ay
Ġl Ã³c
ĠNhá» ±
ĠT uyá»ĥn
Ġchol esterol
R a
d am
b áº¯t
ĠEr d
á»ķ n
ĠHung ary
ac t
ĠC á»±c
Ġl Æ°á»£n
ĠPh áº¥n
B áº£ng
ĠD A
ĠS Æ°Æ¡ng
Ġch uá»Ļc
ĠK at
Ġsáº ¹
Gia dinh
D Ã²ng
ĠTh ao
ag h
K áº¿
ah oo
Ġr ang
» Ĳ
á »Ĳ
ĠD Ã²ng
ÄĲ á»ĭa
ĠF err
ĠDam ascus
ĠL Ã£o
... âĢĿ.
C Ã¡n
T áº¿t
Ġr Ã³t
Ġtr Ãºt
Ġth áº¯m
C á»ĳ
Qu áº£
Ġsáº¹ o
ĠR T
Ġgh e
em a
U B
ĠIn tel
c Ã¡i
Ġd áº·m
ĠD ortmund
ĠD ao
Ġ10 3
w on
nh ap
Ġthá» ģ
ĠAs h
Tr áº»
m ad
w an
Ġm iÃªu
ĠX Ãª
ĠÄĲ á»ķi
ĠR Ãµ
A F
ĠH el
ĠCh Äĥn
Ġtr áº·c
l áº§n
ĠPh áº£
ĠV AM
ĠâĢ Ŀ
ĠE v
Ġbá» ĵng
V Ä©nh
Ġtr Ã³i
ĠÄĲá» ĩ
ĠÄĲT QG
ĠAl i
Ġthu á»Ł
---- ----
Äĳ oáº¡n
Ġhá» §
M uá»ĳn
ĠVin ac
Ġbá» «a
N K
Ġ áº¥u
Ġs tress
H áº¡
g en
ĠAss ad
ĠFlor ida
ĠB ul
X Ã¡c
Tr á»įng
Ġnhá» ī
Ġr Æ¡m
ĠB iá»ĥu
Ch ung
KT ÄĲT
ĠTh oa
ĠAl ibaba
j an
ir o
U S
ĠForm osa
ĠA TTP
d en
Ġm Ã©o
ĠVP F
v á»Ľi
k ÃŃp
ĠBá» Ŀ
ĠM ang
r m
Kh ai
ĠTu á»ĩ
há» įc
ch áº¡y
c Ã²n
ur i
ĠVietnam net
ÄĲ S
ĠS el
Ġl anh
aw a
ĠK az
re y
ĠA M
Ġ Æ°ng
ĠS ud
it o
ĠND T
ĠLu áºŃn
ĠR áº¡ch
ĠErd ogan
ĠM etro
ĠFed er
a eda
ĠG er
ĠR ON
fi eld
f a
Ġhá»ĩ t
ag a
ev a
Ġk iÃªu
t ra
ĩ n
ĠC áº·p
ĠÄĲ ang
er y
ĠN XB
ell i
Ġká» µ
ĠKr em
C áºŃu
ĠNhá» ĭ
ĠD O
ĠSuz uki
s au
ĠTay lor
Ex press
t an
2 50
Ġd áº§m
ĠG iÃªng
C áºŃn
Ġm ic
ĠS A
200 5
Ġg Ãłng
N V
ThÃ º
Ġk Ã©t
ĠFor bes
ĠThom as
it an
ĠS how
ĠPh a
P him
Ġng Ã¹i
KTS G
ĠBel arus
? âĢĿ,
ĠV Ã´
g áº§n
ĠLe icester
ĠG e
ĠAN TT
Ġm au
Ġj e
Th áº£o
ĠBÃŃ nh
ĠNg hÃ
ĠK áº»
C Ãł
Ġt áº©m
hi p
at i
m ed
Ġw ww
C D
Ġ =
ĠS ung
Chá» ĵng
Ġm áº£i
Ġn ilon
ĠV á»ĳn
ĠPle iku
Tr Æ°a
ĠTCT D
ex us
ĠUS B
ĠL ion
ĠG ad
Ġt Ã©
Ġ24 0
if t
Ġb o
ĠThá» ¥
ĠchÃŃ ch
ĠJ ustin
ĠCrist iano
p age
b on
ĠM P
ĠB as
ĠP ower
Ġb á»į
Ġngá» ¥c
Ġá» ıi
ĠS om
b ai
ÄĲ Ã¬nh
N Ã¢ng
Ġchá» ĳc
er on
Ġch áº£i
Ġho rm
ra ph
Ġlo Ã£ng
ĠN i
ĠS M
ĠDani el
* *
ĠTex as
ĠX Ã©t
M ar
am i
S á»Ń
Ġng áº¯t
le c
áºµ n
T iá»ĥu
Ġcá»¥ t
X á»Ń
Ġv Ã£n
ĠS X
A IDS
ĠKh a
ĠRich ard
ĠNh iÃªn
it z
D Ã¹ng
L an
ĠEver ton
ĠTo áº£n
Ġng Ã³ng
y o
ch a
h r
M U
Ġmod el
ĠNex t
ĠM ua
Ġl ay
ĠAle ppo
q ua
t iá»ģn
M ua
ĠViet jet
ĠS á»ĳng
Äĳ á»ĥ
ch ez
gi Ã¡
ĠTh iá»ĩu
Ġl Æ°á»Ŀi
ĠT W
if f
ĠV it
ĠW i
Ġlá» Ńng
th u
Ġph en
ĠDie go
ĠÄĳ Ã¡i
b Ãł
Ġxá»ī u
Ġc alo
ĠTá» µ
ĠG Æ°Æ¡m
ChÃ ¢u
ĠTH A
Ġsu Ã´n
Ġk áº¹p
Ġcá» «
ĠA ward
PT PP
S am
b r
ĠDu áº©n
Ġn Ãłnh
P EC
Ġ %
ĠvÃµ ng
ĠF ernand
us hi
ĠThá» ¥c
ĠF TA
Ġtr á»įt
ĠM Ã£o
ĠIM F
Ġngá» ¥y
ĠTá» «ng
ĠQ uyáº¿n
ĠI a
ĠchÃ ¨n
Ġl Ã¹m
ĠKrem lin
ÄĲ áº¡o
ĠCro atia
ĠU N
ĠL áº¥y
ĠK al
ĠCh Æ°
ĠA ut
ho áº·c
ĠN ob
ĠphÃ ´i
ĠG h
enc ia
oo t
Ġv e
c ast
ĠC Ãłng
ĠnhÃł o
ĠVin ashin
Ġ Æ¡
as on
t en
Ġqu áº·ng
N áº±m
IA D
ĠN áºŃm
ĠQu á»³
Ġ13 5
ÄĲ Ãłi
ÄĲT B
ĠS ina
kh u
ĠGuard ian
ĠM iáº¿u
Ġv áº«y
ĠGP MB
Ġ198 1
an n
Ġca t
ĠB á»ĳn
k hi
Ġ197 2
ĠBrun ei
l ib
ĠJenn ifer
Ġqu áº¿
ĠC áº£i
M Ãłn
ĠÄĳ Ãłng
at o
Ġ uáº¥t
ĠChu áº©n
ub ishi
ĠMar c
phÃ ª
B iáº¿t
ĠSh ar
Ġ10 2
ĠYo nhap
ĠK ÃŃnh
âĢ¦ )
ĠX a
Ġsá» ¡
ĠNg Ãł
Ġ19 60
ĠS in
ĠP L
Ġr Ã¡n
Ġ197 6
H en
ĠS IM
h ay
Ġ12 8
áº ¦
Äĳ áº·c
ĠBr ad
Ġb iáº¿u
Ġg ang
C l
Ġhtt p
as e
ĠDub ai
h Ãłnh
B H
C á»ķ
ĠP ort
ĠPl aza
d or
3 70
ĠU ng
p ot
one x
Ġg áºŃp
ĠFranc is
s ky
Ch a
Ġlá»ģ u
ĠH P
ĠJ ol
ĠquÃ½ t
M edia
ĠJ av
B enz
ĠM its
ĠS P
ty le
ĠG ea
Ã Į
Ġr Ã£nh
k hÃ³a
Ġch áºŃp
v Ã´
ĠSerg ei
ĠViet lott
man n
âĢĿ ?
Ġto Ã¡t
ĠF ort
Ġn áºŃp
ch iáº¿c
ĠV illa
ĠG ra
W S
ab y
Ġtá»§ i
ĠS áº¯c
Ġng áº¥m
ĠThÆ¡ m
Ġs e
" ...
Th Æ°á»Ŀng
Ġb in
Ġb áº§m
ĠN ap
ĠTr áº£
ĠG V
Ġm e
ĠE b
ĠV á»įng
M áº¥y
Ġxu á»ĵng
ĠL Ã¢u
c uá»Ļc
ĠF ace
ĠAlex ander
Ġlog istics
ĠL Ã¡i
ĠCh uyá»ĥn
Ġc á»Ļi
b Ã¬nh
Ã¬ a
Ġkho Ã¡t
ĠA R
ĠO k
i us
Ġx Ã¹m
ĠL en
ĠD es
ĠHá» ©a
N Ãªn
ĠBus iness
R onaldo
Ġgi Æ¡
Ġ á»ĳp
Kh Ã¡m
3 50
ĠPer u
ue z
ĠPh Æ°á»Ŀng
Ġdá» ©a
ĠEU RO
er e
H oÃłn
k ip
ÄĲ K
ĠTr Ã¡ch
ain t
ThÃ ¹y
ĠD iá»ĩn
Ġl áº§y
ĠT Ã¹y
ĠT á»ĳt
ķ ng
E N
al ines
ĠP omp
ĠT áº§n
Ġm áº©n
ĠC Ãº
Ġm Æ°á»£t
Ġ Ãºp
Ġk i
Ġx Æ°á»Ľc
ĠLu is
% -
ĠId lib
ÄĲ Ãłn
ĠHar v
Ġv Æ¡
Ġm Ã©p
ter te
ĠChÃŃ n
T D
ĠS um
Ġng ao
ok ovic
o id
ĠP or
ĠAS IAD
âĢĿ ...
Ġs Æ°á»Łi
ĠMan ila
Ġr ay
ch uyá»ĩn
I ÃĬN
ĠM id
r u
it ch
ĠGi Ãłng
Ġáº¿ ch
ĠYam aha
iv ers
Ġmá»ī m
____ ____
ic an
B ar
Ġ >
Kh Ã¡c
Tr Æ°Æ¡ng
ĠNg Ã£
ĠKh mer
Ġkh iáº¿t
d io
Ġd iá»ģu
L oáº¡i
Ġca bin
Ng Ã´
Ch Ã¡u
Ġqu Ã¢y
Ġ7 50
ĠH á»Ľi
V ÃŃ
ĠS D
ĠRom a
» ¨ng
á »¨ng
ĠtÆ° ng
ĠJ et
Ġb ung
v á»£
C TV
ĠS uá»ĳt
ĠBeck ham
Ã įt
M Æ°a
ĠDu terte
Ġx ua
R eal
! ".
ĠY ong
há» Ļ
Ch áº¥t
ĠAir bus
b ek
Ġv uá»ĳt
ov o
B D
Ġmá» ©t
Ġph iÃªu
ĠTh Æ°á»Łng
Ġphá» ĵng
ch er
ĠthÃª u
ĠC á»ĳc
Ã Ļ
ĠNh iá»ĩm
ĠUkrain a
ĠGiá» ĳng
ĠSte ph
ĠX u
Ġk Wh
ĠS oo
ĠW eb
ĠM áº§m
chá» ĭ
200 4
ĠC Ã¡nh
os s
ug uay
ĠC á»ĳng
ĠSn ap
et te
ĠSte ve
» Į
á »Į
Ġ2 30
ak s
´ m
Ġcá» ĵng
BC K
' '
ĠTh ai
Ġ197 8
ĠD om
G iáº¿t
ĠSan chez
T op
Ġc ar
E VN
ĠPV C
t áº¡i
ĠSil va
ol y
Ġng Ã²i
ĠTh y
ĠE ng
Ġngh áº¹t
r ick
or y
á»į a
Ġch Ã¡nh
H z
ĠJ an
c c
ĠPet rolimex
ĠÄĳ áºŃy
ĠN ou
ĠNad al
ig er
ĠH TC
Ġx á»ĳp
Ġ197 4
há» ģ
ĠM Ãłu
O O
ĠW B
ĠPhá» ¥c
ĠS ub
ĠM Ã³n
ĠShin zo
Ġg Ã¡y
od o
Ġn ude
ĠVal ent
t ion
Ġn áº¿m
m in
Gi áº£m
v o
ĠR oll
m g
Ġb Äĥm
r in
S Ã¢n
Ġtr Ä©
Ġnh ang
âĢĿ :
ĠCat al
L áº¥y
ĠL exus
ĠMi G
ĠC ang
ĠWal es
v iet
ĠÄĲ áº§m
Ġ Æ°Æ¡m
áº ¬
eg a
ĠLav rov
T Æ°
et s
ĠkhÃ ©t
C G
Ġtu a
ĠS treet
d á»±
ĠD J
ĠA NH
orn ing
Ġv áº¡
C Ãº
r ay
Ġv Ã²m
ĠT Ã³c
lo ck
Ġtr Ã³t
Ġtr au
Ġch áº¡p
ĠK el
R E
pp er
V Ã¢n
ĠBr id
Ġvi sa
âĢĻ .
am b
ĠN ep
Tr áº£i
Ġng Ãł
Ġ6 50
ĠCh ang
ĠXi ao
id ane
m áº¹
Ġqu áº©n
Ġch áº±ng
ĠN issan
Ġchá» ĩ
gh ini
ĠSc ot
ĠPomp eo
Ġm áº«n
A h
ĠF erg
ĠmÃ´ tÃ´
v es
M V
bor ghini
uts al
um a
ĠÄĳá» Ŀ
Ġtr Å©ng
akar ta
ĠK id
ĠSer ie
L Æ°Æ¡ng
Ġn ung
V G
Ġ196 8
A pple
yd ney
H uyá»ģn
P hÃ¢n
w er
Ġ11 2
ĠKh áº£o
ĠGD ÄĲT
ĠPac ific
ĠJol ie
Ġnh Ã©t
Ġ10 7
im b
ĠRo ck
Ġtá»¥ i
ĠS áº§m
ĠX ÃŃ
ĠCap ital
b áº¥t
Ġ áº£m
B Ã¢y
t Ã¬nh
da fi
ĠJ am
ĠcÃµ i
TB KTSG
ĠJe an
Ã½ p
it ion
Ġkh inh
Ġ ur
ķ i
w alk
ĠCá» Ŀ
us on
ĠChá» ĳng
Ġkhu áº¥y
Ġnh Ãłn
Ġn áº¡t
ĠAnd r
ĠU P
ĠCá»¥ m
ĠMac ron
Ġtu Ã´ng
H ot
ĠVN ÄĲ
Ġ197 3
ĠD mit
t ic
s á»ĳng
Ġcarb on
W HO
T iÃªu
M Ã´
M Ã³n
ĠLe on
ĠPh Ã¡o
ĠTD TT
tr al
B T
ĠTo ur
Ġcá»§ i
Ġ11 6
d y
ÄĲ áº£ng
Tr Ãł
ĠD V
ĠR io
ĠS av
ĠN Ã¢ng
c Ã²
Ġx iáº¿c
ĠV Ãłi
Ġt est
I L
ĠVietin bank
Ġngh iá»ģn
Ġn ÃŃu
Ġs Ã´
Ġ' '
N Æ¡i
Thá» «a
ol as
ir l
ĠT Ã²ng
v ed
M ay
ashi on
ath er
Ġnh á»ķ
ĠH H
Ġf or
Ġt áº»
Ġth ung
Ch Ãłng
ĠB Ã¡nh
ĠD em
Ġn áº·c
ĠIbra him
ĠV CB
ĠÄĲ á»ĳc
Ġho ay
g á»įi
Ġnh ai
Ġth Ãł
R C
ĠG aza
Há» £p
ic on
t ÃŃnh
or i
ĠG ates
Q S
ĠC Ã¹
Ġt e
ĠB om
ĠVHTT DL
ĠM edia
ĠBl ue
ĠC IA
ĠS ur
ĠnÄĥ n
ĠW in
ĠP ers
ĠUr uguay
... )
Ġk iáº¿p
ĠNG UYá»ĦN
ĠH az
l Ãªn
Ġs h
Ġ10 4
ĠI D
Ġ3 20
r ad
ĠSan t
Ġch áº£nh
F i
Ġn iá»ĩu
ĠNg Ãłi
ĠK erry
ĠM Å©i
ĠTH X
ĠFeder er
ĠS abeco
U NG
Ġmá»ĵ m
Ġv ung
ro p
ĠX X
ĠU z
Ġf l
ĠMc C
ĠB QL
ER S
z y
ĠT ÃŃch
ĠÄĳ iáº¿u
ĠÄĲá» īnh
ig an
Ġg Äĥng
ĠCA Q
2 000
Ġs edan
ĠTr iáº¿t
ĠGad dafi
ĠVal encia
ĠEb ola
ÄĲá» ©ng
Äĳ á»Ļc
ĠM INH
N Ã³
Ġx á»Ļn
ĠT s
er to
ig u
ĠLu c
ĠCM ND
B iá»ĥu
Ch elsea
or a
Nh áº¡c
ch áº¿t
ĠÄĲT VN
te in
az z
Ġd áº±n
Ġy en
ĠAmer ica
B Ã¡nh
Ġd er
ĠA DN
ĠTech combank
ĠS Ã¢m
ott i
Ġtr Æ¡
m áº¥t
ĠJack son
E T
Ġgiá» ı
ro w
ĠV ill
Q aeda
ĠFerg uson
agh d
S P
ĠEn ter
¹ n
R Ãµ
ĠJ im
T U
TC P
Ġb l
ĠS ydney
ĠL Å©
O A
Ġ197 7
Ġ5 50
ĠEur opa
Ġkh Äĥng
Ġmáº¹ o
ĠPet ro
Ġng Ã³
el f
ĠChr is
onet sk
ÄĲ Æ°a
ĠTh áº¡c
c Ã¡ch
ĠÄĲ oan
Äĳ Ã³ng
ĠB á»Ńu
ĠGi Ãłu
Ġb áº©y
f l
ĠT ang
es l
!! !
» ĩnh
á »ĩnh
ai t
g g
ĠGi áº£ng
b Ãªn
ĠVAM C
ĠC D
amp ton
Ġl aser
Ġr es
ĠBu ff
% );
ev in
g as
ĠnhÃł m
ĠAr t
ch u
ĠP PP
ĠN Ãł
ĠGT GT
Ġg áº¯m
Gi ai
B á»ĳn
V á»ĳn
Ġst art
M al
lad esh
ĠQ ÄĲ
ĠD onetsk
ĠDel hi
d u
ĠFerr ari
E FA
ĠT Ãł
ĠK ang
ĠÃģ p
ĠHo me
ĠRa f
âĢĻ ,
ĠGi áº£m
Ġn ick
ÃĮ NH
B ao
ĠV Ãłnh
ĠVin alines
ĠM ap
Ġbu s
T uyá»ĥn
ĠV ai
ĠS á
ĠSá »
Ġp hÃ´ng
ĠScot land
ĠDj okovic
ĠNep al
BN V
ĠCN VC
ĠBr uss
ĠMob ile
ĠB inh
ĠhÃ ©c
way s
ĠQu áº§n
ĠTT HC
C am
Ġngá» «
Ġnh áº±n
nh Ã¢n
ĠbÆ°á»Ľ u
X Ã£
ĠH CB
Ġchá»ĩ ch
es se
on ia
R á»ĵi
ph Ã¡t
ors che
R e
ÄĲ áº¥t
Ġc áº¡o
ĠHo áº±ng
ĠLá» ĩnh
l Æ°á»£t
Ġ10 6
osh enko
U N
b u
SG GP
ĠchÃ ²i
ĠÄĲ áº¥u
ĠG ard
ĠK an
ĠH A
Ġc uá»ĳng
Ġch Ãł
ĠH áº¡m
ĠÄĳá» ±c
ĠMits ubishi
ĠF BI
Ġch Æ°á»Ľng
d in
ĠHo ld
ĠJ akarta
n ing
an on
tr Æ°á»Ľc
ĠF ar
g Ã¢y
? !
ĠÄĲ o
ĠÄĲá» ©ng
ĠC lip
ĠZ idane
Ãģ o
th uc
Ġngá» Ŀi
Ãª ng
ĠM orning
? "
Ġh áº¥t
HN M
Ġt áº£o
ĠxÃŃ u
A ss
b our
P M
Ġkáº½ m
Ġg á»Ļp
O M
bek istan
und er
ĠLu x
ĠN as
Ġs áº£o
ĠTr ans
ĠT iáº¿t
Ġcat walk
x x
ĠB ir
ĠÄĳ áº½
ĠCor p
ĠL Æ°
ÄĲ a
m s
ĠNh o
G áº·p
Ġl ike
Ġv o
ik h
Ġx iáº¿t
ĠBen z
ĠÄĲ Æ°Æ¡ng
Ch áº¯c
áº¤ N
ĠCh Ãłng
UY ÃĬN
tr á»«
Ġng Ã¡ch
Ġ10 9
Ġ17 5
p ol
ĠN ASA
b áº£o
ĠT Ãło
Ġm ark
Ġl e
thá» Ŀi
ur y
ĠP as
ĠAward s
ĠB P
K iÃªn
ob ile
ĠM Æ¡
ĠF ED
K á»·
le x
ak ia
ĠVII I
ThÃº y
eal th
Ġmic ro
Ġthá» «ng
is on
ĠW ang
ĠS SI
ĠK l
ĠS á»¯a
b an
ÄĤ N
ĠG Æ°Æ¡ng
ĠT Æ°á»£ng
Ġhorm one
ĠH ee
ĠAb u
Ġgiá» Ĺ
s an
ĠS aint
ĠF i
T ai
ĠLÄĲ BÄĲ
ĠX p
ĠBruss els
Ġs al
ĠLion el
Ġca fe
ik i
ĠE c
ĠT GÄĲ
ĠH i
ĠH inh
ĠÄĳ iá»ģm
ĠÄĳÃ´ la
ĠLam borghini
ĠD ream
ĠBang ladesh
ĠG áº·p
Ġ19 0
ĠK Ãªnh
ell er
ĠH K
ĠAg u
Ġch Ãłi
oy ce
Å ¨
Z ing
r et
oo th
ry st
ĠX Ã¡c
Giadinh Net
ĠP in
ĠU l
U á»ĳng
T iáº¿t
T uyáº¿n
T iáº¿ng
ChÃ ºc
ĠF al
19 45
ĠBus h
ĠP R
ĠAd am
ĠC PTPP
ĠSud an
ien thuc
P et
ĠEV FTA
ĠS y
S á»ĳng
ĠM áº¯t
tr on
Ġphá» ¥ng
Ng Æ°á»£c
ĠB ash
T á»Ń
ĠT ak
E X
ĠT áº§m
Ġl áº©u
Ġrá» Ĺng
a f
ourn al
ĠCh uyáº¿n
Ġg Ãło
th er
ĠTy pe
Ġr á»ĳn
Ġh acker
ĠchÃ³ i
b á»ĭ
k inh
D ÄĲ
at ra
Ġ Ã²a
N á»Ĺi
ĠD áº¡
>> >
cast le
ang e
ĠY u
V áº»
ĠT ae
ĠN ick
ĠTh oáº¡i
ĠP i
Æ¯á» ľ
ch ia
ist o
ĠL ÄĲTB
K áº»
ĠÄĲ áº¿
qu an
G C
x cÆ¡
Ġp en
ĠCá»© u
ĠR yan
Ġvá»ı n
ĠR en
Ġy áº¿m
Giá» ĳng
ĠAb b
V Ã¹ng
Phi lip
ĠE co
ĠThá»ĭ t
ĠJu an
v est
em an
ĠH CÄĲ
ay ne
ĠV AT
ĠNob el
ĠVN M
ĠCar ol
Ġlo ay
ĠB XH
Ġnh Ã³c
Ġn a
Ġph o
ĠÄĲ áº¹p
ĠUz bekistan
ĠVI P
ĠR og
ĠKy o
Ġg ram
Iá» Ĩ
Ġ11 4
ĠS uk
Ġr iáº¿t
ved ev
ĠI X
ĠThÃ ¬
ĠAnton io
ud io
ĠB ia
ĠG AS
ĠThÃ ©p
ĠDmit ry
eg raph
ĠC á»±
Vn Media
ĠS ri
Ġtá» Ľ
thá» ©
Ng uy
B M
ĠSl ov
d ay
C ap
ĠCor ona
Ġr en
Ġth iá»ģn
Ġ11 1
Ġac id
Ġ14 1
V Ãłi
ĠC el
ĠT e
ĠSw ift
ĠA K
H áº¡nh
Ar senal
ce pt
Ġs Ã¡n
Ġgi un
A V
Äĳ á»ĭa
ĠTh Æ°a
ĠD áº«u
ĠL Ã£
ĠH á»ķ
Ġl Ã¡n
ĠG ang
d ragon
k V
g eria
ĠR ap
Ġnh ung
ĠOp en
ĠG ab
ĠCan nes
Äĳ Æ¡n
on s
on t
c Æ°á»Ŀi
ber t
v in
Tr anh
ĠHaz ard
Ġ2 10
Ġtu Ã½p
I ran
D i
ĠbÃ¨ o
hi re
... ".
ÄĲ Ãło
Sam sung
Ġ12 3
r om
ĠC á»Ń
ĠKh Ã¡c
ĠL eb
ĠT ÄĲ
ĠR u
ĠQu een
ĠR ub
ĠR ai
V H
ĠÄĳá» į
Ġh uyá»ĩt
m á»Ĺi
ĠJe ff
ĠSer bia
áº³ m
ĠF uk
Ġ27 0
i Phone
ch áº¥t
Ġd á»Ļt
Ch uyá»ĥn
Ġnh ÃŃch
ĠM Ãłn
T Æ¯
ĠD ay
Ġm á»ĭt
ĠL as
it er
ĠL Ãªn
ĠThÃ ºc
Ass ad
ĠG iáº¿t
ĠF re
Ġ Æ¯u
K iá»ģu
Ġbá» ¥c
ĠS T
g hi
áº¦ N
con om
ĠValent ine
v Ãłng
Ġc á»Ļ
ĠMed vedev
ĠM ul
Ġch Ã¡t
ÄĲ Ã¡m
ĠÄĲ oáº¡n
Ġr Ã¹ng
Ġ |
ĠTo wer
ĠSC IC
Ġná» ī
ev er
d au
lo pp
ĠL ump
ĠA pp
ĠX H
T o
Ãµ ng
ĠRoll s
ĠS Ã³ng
Ġs hop
ĠB Ãª
ĠCharl es
ĠC av
B Ã£o
Ġr eo
Ġh iÃªn
on i
ĠVinac onex
B áº¿n
TV QH
Ġ11 7
Ġtr Ã¡
ĠBash ar
Ġ áº£
200 3
£ m
ww w
ĠG I
ĠZ ika
Ph áº£n
" -
Ġc om
ND ÄĲT
V Ãłng
ĠÄĲ áº©y
ok e
ĠY an
L ED
Ġ197 1
T áº¡o
com m
ĠRes ort
ĠSnap dragon
T Ã¹ng
Ġh áº¯t
I s
ĠSh ang
N Ã´ng
ĠCh ev
k hÃ³
200 1
h y
Qu Ã½
ÄĲ Ã¡p
Ġs áº·c
b á»ı
ĠhÃ ²ng
ĠH Q
Ġrá» £n
ĠC áº¡nh
ĠP en
M áº¡nh
ab eth
ĠTh uá»ĳc
Ġtr Æ°á»Ľng
Ġg á»įt
h t
ĠVina Phone
ĠCh oi
ĠUA V
ĠK á»ĭch
D S
Thá» ¥y
ĠGen eva
j u
E L
Ġb áº¹p
ĠG om
in et
Ġ up
ĠD á
ĠDá »
Ġc áº¥n
iá»ĥ ng
ryst al
Ġt Æ¡i
c Ã¢y
Ġs áº£nh
Ġm iáº¿u
ĠTr áº£ng
Ġb ai
Ġl on
akh stan
ĠD ia
ĠV ui
ĠA k
Ġ26 0
k á»ĥ
ĠB TS
Ġng á»ķn
áº¢ I
ĠL ew
ĠR ad
ĠSer gio
ĠTr áº£i
ĠB il
b á»Ļ
Ġtu á»Ļt
r áº¥t
am ine
ĠPh one
ĠÄĲ á»įc
Ġkho áº¯n
re ak
s áº½
Ġnh áº£
ĠÄĲ áº¥y
ĠbÆ°á»Ľ m
Ġsá» ¥c
ĠF ir
ĠP N
Ġ28 0
ja er
ĠSport s
ĠLump ur
AS S
Ã Ĳ
ĠBrid ge
ĠR y
ĠPhá» ĳi
áº¥ ng
ĠB ent
Ġng uyá»ģn
ĠH it
Äĳ á»ģ
1 20
" ;
CT news
K ienthuc
Æ°Æ¡ u
ĠO PEC
Ġhá» ĳc
Ġnho Ã¡ng
ĠJ ournal
Ġs Ãºp
Ġb e
B ay
Ġr Ã¬nh
S uá»ĳt
ĠU á»ĳng
ĠÄĲT DÄĲ
ÄĲS PL
ĠBL HS
Ġc uá»ĳc
ĠM Æ°a
Ġá» Ĳ
B áº§u
ĠT O
ĠT L
Ġcá»ĳ p
b áº£n
ĠL ar
ÃĢ O
Ġ15 5
ex press
Ġr Æ°ng
ĠU BCK
ĠV ik
Ġser ies
ĠSm ith
Ġr oi
ĠT áº¿
ĠKh Ã¡n
ĠL op
ĠC V
ing ton
ĠN ar
ĠPers ie
ĠK evin
Nh áº¯c
ĠU p
Co M
ĠG hi
Ġng Ã³i
S ing
ĠS áº¯p
ĠK ate
Ġgi áº¥m
G TVT
V Ãµ
ĠP orsche
Ġgiá» Ł
CT N
Ġch iÃªng
ĠAir ways
ĠC TV
Ġ12 6
Ġqu ÃŃ
PL X
ol og
ĠR áº¡ng
er es
ĠIn n
ĠAl geria
un a
Qu á»·
r or
l am
Ġr Æ°á»£t
Ġr Ã¡t
ĠE lec
ĠM Ã¡t
Ġl Ãºt
W B
T F
ĠNhÃ ¢m
ĠA y
% ...
NG UYá»ĦN
Ġh en
ĠRam os
Ġ11 8
M á»ĳi
ĠDis ney
ĠVir gin
ĠNghá» ģ
Ġ Ã¡t
Ġs um
H onda
U D
ur t
P S
A SEAN
g ov
rol et
Thá»ĭ t
ĠPh Ã¡i
ÄĲ á»įc
ĠY ahoo
ĠX Ãºc
Qu Ã¡n
ĠL ife
ĠKu ala
ĠAs ton
Ġng áº«m
ĠNhá» Ľ
Ġd Äĥm
g or
ĠCl ub
á»ĭ m
Ġc á»Ļm
sk jaer
Æ°á»Ľ n
Ġf ile
Æ°á»£ m
ĠIns ider
ĠI van
C hÃŃ
C an
Ġ196 9
ĠX Äĥng
v Ã¬
al em
ĠP hÃŃ
ĠL ove
Ġtr á»ĵ
or g
Äĳ ang
Ġ z
ĠV IC
Ġnhá» ĩn
Ġb en
ĠHo Ãłnh
elf ie
ĠB und
uck er
Äĳ iá»ģu
Ġ om
ĠM á»ĳi
ĠSt ore
Ġm Ãºi
H á»Ĺ
Philip p
ax i
Ġtr iá»ģn
ĠJ ang
ĠC ook
Ġfan page
19 75
ĠT TT
GD P
ĠM A
ĠX NK
Ġl ive
B erry
Ġph ai
ĠC áº¥m
S H
ĠU EFA
PL O
Ġmá» ĵng
ĠTh iá»ģu
Khá» ĳi
eb er
Ġbá»ĭ ch
ĠH il
ĠVN A
ĠL Ã¡
Ġmark eting
ĠT B
ĠMus ic
ĠSh e
Äĳ á»Ļi
ĠTel egraph
ĠL áºŃy
F I
ĠcÃ¡ u
Ġch áº¯t
Ġtá» §y
Ġo Ã¡n
ĠG un
c Æ¡n
ĠM T
ĠHuy nh
w ang
ĠW oo
abe u
ĠKh e
ill er
Ġje ans
ĠSt an
l as
ĠK ir
Ġt áº¯n
ah u
Thá» ķ
Ġ196 7
Ġm ix
ĠB at
Ġd áº«u
ĠTr Ã¹ng
et ooth
PhÃ ºc
ĠHarv ard
T áº¡m
ĠNg áº¡n
giá» ¯a
ĠNg Ã´n
ĠEl iz
il o
ĠY ing
as p
Ġth áº³m
h at
ĠBern abeu
ĠÄĲ áº£m
ĠB on
ĠNew castle
ob s
Ġx Ã³i
g y
Ġxá»ī n
Ġb áº§y
ĠK lopp
Ġk ali
ib o
ĠCá» «
c ent
D á»ĭp
N iá»ģm
ĠT áº¥m
iver se
v Ã¹ng
em ent
Ġthu n
Y Ãªn
Ġl iÃªm
ĠD Ä©nh
ĠhÃ ºc
ĠQu al
l oáº¡i
ĠGi Ã¢y
gar ia
ĠM en
Ġphá» Ľt
Ġy oga
ĠKho Ã¡ng
ĠthÃ³ c
Ġl áº¡ng
ĠM et
ĠT un
H iá»ĩu
Ã į
ĠNgh Ä©
B Ã³ng
est a
Bá» ı
ĠVn Express
ĠPal ace
Ġc as
og en
q uy
ĠY e
ĠB Ã©o
ĠT á»ĳc
ĠKh uáº¥t
âĢ¦ âĢĿ,
? .
ĠhÃ£ nh
al ty
ĠNg Æ°u
es la
Chu áº©n
c hÃ¢n
ÄĲ áº©y
IC A
ĠCB CS
Ġc au
Ġ12 1
Ġv on
Th Æ°a
ĠIn dex
Ġs áº£ng
ĠH Æ°á»Łng
C amp
Äĳ áº¥t
ĠÄĲH CÄĲ
ĠD á»ĩt
ĠG or
ĠCh áº¡p
ĠW an
d r
Ġr á»ĵ
ĠL otte
ĠMar y
Ġthá» ı
Ġth áº·ng
ĠmÃª nh
ĠD ar
Ġv Æ¡i
Ġbá»ĭ a
ĠNh áº¡
Ġtrá» Ĺi
B r
ĠS mart
ing roup
Ãģ p
ĠB Æ°á»Łi
j o
Ġn áº¡c
Ġn em
ĠPor oshenko
ĠR ay
l anh
1 30
Ġm áºŃn
AT GT
Ġngá»§ i
Thá» ĥ
ĠÄĲ Ã¡p
ph a
v á»ģ
ab i
c Äĥn
ĠLan ka
ĠSc ott
on line
ĠvÃŃ a
ĠAgu ero
F O
Ġt Ã²i
at us
ĠM Ã£i
ĠCon te
ĠWilliam s
Ġy á»ĥ
ĠCas tro
Ì ģ
ĠÄĳá»ĳ m
Ġ19 45
F acebook
ĠKaz akhstan
B ook
Ġqu e
ĠCA H
ucker berg
ĠG áº¡o
M essi
In donesia
Ġr áº±m
w in
xcÆ¡ va
Ġ12 2
ĠHá» Ĵ
ĠThu áº§n
R oyce
iv a
b áº±ng
Ġth Ã¡n
k áº»
Qu áº£n
ĠHá» ıi
qu Ãª
ĠD y
ĠTr á»£
ĠM S
Chá» £
Ġq uyá»ĩn
K hÃ
J I
in n
ĠcÃ ¹
ĠN ag
Ġe kip
ĠT á»Ļi
ĠH áº¯n
Ġv Å©ng
ĠLeb anon
te ch
ĠH iÃªn
Ġch at
che on
ĠB TV
Ġ20 50
ĠHol land
th o
g irl
Ġd ay
ist a
ĠUn iverse
ĠÄĲH QG
ĠRom ania
M Ãłu
Ġ á»ķi
ĠThá» Ń
cel and
Hu á»³nh
ir ates
ĠBenz ema
Ġsá» §a
ĠD Æ°á»Ŀng
ĠR au
ok o
Ġres ort
Äĳ Ã¡
if i
t á»ķ
T am
z z
thá» §
b áº¡n
ĠL um
ĠG Ãł
L iá»ĩu
ÄĲ Äĥng
á»Į C
c áº£
B Ã¹i
e f
Ch áº¿
V inh
ĠB h
Ġn Ã¡ch
ĠDo w
ia go
ĠKH CN
ĠV CCI
Ġláº» o
Ġd Ã£i
ĠH ÄĲT
ov ich
L Æ°á»£ng
ĠNhá»± t
ĠPh n
ĠFort un
Philipp ines
3 20
ĠRodrig uez
th Æ°Æ¡ng
ĠC it
ĠK hÃ³a
S áº¯p
ĠIP O
Äĳ áº¡t
ĠTh Ã¡m
ĠÄĲá» £t
ĠA j
C LB
ĠCh áº£i
s ul
eo p
L a
ÄĲ áº¯k
ĠE PA
thÃ ´n
av i
d iá»ħn
Ġch Æ°á»Ľc
ÄĲ á»Ļc
Viet NamNet
ĠChi c
ĠL Å©ng
Ġs elfie
ĠM is
S ang
ĠLat inh
ĠBlu es
u x
ĠNh áº±m
ÄĲ á»ķi
ĠTor res
ĠK enn
Ġ98 1
Ġr áºŃm
ĠCarl os
ĠR em
ĠF an
ĠCam eron
ĠG Ã¢y
Ġd ÃŃ
dau tu
ĠG PLX
at han
Ġx Ã¹
Ġm uá»ĳng
ĠCen ter
IM F
ĠJ ac
há» ĩ
b l
ĠWhi te
D Ãłn
ĠGard en
HN MO
ĠD en
L á»Ļ
ĠN Ãłng
Ġth iá»ģu
Qu á»¹
IV E
Ġ12 7
AD S
Ġlá» £p
ĠK n
ĠTr ip
Ġsá» ī
ĠBr it
ĠEliz abeth
Mal aysia
n Æ°á»Ľc
ĠCh en
ĠZ uckerberg
ĠF BNV
p lay
enn is
ĠR Äĥng
Ġg Äĥm
ĠC K
CM P
ĠXV II
c áºŃu
ĠG ran
ĠUB KT
B Ã¡n
ĠVin com
ĠW atch
ĠJo ong
ĠQual comm
ĠP ap
Ġm Ã¨
ĠCh iÃªu
V áºŃn
ĠIbrahim ovic
ĠhÃ ¹m
w agen
KV ÄĲ
Ġkho Ã©t
ĠCh Ã¡y
th iÃªn
ĠL Ã£i
ĠK pop
ĠTr á»Ł
ol o
ĠC z
Ġc áº±m
ĠTr áº§m
ª u
ba ch
Ġm Ãºc
ĠBul garia
Ġtr u
Äĳ áº¿n
r Ãºt
ĠIn c
o ff
Ġh an
© n
C á»Ļng
ĠF u
ai i
ĠN ational
C á»Ń
ap h
ĠP op
th ay
im a
Ġr Ã´
Ġs Ãł
ĠSV ÄĲ
Ġph Ã¡ch
N ATO
V Æ°á»£t
ĠG M
B iá»ĥn
ĠNor th
ic al
Ġnháº¹ n
ĠBro wn
ĠChá» įn
). -
iv ia
ĠHo us
ĠFrancis co
ĠkÃ¨ o
Ġváº¯c xin
Ġcas ino
Äĳ a
Sing apore
ĠA th
T I
ĠS ho
t áº¡m
ĠB aghd
ĠG ot
ĠHO ÃĢNG
ĠT ony
H uyá»ĩn
Ġn CoV
ĠtÃŃ t
ĠM and
M I
Ġqu ai
ĠSt am
ĠMar io
Ġnh á»ĳi
Ġs áº¡p
C á»Ńa
Ġv áº·n
ro om
any ahu
ĠKhÃ ºc
16 0
Ġ19 50
ĠV ingroup
ĠMon aco
T ang
ĠMap s
ĠSe ung
ĠM iÃªn
ĠO x
Ġn áº¥c
ĠN iá»ģm
TV S
t ar
ĠH áº¿t
Ġx Ãª
ch ip
Ġp op
? ?
ĠH á»Ļ
Ġnh Ãºng
ĠThÃ ´i
Ġng Ãºt
ĠS Æ¡
Ġw on
ks wagen
! "
ĠSol skjaer
áº ®
n Ã³i
Ġ3 30
us alem
eg as
ĠÄĲ Ã¡m
ĠBr ent
T ay
Th Æ°
ad or
ĠLad en
Ġn u
Ġbá»Ļ n
ÄĲ á»ĵ
Ġm etro
Ġt áº¥c
lu ck
Ì £
Ġk Ã¬nh
áº« ng
ĠCal isto
Ġ14 5
ĠM oy
ĠT Æ¡
C Æ¡n
ĠF er
P R
Ġm áº¥u
Ġs pa
k ing
ĠV ar
ĠA BC
ĠP ra
ĠF ul
Ġ12 4
ĠT esla
Ġg ym
ĠE C
Ġl Æ°Æ¡n
B u
Ġb ody
b iáº¿n
ĠNet anyahu
Ġ196 5
ĠC X
Re uters
f an
ĠkhÃ ¢m
Ġr Ãªu
Ġcá»« u
th ony
o ph
ĠC ur
Ġtá» ³
ai s
ĠCá» ı
ĠPhil ip
el lo
c áº§u
w ell
od e
ĠChic ago
Ġgá» Ŀ
Ġ __
Ġb Ã³i
ĠÄĳÃ£ ng
Ġvá»¥ ng
Ġch ao
Ġstart up
ĠCS HS
ĠTH á
ĠTHá »
Ġh áº±n
Ġch áº¯p
cel otti
N ew
ĠCz ech
ĠNN PTNT
ĠAngel ina
GÄĲ VN
Ġnh áº¥p
R áº¡ng
qu áº£
Ġ Æ°
Chá» įn
ĠRa j
L IVE
ĠChi Ãªm
ĠÄĲ KVÄĲ
ĠI celand
ĠCam ry
ĠCr u
Ġthá» Ľt
B l
ĠD ep
X P
olog y
e u
ĠK os
Ġ196 2
7 50
ĠM SN
ĠW ood
ĠJer usalem
k á»³
Ġtá» £n
ĠBlack Berry
H ano
M ang
ua dor
Ġ11 9
ĠÃģ ng
Ġv Ã£i
ĠLa z
ĠL áº¡ch
Tr iá»ĩu
ĠbÃ¹ a
ĠB oy
l ist
S ai
e ed
ĠN á»Ĺi
ĠB ob
ĠTim e
ĠEm irates
Ġc áº³ng
ĠÄĲ áº«y
is ion
ĠGi rl
at or
ĠM b
h ad
esl iga
q ui
Ġgi Äĥng
ow ski
gi ai
i y
ĠcÃ ²ng
Kh áº£
ĠH Ã¡t
ĠHen ry
D Æ°
ĠJack pot
ĠL Ãłnh
Th áº¯ng
Ġng a
ĠBa hr
Ġthá» ĩ
Ġs Ã¡
ster dam
Ġ16 5
L Ãłng
mar k
gi ao
d Ã¢n
f Ã©
G AP
C áº©m
o is
k en
ĠMir ror
Ġth uyÃªn
ĠKh Ã¡ng
ĠThÃ ´n
av el
ĠSteph en
ĠPan ama
Ġv est
ĠSec ret
iz LIVE
Ġ196 4
Ġt anh
Ġ13 2
Ġd áº¥n
L áº¡i
Ġ196 6
yl v
ĠNic olas
ĠDO JI
ĠChá» ©c
ĠSev illa
Ġs Ã¡o
ĠCA P
ĠdÃ¬ u
ost i
ĠH or
b oy
Tr uy
ĠRoy al
Tr á»±c
t hÃ´ng
ĠN á»ķi
ÄĲ Ãłm
er bai
ĠSan ta
ĠM ass
F ast
ĠJet star
ĠY oo
ĠS Ãª
ĠR IA
ĠkhÃ³ m
Iáº¾ N
Ġ36 5
" :
áºł NH
ĠEr ic
nam e
Ġp ro
Ġs á»Ļ
ĠthÃ ©t
S M
Ġd áº«m
ĠYing luck
H D
ĠBlu etooth
c Å©ng
B ÃŃch
T imes
r áºŃp
» Ĩ
á »Ĩ
ĠN oo
Ġ195 4
Hano inet
q uá»ĳc
L iverpool
M áº¥t
Ġnhá»Ŀ n
c hÃŃnh
d ro
m á»Ł
ĠTh uyáº¿t
ĠKel ly
Th áº§n
ĠMeg a
ĠMas an
i j
B inh
iv o
áº¢ O
ĠP enn
Ġl iÃªu
c á»©
Ġc Äĥm
ĠA NT
Ġnh Ä©
ĠK am
ĠH TV
ĠChev rolet
Qu áºŃn
CA TP
aul t
k ei
ĠÄĲ Ãª
ĠStam ford
ĠAn n
Ġtrá»£ n
Ġv áº¿
ĠH ir
ĠHaw aii
ĠG on
ĠKh iáº¿t
ĠÃ Ĭ
erbai jan
ĠA B
ĠB G
M a
Ġs á»įc
app y
Æ¯á»ľ NG
ĠSte ven
ĠHD Bank
Äĳá» ©ng
ĠGen er
ut ter
at er
ĠM Ã¨o
Nh u
V ua
Ġc l
tain ment
m es
x Ãª
ĠSal ah
ĠN áº±m
ia g
H T
Ġ13 8
há» £p
ĠB Ã¹
¨ C
ĠkÃ¨ n
Ġg á»ĵng
Ġc áº·n
ĠMur ray
ĠOlymp ia
ĠSouth ampton
Ġg ames
J et
Ġb oy
Ġbl ue
ĠThu áºŃt
ĠB á»Ļi
T oy
ĠP itt
Ġvá»¥ t
V Æ°Æ¡ng
C I
ÃĻ NG
Ġngo Ã£n
ĠHan oi
R au
O R
HN X
Ġdá» ım
ĠBor is
ĠC ong
ĠD ev
qu Ã¡
ĠBahr ain
A ng
ĠNap oli
ed y
ĠLá» Ľp
ĠTr Ã¡nh
Nhá» Ľ
H á»¯u
Ġs áº§m
ĠTH ANH
L áºŃp
Ġp oly
ĠG Ã³i
Ġb Ã¹i
ĠH áº¡n
ĠS ap
... "
ĠHo use
ĠR over
L á»«a
Ġbá» Ŀi
ĠM áºŃt
ĠT KV
ĠBund esliga
Ġm ar
ĠLad y
Ġc over
ĠMat t
Ġt á»Ļt
Ġm g
ĠV A
ĠM á»ĭch
ĠChá» ©
N a
re gas
Ġm Ã¡ch
ĠAn celotti
v Æ°á»£t
ĠT erry
ĠF ashion
Ġph Æ°á»£ng
ĠM á»Ŀi
ĠHS BC
Ġ @
id i
w are
Ġlives tream
Ġ22 5
Ġ38 9
Ġd ong
ent al
c r
D á»±a
Ch Ã¡y
ĠHo t
ĠAndr ew
D áº¥u
ĠC rystal
Ġh áº¥n
Ġm ui
id el
t Ã´ng
ĠÄĳ ong
ĠV ig
ĠEx c
ĠBi eber
ĠT ab
Ġhá» ħ
Nh iá»ĩm
T AND
ĠEnter tainment
T ok
ĠV es
Ġgá» Ľm
ĠA DB
ĠT uyá»ĩt
th Æ°á»Ŀng
Ġtrai ler
ĠCh e
F ed
ĠT áº£
ÃŃ a
ĠL amp
Ġá» ī
Ġ7 37
Ġchá»ī n
Ġs áº£
Ġng áº©n
et han
ĠO ff
ang nam
ĠEc uador
re al
ĠTh áºŃp
Ġg Æ°á»£ng
ĠDe f
t iáº¿p
it ar
l ight
k av
Ġ Ã¬
f or
ĠT er
ĠCh Ãłm
ĠH ÃĢ
ua t
Ã ĵ
Ġc ent
ĠGiá» ¯
Ġtr Ã³c
Ġche ck
men ia
ĠlÃ¬ a
ĠhÃ² m
ĠXiao mi
chá» ĵng
Ġs il
Ġy ou
ng uá»ĵn
âĢĿ. /.
ĠR onald
op e
Ġb áºŃy
ĠB y
ĠA VG
ar th
Ġ13 4
Ġqu áºŃy
M TTQ
ĠTN CS
Ġm Æ°á»Ľn
Ġkh ay
Ġmá» Ľ
ĠGi áº½
Ġnhu áº§n
ĠXp eria
Ġm Æ°á»Ľt
R I
ĠÂ »
ĠM á»ħ
han i
Kho áº£nh
ly n
Th uá»ĳc
Ġl áº«m
B NN
M iá»ģn
ĠSt and
ĠX inh
ĠL Ã´i
ash ford
ÄĲ á»ĭnh
ĠC y
ch Æ¡i
Ġxo Äĥn
ĠUP CoM
Ġpen alty
Ġnh Å©
Ãģ nh
ĠÄĲ Ã³ng
Ġgá» ī
Ġg áº¯p
m un
B o
ng h
Ġtr áº§y
ĠGe un
ĠB á»ĵng
ĠL áº¯c
ĠlÃŃ u
B áº¡ch
ĠV EC
ĠSen kaku
ye ong
ÄĲ inh
ĠP au
ĠN AM
ĠK ane
Ġqu Äĥng
A E
ar is
Ġd áº³ng
oll ah
ĠLu kaku
ĠThá» īnh
K L
Toy ota
ĠÄĲ áº¡m
ĠHolland e
ĠhÃ ¢n
Ġg o
ĠN á»ģn
ĠZ en
ĠX S
Ġp iano
ĠNg oan
ĠAm sterdam
ff e
ĠPe nh
Ġr Ã´n
ĠJ ay
ĠM á»ı
M ong
ĠAn thony
ur es
Ġs Ã¹i
I t
v Ãło
Ġr Æ¡
4 50
Ġ196 3
i ra
ĠMoy es
Ġb Ã¡i
as a
ĠchÃ ´m
ĠVit amin
Ġl Ã©p
d uc
CO P
Ġ áº
há»ģ nh
Ġnh áº½
E V
ar en
b ack
b á»ĩnh
Tr á»Ŀi
ĠMat a
D R
? ",
Ġt eo
Ġáº¢ NH
ĠVi os
ÃĤ M
TT S
ĠGal a
ĠL CD
ĠP ed
ÄĲ Ã³ng
h en
ĠJ ess
ĠVN CB
Ġgi áº§y
au t
ĠNV CC
Ġx ui
ÄĲ áº·ng
ĠEx press
Ġkhuy nh
ĠWe ek
ĠP es
Ġng Ã¹ng
ĠV id
ĠÄĳá»Ļ n
ĠOcean Bank
Ġp lay
l at
CL OS
ĠLHP N
Ġphá» ĵn
h áº¡
ĠAut o
ĠTel e
t ay
z e
Ġáº¤ t
K á»¹
b ook
ob e
ĠCharl ie
Iá» Ģ
ĠR ain
ĠCP H
Ġnhá»Ľ t
Ġng uÃ´i
g iáº¿t
Ġxo ang
s in
ĠBaghd ad
ĠDe ir
th a
ĠB ak
ĠL ive
c an
Ġs Ã²
ĠT ao
á»¥ y
Ġm áº©u
ÄĲá» £t
H P
ĠIn vest
D áº«n
ĠGi áº£
I B
ĠS ay
Ġm Ãło
Ġx Ã²e
ĠIn cheon
te ur
l Ã´
T inh
ĠFran co
as ter
ĠÄĲ K
Ġch áº§n
ĠAz erbaijan
ĠD ragon
c Ã¡
Ġvi ew
ĠJ obs
vi ew
ĠÄĲ áº·t
. )
ĠLop ez
ĠC ard
ĠA TVS
C áº£i
E E
Ġs á»¯ng
ĠPhn om
ĠCen tral
Ġk n
ĠAr menia
Giá» įng
S T
Ġngá» £p
ĠBrun o
ut e
Ġo ff
ĠCNVC LÄĲ
ĠUn ivers
O NG
ĠtÃº m
I CTnews
Ġh Äĥm
Ġph áº¥t
Ġb iáº¿ng
âĢ¦ ).
ID EO
ĠNguy en
j ect
s y
ĠMad uro
Ġph iá»ĩn
Ġo anh
ĠL ight
ĠO t
ĠÄĲ Ã¡n
ĠS anh
Ng á»ĵi
T áº¥m
iz e
ad ing
ĠTT XH
G oogle
s p
ĠÄĳÃ ¹ng
ot elli
ĠB Ãłu
Ġtr áº§u
ĠVP Bank
ĠC á»ĵn
M y
ĠCH QS
ĠW ayne
ĠP ot
ĠSw an
ĠÄĲ á»ķng
Ng áº¯m
ĠA st
ĠD C
ng er
ĠS ter
ĠR S
Ġc Æ°á»¡i
S p
lá» Ľp
A ustralia
ĠGold en
phÃ ²ng
Ġ ;
ĠVol kswagen
» Ľ
á »Ľ
ath on
ĠBV TV
ĠV egas
C ad
il d
ĠKh Ã¡
Ġhá» Łi
ĠJ ane
em y
Ġr Ã¢m
f ia
ĠP A
Ġta b
ĠV ÄĤN
ĠL ock
ĠN ev
ĠAr sen
in ch
th áº¿
Ġtr á»įc
n o
ph áº§n
us se
b om
ĠT áº¡ng
tr i
ag an
ĠkÃ© n
N á»ķi
Ġ #
ĠNov osti
Ġ Ã³i
Ġx Ã³c
n ia
b ul
ir us
Ġm o
âĢ ĺ
ĠCo ca
w ich
s ao
Ġk iá»ĥng
ĠK CB
Ġv áº£y
ĠGom ez
in c
ĠL ab
ĠLum ia
Ġra pper
ĠEuro zone
ĠI T
ĠI v
Ġs áº£i
od a
ĠA p
ĠÃĶ n
X u
Ġtr Ãłm
ĠTH ADS
c á»±u
ot os
ĠHold ings
man uel
B á»¯a
Ġtr uáº¥t
s áº£n
Ġnh Ã¡c
ir i
Ph a
ĠQL DA
ĠÄĲ au
Ġso lo
Ġs i
Kh Ã¡n
ĠFab regas
ĠhÃ º
ou gh
L am
ĠL áº¡nh
ĠF ood
ĠC I
» ī
á »ī
A Bank
P lus
TT H
n Æ¡i
Ġká»ģ nh
Ġ12 9
Iá» Ĥ
Ġl im
ĠMos ul
B GD
ĠM á»Ļng
E l
P od
C Ãłng
Ġs Ã³i
ĠÄ ©
ĠH um
H AG
t Ã¢m
ushi ma
Ġb áº¥p
' ),
chá» ĳng
v ua
Ġvá»ĩ t
ĠTim or
Q U
ĠphÃ ¨n
ĠAn na
ap an
ĠTá» ī
ĠRaf ael
d s
ĠRob erto
ĠC L
C TCK
Ġchá» ķi
Â ²
ĠT Ãºc
ĠNik kei
Ġl Ã¹n
Gi ang
Q P
Ġc omp
ĠPas teur
ĠF r
pe arl
b ar
hÃ³ i
ad ona
ĠSn ow
V FF
Ġ3 70
ĠHar ris
ĠSer ies
Le e
t Ãłi
ĠT ik
ĠMart ial
Ġc áº±n
ĠHar t
Ġder by
Ġn oi
ĠCh ar
ĠL ind
ul a
M art
ĠGar eth
ĠMich el
H Æ°ng
ÃĢ I
ĠLa w
ĠK ai
ui z
tr ick
ĠX ung
s Ã¡ng
Ġn áº¯n
Chá» ĳng
ĠE TF
t á»ĳ
§ i
ĠK ore
Ġh at
ĠÄĳá» Ĺi
Ġcá»Ń u
200 2
ĠF il
ĠC le
Ġ8 50
ĠC áº©n
ĠC our
ri que
Ġs áº£y
ie z
ch uyÃªn
ĠCN LÄĲ
in son
ĠM Ã¡c
ĠL es
Ġ is
Ġtráº» o
ĠPer ez
S er
Ġt áº±m
Ġst atus
ĠP re
Ġhá»Ŀ n
ĠKid s
Ġcá»© a
Ġ áº¯p
ut hi
Ġh anh
ĠChrist ian
Thá» ıa
st ock
H áº±ng
ain e
Ġchá» Ļi
b á»ĳ
ĠT oshi
ĠAbd ul
Ġng Ã³t
P ost
ĠKen ya
ng oÃłi
Camp uchia
ĠMar vel
Ġn Ã´i
ow n
k áº¿t
ĠChan el
ik o
ĠH im
d d
Ġr Ãª
h tt
Ġh Å©
ĠVirgin ia
Ġvá» ¯a
Ġv Ã²
ĠW ave
it i
ÄĲ au
NS Æ¯T
n á»ķi
Ġt Ã¬
ĠEd ward
ing ham
ĠhÃ ª
ĠH áº¡ng
Phá» ĳ
kh Ã¡ch
NE WS
Ġ13 6
M INH
c Æ°á»Ľp
Ġnh am
ĠHu go
Ġr Ãłnh
tr Æ°á»Ŀng
Ġ7 20
enn a
s er
V ND
ĠMoham med
ĠC áº¥n
V ai
ĠF ull
ien co
Giá» ¯
L Ã¡
ĠR et
Ġv áº¡t
ull ah
Ġng á»Ńi
ĠR ol
G Ã¢y
Ġx y
ĠH T
tr ung
G Æ°Æ¡ng
ĠEr ik
ĠTele com
ĠK um
th áº§y
Ġnh Ã´
Äĳ áº¡o
ĠLamp ard
ĠMus k
ar ma
A sia
r ent
b ay
Ġnh Ã¡y
F DI
Ġv Ã£ng
V A
ĠR ashford
Ã Ĵ
... âĢĿ
Â °
D onald
ĠD ol
f er
ĠS CMP
ĠCol or
w ork
t im
ĠbÃ¨ n
as aki
¬ a
Ch Ãło
is ia
HÄĲ XX
ĠBr ight
ĠCN BC
Ġb lock
ĠEm manuel
Ġ13 1
SD ÄĲ
Ġnh Ã²a
ĠBá» ı
qu Ã¡i
ĠG CN
ic t
NS ND
ĠphÃ ¬nh
ĠBV ÄĲK
Ph Ã¡o
ĠK N
ĠBos ton
ank a
ĠAnd y
ĠF idel
ĠLu Ã´ng
ĠRom e
ĠMoham ed
L T
th am
ĠAmer ican
Ġbá» £
q a
Ġs Ãłm
Ġv ali
Ġb uá»ĳt
ĠThÃ ¢m
ph iÃªn
Ġc áº¡p
Ġh áº«ng
ĠH PG
± a
ĠÄĲ Ã¨o
ĠS TB
Ġ13 9
Ġt Ã©p
Ġthá» ıi
up e
c ert
ĠY eon
ĠDi am
Tr Ã¬nh
Ġ13 3
ĠHÄĲT V
ua tin
x a
ĠcÃµ ng
Ġv áº§y
Ġchá» Ľ
ĠS k
Ġm Ah
ĠH ass
ĠS uy
j amin
os ite
Ġ9 99
ers burg
D M
ĠS Ã¹ng
Ġd áº»
es us
A ir
oid uatin
T hÃ¢n
co p
ĠB ai
ĠStand ard
Äĳ Ãło
ĠVÄĲ QG
ĠKhá» ķng
C Ã¡nh
ĠH uyáº¿t
ĠBr ook
ĠÃĲ áº£ng
eres a
b ox
ĠKh al
ĠTr ai
z h
ĠKh an
ho a
ib e
ĠV á
G M
ĠMich elle
ĠAr ena
ĠVá »
T Ãº
Ġm Ã³
ĠB C
om o
TP P
Ġr Ãºng
ĠInn ova
as ka
ĠT Ã¡i
ĠGP S
ĠBS T
ĠIs land
c l
Ġ14 6
ĠS XH
Ġthá» ım
ch im
Ngh Ä©a
ĠTech n
Q uyá»ģn
t ai
ĠC Æ¡n
Em ail
ĠC ab
ĠÄĲ S
ĠP CTN
ĠTo uch
ĠT i
Ġv áº§n
w ar
ĠX oÃłi
ĠGi an
o und
b en
ÄĲá» Ŀi
A m
w ait
ĠFran ce
Ġm Æ°á»Ľp
ĠF ri
ĠSa f
Ġn om
ĠH ab
lo ud
s Äĥn
Ġgames how
ĠMo z
Ġx uyáº¿n
H iá»ĥu
ĠL B
Ġr áº§u
Ġnh Ã¡o
ĠCai ro
ĠGeor gia
L Ã¢u
au x
ĠCar ter
c u
ĠNg á»ĵi
d ong
Há» ıi
ĠA BS
ĠNh an
áºł I
ĠB B
ĠM áº¥t
ĠD ig
Ġs Ãłi
ĠhÃ£ n
ĠBal i
R A
Ġch áº¥u
Ġhá»ķ i
r Ã´
Cad n
âĢĿ !
ĠE un
áºµ m
Ġ it
g u
ĠH igh
ĠCarol ina
ĠNg á»±
L D
ĠK ey
bo ard
S Æ°
I G
Ġ16 7
ĠS Ãłn
ĠHam as
Ġáº¤ y
G V
ng Ã´i
ĠT áº¯c
o ol
ĠP ier
ĠG Ã¡i
ĠFortun er
t ing
t ÃŃn
ĠY as
ĠF ut
C Æ°á»Ľp
ĠV Æ°Æ¡n
ĠD áº¥u
B izLIVE
V Æ°á»Ŀn
Ġ? ?
U n
ĠBr om
6 50
Ġ14 4
ĠvÃ© n
ĠB amb
ĠZh ang
ĠTh uyá»ģn
ĠR on
ĠDo ji
n Ã©m
Kho a
viet nam
S u
Ġn Ã¡u
d Æ°á»Ľi
ĠT ar
Nh áº¥n
ĠF ire
ĠV Æ°á»£t
ĠD áº£i
g mail
Ġf ol
ĠBal tic
ĠQU AN
ĠD S
Ġur ani
ĠCam era
BH XH
ĠL Ã¡t
all ad
i or
ill s
ĠD al
nh Æ°ng
Ġs tyle
ĠL Æ°á»Ľi
ĠPh ill
ĠJose ph
Ã³ e
ĠCo ut
B ra
Ġvá» «ng
Ġhá» ¥i
ĠCh anh
D av
ĠH at
ĠSh er
ÄĲ iá»ĥn
Ġng á»ĳc
under land
ĠD T
ĠhÃ ¨n
ĠT U
ĠT áº£o
ĠGi l
Ġx á»ĩ
t Ã´i
ĠFuk ushima
Ġnhá» īnh
ian e
ĠSlov akia
ĠTo wn
r at
ĠVin pearl
qu ang
et ta
u oiduatin
t om
Ġg áº¡
ĠF el
ĠDaily mail
Ġb áº§n
ou d
ĠS ea
F S
ĠX á»©
Ġcá» ¯u
ĠO m
H áº¿t
ĠHá» ·
ĠAb ram
ethan ol
ĠG az
Ġl Ãªnh
ĠcÃł phÃª
Ġ3 40
ĠVin as
N Ãłng
ĠS iu
iez mann
T Æ°á»Ľng
G á»Ńi
ĠD á»±a
s á»ĳc
C Äĥng
Ġnh á»į
ĠG aga
ap ixel
ĠAn t
k Wh
Ġn it
ĠJo on
Ġngh Ä©nh
L Ã£i
ĠMan uel
Ġph Æ°á»£t
ĠBen jamin
brid ge
ĠWe ibo
ĠTr á»ĵng
D iá»ĩn
at in
Ġm eg
ĠB kav
ĠC iv
ĠP ay
ng hi
ĠT áº§ng
Ġ18 5
st em
M Ã£
v á»ĳn
stan bul
ĠS or
ap pe
Ġg l
U krain
ĠR Ãło
ĠCar r
1 40
C EO
ĠS ab
Ġ196 1
L Å©
Ġm Ä©
S á»¯a
ĠPN J
B Ã£i
es tr
ĠMar cel
Ġf utsal
Ġl Äĥm
Ġdu á»ĩ
ĠKe angnam
Ġh Æ°Æ¡u
ĠOs aka
Ġph ui
t inh
ÄĲ áº·t
Ġnhu á»ĩ
L G
Ġm ag
ĠT ASS
EU T
oh n
! ?
ĠQÄĲ ND
Ġ3 80
m Ã¡y
... ).
ĠH C
ĠG as
ĠN á»¥
Ġ195 9
ĠK ab
col ate
ĠF red
ĠT em
T Q
t á»·
ĠMin zy
m on
c á»ĳ
ĠMon t
f ood
c am
ĠBal otelli
ylv ania
Thá» Ń
Ġn áº»o
ĠR á»«ng
HAG L
Ġ4 80
Ġcon cept
ĠK aw
tr eo
CS GT
ĠH uyÃªn
Äĳ Ã´
ĠNg á»Ļ
ĠK iá»ĥu
Ġdá»¥ m
Ġ14 2
ut a
Tr áº¡m
ĠTh aco
ĠKCN A
TH ANH
EUT ERS
ĠR ou
Ġkn ock
Ġsá»Ń ng
ĠAsh ley
ĠBol ero
ĠAd r
c ia
Ġ195 8
ĠS us
b ang
Ġc hÃ´ng
G al
ĠJu ve
Ġ13 7
s Ã¢n
Ġd r
áº¢ N
ĠSim on
ĠH ealth
ĠB á»¯a
ĠL iu
h iá»ĩp
th anh
at ti
ĠM Ã¹
nh Ã³m
D áº§u
ĠM Ã¢u
ĠL td
H A
ĠO h
ĠS á»£
ĠD á»«a
B á»ķ
r ot
ĠhÃ ©o
Tr á»¥
ĠK ard
ĠMar adona
Ġ15 2
ĠO ut
ĠT Ãły
Ġ4 20
g Ãł
HO SE
ĠA IDS
Ġngá» Ľt
B iáº¿n
ĠI R
Ġx á»ĭn
Ġl uyáº¿n
Ġb itcoin
ĠLen ovo
S áº¯c
ĠI stanbul
kh ai
ĠDiam ond
ĠL IÃĬN
am ex
ĠPed ro
Ġhu á»³nh
ty list
âĢ¦ âĢ¦
H Ã¹ng
ĠÃ´ xy
ing er
Ġtá» µ
ĠV Ãłm
Ġ oi
Äĳ á»Ļng
ich i
B L
Ġl Ãµm
Ġn Ã¡m
ĠDV D
âĢ¦ ;
" ?
ĠTh uáº¥n
ĠTr Ã¡ng
Ãģ NH
ĠKia tis
Ġt áºŃu
ĠCu Ã´ng
ĠSant os
P K
Ġm l
Äĳá»ģ u
Ġb Æ°ng
ĠO le
ĠY ok
ĠF e
Ġhy dro
ĠU V
thi op
ĠF ur
low een
ĠE X
ĠTh iá»ģn
Äĳ Ãłn
V IDEO
ĠT ed
ine a
ĠR EUTERS
ĠViet GAP
s ay
yl on
V KS
ĠPH Æ¯ÆłNG
cá»© u
l áº¥y
ĠKu wait
Ġr Ã¬a
i i
L Ãªn
ĠB á»ķ
Ġth iáº¿p
C X
ĠAlex is
el o
ĠHÄĲ BA
t our
ĠLÅ© y
ĠKho Ã¡i
Ġtiáº¿ u
á»¥ i
LV T
d an
ĠG ood
Ġm ake
ĠLy on
H iá»ģn
or th
d g
Ġb á»Ł
b ie
do anh
s ov
ĠYo on
ĠK er
ĠRang er
Ġvá» Ľ
Y áº¿n
h ar
ĠV áº»
X ung
Nh áºŃp
ĠVik tor
c áº¯t
Ġsá» ĩt
s Ã¡t
ĠV ÃĢO
áº¾ T
ĠBá» īnh
D iá»ĩu
ĠRodrig o
Ġc ard
ĠNg Ãłn
Ġfl ash
Ġm ÃŃch
ĠA qu
ĠQU ANG
Ġcho Ãłng
Ġch an
ĠKh áº©u
ĠG ame
Ġ14 3
ĠL Ã²ng
Ġk V
T IN
v ille
ĠMay a
Ġm áº§u
Ġd iÃªm
ĠLe g
² m
K Ã½
ng oáº¡i
ĠTun isia
ĠB iáº¿n
ĠcÃ ¢m
Ġhtt ps
Ġnh áº¥c
um in
ĠW ol
Ġr Æ°á»Ŀm
C uá»ĳn
n el
Äĳ oÃłn
Ġá»Ĳ c
x Ã¢y
Ġ16 8
ĠHo tel
ĠB aby
et z
ĠSh aw
Tr Ã²
há»Ļ p
D áº«u
ĠD á»¥c
c p
ĠTr Ã¡c
ĠL á»įc
Ch áº¡y
ĠKenn edy
ÄĲ an
1 000
Ġc Ãłn
Ġmá»į ng
Ġng Ã¡y
ĠN ak
Cl ass
C TCP
C áº¥p
T Ã¡o
us sia
x uáº¥t
ĠTh ung
12 5
Ġ áº£i
ĠVI á»Ĩ
om a
Ġ áº¯c
Ġmá» Ńa
ĠCÄĲ CS
ĠL is
ĠM ao
Ġ25 6
au ty
Ġhá» Ŀi
ez b
Ġ29 0
ĠR C
Ġch áº§u
aw i
1 10
ĠSl am
tr y
Ġyá»ĥ m
ĠSom alia
Ġ20 23
ĠP G
© m
um i
ĠMor gan
Ġkh áº½
ĠHo uthi
ĠQu Ãª
Ġng áº¡o
ĠH UY
Ġbá»ģ nh
s ylvania
Ġd Æ°á»£ng
Ġrock et
Ġn áº·n
Ġká» ģn
ĠTN XP
ĠE ti
ia t
Ġlog ic
ĠG all
ĠL il
ĠK P
Ġchá» ĵn
Ġra p
ĠKy odo
ien ce
VP CP
ĠB ec
ĠI N
V CCI
Ġg ao
ĠV a
ĠTT ATGT
Ġn Ãºp
p ing
ĠT iger
ĠK it
ÄĲ Ã³n
ĠR un
ab le
re en
chÃ ºng
ĠTh Ã¡o
ĠNg á»¥y
Dav id
ĠL ig
ĠMod i
Ġ16 2
Ġl á»ĳt
ĠB un
th iáº¿u
T Æ°á»Łng
ĠO COP
ph áº£n
Ġbu á»ĵm
Ġá» ¥
ĠMa ch
nh áº¥t
Ġl ink
C ung
ĠR Æ°á»£u
ĠK TS
k hÃ
Ġchá» «
Ġ14 7
b Ã£o
ĠLÄĲLÄĲ VN
S a
ĠT ill
Ġkh áº¥n
ĠTal ent
P VN
ĠLá» ©c
ĠH ad
Viet tel
ĠL eo
Ġl á»ĳ
ĠĠ Ġ
Ġn áº¥p
19 98
Äĳ á»ķ
ĠY oshi
ĠL ÃĬ
Ġn ao
Ġvá» ±a
ĠPh áº£n
ĠE thiop
ĠExc iter
B NEWS
b ÃŃ
ĠMal i
ho i
ezb ollah
ĠPet ersburg
ĠJ oo
M os
on so
ĠC oo
Ġ15 6
ĠGu inea
u an
x em
Ġhá» Ńng
Ukrain e
H áº¡t
ÄĲ V
ĠW olf
ĠNG á»ĮC
ĠHass an
F an
ĠNhá»± a
Ġ Æł
ĠAr áºŃp
ĠÄĲ V
ĠHit ler
Ġv Ãªnh
ĠN A
c á»Ńa
ĠGab ri
t áºŃp
ro g
ĠUB TÆ¯
ĠA ki
ĠGr iezmann
Ġv Ãºt
Ġphá»ĳ t
» ©t
á »©t
ĠPenn sylvania
QÄĲ ND
ĠKh ung
Is rael
Ġh un
ĠG am
ch Ã¡y
Ġhot girl
ĠAn field
U ÃĤN
ĠMin sk
th an
CP I
ĠJess ica
ĠH Ã´n
ĠO LED
az er
t Æ¡
ĠHá»į a
ĠK ro
ĠChá» Ŀ
Ġgá»Ŀ m
5 50
ĠÄĳ áº¥ng
CA O
ĠBent ley
Ġs Ã¹ng
io us
v Ã©
Ġc ast
ĠT G
y ad
Ġthá» ī
ĠK om
s á»ĳt
ĠM á»Ļ
Nh an
x á»Ń
Lá» Ľp
ĠS ib
» £i
á »£i
Ġláº» n
th ong
Th áº¡ch
Äĳ iÃªn
we et
M G
ar s
Há»į a
Ġr Ã¬
ox in
tin o
ĠPh áº«u
ĠVI B
ĠCh áº¡y
ĠHal loween
ĠN Ãło
hi s
n áº±m
ĠH av
ĠS ul
Ġn á»įc
Ġ15 8
N á»ģn
L HQ
v á»«a
Phá» ĳi
ĠAI PA
Th áº¥t
ħ u
ĠL ag
ĠC ore
ĠVin Fast
ĠI C
M K
S O
ĠV e
ĠMB H
ĠBH TN
ĠCol e
ch iÃªu
Ġnhá» ¡
ĠS underland
ĠBol ton
ĠAlex and
T uyáº¿t
Ġl áº¡y
ĠMas ter
Ġnick name
ĠLá» Ĺ
ĠBl ade
Ġd áº·t
ĠMac au
b á»ĳc
c ott
ĠB it
ĠM ak
ear ch
ĠSt oke
Tu á»ĩ
ĠTh eresa
ill as
ĠC es
B i
Ġtrá» ĩt
Ġg ene
ch ain
ĠZ imb
ĠCo un
d Ã¹
ĠkhÃŃ t
ĠO zil
ĠS ad
ĠSter ling
H Ã³a
ĠPes kov
z i
ĠTo day
... ;
ĠIS O
ĠHous ton
Nghá» ģ
h oÃłn
ĠSp ace
ÃĢ NH
ĠJ r
tr áº£
m ir
Ġng Æ°á»Łng
ĠEd ition
c er
ĠGon z
ĠS K
ĠL isa
Ġk iá»ĩu
u th
m á»©c
Ġx á»Ľi
ĠSec ur
ĠPh arma
b it
Qu áº§n
utter stock
ĠEti had
Ġte am
ĠR ose
m as
ĠChrist oph
B YT
ĠM anh
al le
TH PT
ĠR ica
Ġkáº» o
t Ã¡c
ard y
V Ã´
ĠSap a
l á»Ļt
anc ial
v Äĥn
ĠBr and
M Ã¢y
Ġph oto
ĠR an
Ġca fÃ©
! âĢĿ,
ĠLu Ã´n
ĠMb appe
Ġm á»ĭ
Ġr Ã´ng
ec tor
Ġb Ãłnh
es e
ĠW ik
i esta
ĠÄĳÃ ¹m
ĠD er
Ġ16 3
ĠKard ashi
Ġg á»Łi
Ġ áº¯t
ĠUB TVQH
Ġ Ã©o
Ġbá» §a
ĠN y
ĠT áº¡m
Kh áº£o
ĠSh ah
Ġl uá»ĳng
l áº¡
ĠN uÃ´i
V TV
Ġr ich
ĠPV F
IC O
Kho áº£n
bour ne
tr ol
at s
ĠD Å©
ch áº·t
v iá»ĩc
Ġná» ĩ
ĠAj ax
L ao
ĠW el
Æ ¯ng
ĠH ezbollah
19 95
ĠS ah
Ġbá» ¡
Ġ15 3
ph Ã¡
Äĳ en
ĠS á»©
Ġ15 7
ĠMar ie
Ġs uyá»ħn
á»Ĳ C
Ġnh Ãµm
Gi áº£
Ġph Ãło
c áº¥p
Ġb y
ĠK L
18 0
Lo áº¡t
ĠK un
ab we
Ġnh áº£m
ĠChi m
ĠP Ã´n
Ġ or
end er
ĠN u
0 50
ĠFranco is
ĠG ol
ĠEx p
ĠNh áºŃp
ĠM ig
ĠK itco
hi r
ĠPat rick
Ġgu itar
áºł M
C ar
Ġp ixel
chá» £
Ġm áºŃu
ĠM um
-------- --------
ĠC ienco
Ġd Æ¡i
Ġ17 4
ĠB Ã£o
Ġh on
el y
S port
Ġb on
Ġcá»ĳ m
ĠCatal an
ph ong
m ade
oll agen
ĠCl au
Bra zil
âĢĿ )
f urt
ĠÄĳá»Ŀ m
ĠB á»Ļt
ĠXH CN
b Ã¡o
b all
Ġgiá» Ŀi
ĠLy n
Ġr áº§y
Ġ Ã´i
ĠCS CÄĲ
ĠÄĲá» ©a
ĠB iá»ĩt
Æ¡ ng
ĠCon n
19 99
t hÃŃ
ĠTrip oli
ĠCh Ãło
Ġch Æ°
Ġd el
ĠD TTS
ĠBas el
Ġtu á»ĵng
Ġt Ã£
Ġtrá» Ľ
B IDV
Ġt Ã³t
ĠC ad
Ġqu Ã¡ng
ĠTr Æ°a
Ġh áº»o
ĠTill erson
T ÃŃn
Ãļ C
Ġng Æ°á»£ng
ĠTr uyá»ĩn
q qa
Ġ enz
ac tor
". /.
N á»¥
Ġng áº©m
lá» £i
ĠGi ro
Ġm Ãºt
ĠMod ric
Ġ17 1
ĠNh iáº¿p
ĠR ah
ĠTay y
A s
l Æ°á»£c
tin ental
id d
nh iá»ģu
R P
ĠD iá»ĩc
ĠFernand o
r ist
ĠV el
Ì Ģ
Ġn ano
ĠH áº¡c
v is
ĠÄĳ iáº¿c
8 50
ĠRich ter
Ġ14 8
ĠCN C
T á»ĳt
Ġ9 50
ĠMark eting
ai ly
b Ã³ng
ĠG ary
Ġb áº·m
Ġm iáº¿n
da q
Ġd Ã¡t
ĠPr ess
ĠH anh
ĠbÃŃ t
Ġ á»ĳi
ÄĲ áº£o
ĠD á»ĭ
or o
ur s
L áº¡ng
ei ra
ĠG olf
ĠR aul
ĠGi Ã¡c
mo on
A A
Ġ14 9
ĠP ence
ĠRog er
ĠTN MT
ĠÄ ĥ
ĠJ apan
tr á»¥
ĠAl b
ĠK yr
M ourinho
Ġg r
ĠTAND TC
ĠMcC ain
Ġ Ã³ng
Ġbá»ī m
s á»©c
ĠAndre a
Ġl áº³ng
ĠcÃ³ p
S Ã´ng
S Ãłi
ĠD á»ĭp
Ġngh iáº¿n
v ia
ĠPort o
ĠLuc as
Ġlo ang
c ord
ĠTr Ã²
ĠdÃ¹ i
T Ã¹y
ĠAh mad
l ic
y s
ĠB á»įn
j in
th áº£
uy a
ĠD un
Ġn Ãł
Gal axy
T G
Äĳ á»Ļ
ĠCam bridge
T áº¡p
ĠTÄĲ C
Ġx Ã©n
Ġtab let
ĠO mar
ĠZ ar
ĠChá» īnh
s ang
ĠB ook
ĠVn express
ĠUS A
Ġsu Ã´ng
ĠSnow den
ĠD K
hi o
bao dautu
l ia
Ġ9 11
Ġg Ã¡n
Can ada
ĠTayy ip
Ġr ub
S L
ĠPh o
iz za
Ġt uá»Ļc
ĠKardashi an
en o
ĠCr uz
Ġ ad
1 01
á»§ i
ĠN M
Ġ5 70
ĠD ra
Cá»© u
Ġb Ã´
R S
Ļ ng
ĠK em
ĠGr am
ĠI mp
han a
ĠK TT
ĠC C
Ġtho i
gg s
Ġ amin
ĠM Ã¡i
M Ã¡i
eng ers
ĠGiro ud
ĠSar ah
e im
ĠSt ock
Ġn ylon
Ġtu á»ĵn
D T
ĠMac Book
C á»ķng
ĠJ ur
ĠZ el
Ġn et
ĠL og
HO ÃĢNG
m ond
ĠS ak
P r
ch ar
ĠC opa
z en
ur as
ĠPhill ip
Bar ca
ĠZimb abwe
). /.
Ġbo ong
ĠN Æ°Æ¡ng
ond er
T Æ°á»Ŀng
ĠWar ren
ĠB ell
ĠSerg ey
R ob
g et
ĠTV B
T a
ĠGi o
ĠShang hai
B O
D V
en se
ĠÄĲ ak
SE P
Tr á»Ļm
W orld
Ġlá» ıi
Chá» ĳt
ĠC Ã¡m
l ong
Ch Ã¡nh
ĠVIá»Ĩ T
A d
ĠNas daq
Ġb áº¿t
n d
ĠMich igan
l Äĥng
ĠB est
ĠTh áº»
ÃĢ N
it ez
ĠMÃ¡t xcÆ¡va
ĠS MS
ĠMi ami
Ġfan s
ĠSwan sea
Ġc ollagen
ĠD z
ĠH on
k ins
ĠL oÃłi
ĠR O
nh iá»ĩm
ĠB ad
Ġnh Ãºn
d ep
Ġn áºŃu
Ġmeg apixel
M á»Ļc
M áº¡ng
ĠCh iá»ģng
ĠNhu á»ĩ
v á»¥
H áº¡n
Ġl á»ĭm
ĠXV I
and owski
ĠGi ggs
ĠCiv ic
ul t
Ġb ol
ĠBol ivia
ĠOcean bank
ĠS at
ĠD eb
ĠC uá»ĳn
E uro
ch enko
b ass
ch ung
ĠIn iesta
P ro
ĠElec tron
ĠJ ag
ĠCT G
19 97
ĠG ai
ĠAl an
ÄĲ áº£m
ĠB ez
ĠMan ag
Ġs anh
ĠT á»įa
ĠR Ã¹a
ad y
Ġtrá»¥ y
ĠWhi t
ĠD áº«n
ĠT Ãłng
Ġn ÃŃn
Nh áº¥t
ĠDN NV
Ġp oster
Ġh e
T Ã³c
ĠT itan
m áº·t
ĠK or
ĠO d
ev ez
ĠL ing
Ġdá» Ĺi
estr ogen
t iÃªu
ĠV og
Ġ !!!
uk ov
it ime
Ġh ec
ĠAl bum
A L
« m
ĠJohn ny
t iá»ĥu
Ġhá»Ļ t
ĠKhÃ ¢m
ĠM á»Ĺ
Ġf orm
ant s
ĠW EF
ĠNT D
ĠM ik
Äĳ Ãªm
ĠL Äĥk
S Ã¡ch
B iá»ĩt
ĠD M
Ġ uyÃªn
ĠL á»ĳi
ĠS hop
b Ãłi
ut t
ĠS ark
ĠtÃŃ a
Ġkh a
Ġmá» īa
ĠB á»ĵn
ĠHai ti
ĠEn rique
ĠDNNV V
Tr á»ĭnh
ĠL LVT
eop le
ĠTr avel
Lu Ã´n
ĠQ G
Ġngá» £m
Ġt al
ĠB uk
Ġr á»ĭch
ĠRa qqa
ĠViet Jet
X T
w i
Ġ Æ¯
ĠE PC
ĠtrÄ© u
Ãµ a
W TO
v iáº¿t
ĠÄĳÃ³ a
Ġcast ing
BC T
Ng uoiduatin
ĠAr m
Ġ195 7
Ġch Ä©a
Ġ2 12
Ġr ÃŃt
ĠchÃŃ t
ĠCol um
c áº·p
Ġr Ã¨m
s et
ĠB CÄĲ
Ġdi va
ĠPau lo
L y
ĠBamb oo
Ġom ega
Ġgi áº«m
Ġ15 9
ĠFrank furt
ĠF utsal
» ²
á »²
B B
al s
ĠK ol
ĠArsen e
oz y
Ġro om
ĠPro ject
ĠX M
ĠTh uyÃªn
ĠN Ã©n
ĠJav a
Ġ !
ĠKr ist
ĠCh Ãł
ĠCav ani
Ġqu áº¹t
ĠBR T
ĠW om
ĠRo ad
ĠL uiz
v Å©
Kh áº¯c
gi Ã¢y
ĠF B
ĠT TCP
s c
ĠMat tis
ĠC Æ°á»Ľp
o e
ar ab
ĠD ell
ĠM end
ĠCh iáº¿t
ĠEthiop ia
Ġshow room
ess a
ĠGener al
Ph áº¡t
CO M
x anh
ĠTT VN
el ine
ĠD Ãłn
ĠcÃ ºt
ĠTr ust
r it
ĠÄĳo Ã¡i
ĠKhá» ıe
ĠEm ail
AM A
Ġ3 10
b áºŃt
L áº¡m
ĠL á»Ĺi
Ġsá» ¥n
20 22
ĠSG GP
D OC
ĠÄĲ á»ĵi
ĠBec amex
ĠPar ag
ĠphÃ¹ n
ck er
b áº§u
c á»¥
ĠN BC
ĠO hio
Ġlá» ĵi
Ġchá» Ļ
ĠG R
Ġng áº§u
D r
ĠPhan tom
2 20
ĠchÃ³ c
Ġch Ãły
s ide
ĠMi u
if one
Ġ17 6
ĠM áº¿n
al and
ĠÄĲ Ã¢u
ĠLeon ardo
esse nger
Ġcho colate
Ġhá» īnh
ĠLu k
ĠFin ancial
U AE
Ġnh áº¿ch
Ġng áº£i
J ohn
L á»ĩ
1 35
Ġto Ã¡i
Gi áº¥y
ĠPT NT
ĠK KT
Ġ15 1
d anh
________ ________
Ġ16 1
ĠH Ã£n
ĠÄĳÃ ºt
Ġb iáº¿m
Ġnh Ã¡
Ġgá» ıi
pp ing
ĠD iana
C Æ°
tr áºŃn
Ġngá» Ľ
v Ã²ng
ĠBur n
Ġnh eo
ĠK ÄĲT
ah n
ĠphÃŃ ch
ho u
ĠI U
EC D
Tr Ã¡nh
ĠDom in
p u
ĠG á»Ĺ
M iss
ĠPh iáº¿u
ĠCas illas
ĠK DC
ķ n
ĠN ight
Ġh Ãłu
ĠTC ty
Ġtr Ã¡o
ĠnghÃ ©n
ĠEver est
ĠC áº¯t
Tr ail
us ta
19 54
won do
Ġhy brid
ĠTik Tok
Ġd ance
.... ....
ĠkhÃ³ e
ĠSel ena
aw k
ĠWar s
ĠbÃŃ ch
l ac
ĠV oi
ĠD h
K Ãªnh
ĠX D
c Ãº
AF P
č Ċ
Ġvá» ĵng
Ġs áº¥m
Ġqu áº·c
ĠMot ors
B e
c áº§m
ĠMel bourne
ĠDo an
Ġax ÃŃt
Ġ15 4
at ri
V I
ĠChr ome
t á»ĳi
' ?
att an
ĠH ap
ĠSo ft
rot imes
ĠK ath
Ġr i
Ġv áº¯n
ĠÄĲ áº¡
kho e
Ġn á»±c
ĠTM ÄĲT
ĠBen itez
ĠÄĲ uá»ĳng
Ġ7 77
ĠTh ong
at ed
ĠB I
CN V
ĠC CB
iz ona
ĠH áº¡o
f orm
ĠBG K
ĠColor ado
ent e
D Æ°á»Ŀng
ĠP ixel
C ty
SE M
chÃ º
ia h
ĠR uss
er i
ra k
ĠTh Ã¡c
ĠSing h
s á»ķ
ĠC ech
ĠMeg han
ĠC DC
Ġhi u
Ġt Ã¡p
ĠÄĲ ÃŃnh
ĠAM G
et ts
Ġsáº «m
ng uy
ĠhÃ³ m
pr om
ĠVP CP
ĠV L
ĠHill s
K iá»ĥu
ĠI BM
ch uyá»ĥn
ÄĲB QH
imb le
ĠhÃŃ ch
T ech
c Ã¢u
ĠS kr
ĠP ir
l en
Ġtrá»¥ i
Ġl Ã¡c
ĠNh anh
d á»ĭch
Ġ195 6
ĠH ag
ond uras
ĠMid u
H ar
ĠD OC
ĠX L
ĠDav is
lo ad
ina w
ĠTP Bank
Ġ4 60
ac y
Ġo ai
ĠBS R
h ye
S Ã³c
Ġ3 000
ĠL P
th uá»ĳc
M ic
ĠR ic
ĠCh in
err ard
at ions
T Ã¡i
ĠSh utterstock
Ġl iu
ĠAl f
G Ãł
f ish
h áº¡ng
ĠCru ise
ĠB all
ĠB Ã²
Bá» ī
ĠVes pa
Ġch áº¡nh
Ġch uá»ĳt
ĠL ink
ĠTr uy
ĠÄĳ áº±m
th Ã¡nh
p in
Ġhec ta
Ġphá» Ļng
ĠAl aska
Æł N
ĠĠ ĠĠ
Ġ um
ĠE conom
Qu ay
ĠB ung
at on
ug h
ĠCout inho
h ol
ĠE zz
Ġnh áº§y
ĠXI X
Ġ18 9
phi c
Ġ uyá»ĥn
g Ã¡i
3 21
ĠÄĲ Ã¡c
ĠSy stem
Ġ Æ¯ng
Ġ17 8
ĠCon s
uz ia
ĠNg uyá»ĩn
19 93
ĠBV H
ch iá»ģu
c ini
ĠAr izona
ĠU s
ĠBlo ck
c ci
Ġin sul
ĠN Ã´
J u
K ÃŃnh
ĠP M
igu ain
ab ad
ĠLim ited
ĠNg ang
az e
c áº§n
ĠSp r
l av
imble don
ĠHu gh
Ġs ing
ĠC er
un t
ĠchÃ ¢y
á»ģ nh
M Ã´i
ĠthÃ ºng
ĠPh áº¡t
ÃĤ m
Ġ20 2
han na
ros s
ĠTh ang
ĠT Æ°Æ¡i
ĠNa j
ĠMat th
Ġb eta
ĠM ini
Ġb áº£
Ġ as
G Ã£
ĠTN CN
Ġv áº©y
H ung
Äĳ áº·t
ĠTr u
To Ã¡n
ĠthÃ³ t
Ġr Ã´m
ND N
Th o
ch ai
I R
Ġtr Ã²ng
N Äĥng
ĠNh iÃªu
Ġra dio
ip an
Ġnhá» «
Ġnh Ãºt
S te
ĠI A
t Æ°
Äĳ Ã¢y
ĠOff ice
ĠM á»«ng
l ai
Tr áº¥n
ĠB ud
ĠJ esus
G Ã³p
ĠPi que
ĠBe ach
Ng Æ°
Ġw ifi
Ġrich ter
Ph Ã¡
ĠSark ozy
u er
Ġlo an
ĠAh med
ĠMass ach
N áº¯ng
ĠUB MTTQ
V iáº¿t
ĠQ Ng
M er
ĠJ ason
Ġcá» ıi
ĠJenn er
TT O
T á»Ļi
tr á»ĭ
ĠÄĳ Ãły
3 60
b at
gy z
ĠVinas un
» Ķ
Äĳá» £t
á »Ķ
Ġch áº¡c
ĠBez os
S yria
ĠT evez
Ġsáº ©
ĠI L
R EA
Ġ áº¯ng
Ġnh áº£nh
g n
ĠBuff ett
» ©a
á »©a
Ġsáº© y
Ġo áº£i
Ġ4 30
v ai
Ġinsul in
w en
ĠK yl
ĠO man
ĠX uyáº¿n
e et
ĠTÃº y
Ġná» ¡
hÃ³ ng
ĠC áº¡n
ĠCá»§ a
F ED
ĠD Æ°á»¡ng
Ġl áº£
ĠY a
B Äĥng
anc y
ia s
ain i
Ġl Æ°
ĠS O
Äĳ á»ķi
ÃĤ U
t Ã¡i
Ġng Ã¡o
Ġk il
ĠC áº¡p
Ġ Ã¹a
ĠT CC
Ġsh ort
Ġx Ãºi
op ol
Ġsá» Ľi
at ex
Ġ17 2
ĠKh Ã¡t
ĠKy ung
ek wondo
ĠW id
eo t
ar io
ĠS B
ĠN áº¯ng
ear s
ĠSh inaw
on o
Nh a
L oÃłi
ton ia
ĠN hÃŃ
Ġ19 2
U y
ĠG á»įi
Ġ á»ĳt
ĠH onduras
ĠMar co
Ġs Ãº
ĠJun ior
Ġláº½ o
ĠGD CK
ren ce
ĠTTT M
Ġd Ã¬m
ĠN ÄĲ
ĠVN E
ĠN est
Cam era
ĠKT NN
ĠR ud
er m
ChÃ ¹a
ĠNghÃ ©
Ġlu á»ĵn
ch ui
ĠR ex
D Å©ng
ĠAbb ott
19 96
ĠEd en
ĠBr uy
ĠPC TT
ĠTh áºŃn
Ġ3 90
ĠW imbledon
2 80
ĠGu am
Kh ung
ĠD á»¥
v et
âĢ¦ ),
ĠÄĲ Ã©c
ĠC Ã¡p
ĠJ osh
M o
ĠG Ã£
Ġ21 5
ĠShinaw atra
Ġn Æ¡
c á»±c
ÄĤ NG
and y
o T
ĠM essenger
ĠIs a
Ġ19 00
c Å©
Ġma z
ĠP ad
ĠK BNN
Ġ op
T uyá»ĩt
Ġn iu
M i
ĠL or
ĠANT ÄĲ
ĠKore a
¦ A
ĠHS G
n ar
ĠN á»£
áº¾ N
ech en
tr uyá»ģn
* )
Ġthá»¥ t
Ġr uá»ĳc
ather ine
ĠCh av
ph ia
el son
ThÃŃ ch
ĠSm all
ĠS oh
re e
ĠCan on
Ch Äĥm
Ġx á»Ł
D Ä©
Ġkhi Ãªng
ĠP elle
um ber
C DC
gyz stan
Ġ â
ine z
Ġs am
ĠT as
ĠH ama
Ġblog ger
t Ã¹y
Ġr áº¡
3 80
Ġn áº»
19 94
Ġtá»ĭ nh
T áºŃn
Ġg el
th áº£m
ĠOx ford
Ġv áº¹o
n á»Ļi
ĠRi yad
ĠBH L
ĠCá» ¦A
ĠP S
Ġl áº±n
k ong
Ġch ang
ĠPh Ã¡
ĠB á»ĵi
ĠMob ifone
c in
ĠNh áºŃm
ĠG od
ĠAv iv
ĠPC I
á»¥ t
phÃ ¹
ol la
S c
R T
G Ã³c
Ġkhá» īnh
ĠLew andowski
er ty
ĠF O
hÃ ¬nh
14 1
ĠGu cci
ĠB ey
A g
n á»ķ
ĠO ppo
Ġ au
ĠD im
ĠCh uá»ĳi
Ġth áº£y
Ġ20 5
Ġxá» ı
ĠL Ãłn
q uyá»ģn
Kh áº³ng
ĠK ilo
2 40
ĠB eng
ĠS him
G o
ĠUl tra
CB M
uk e
S Æ¡
l iÃªn
Ġrá» ¥c
Ġ16 4
gi Ã¡o
l ish
ĠMassach us
ĠchÃ ¹i
ĠKh am
ĠP ul
ĠGi Ãºp
ĠK iá»ĩn
ush u
Ġng Ã¡c
G Hz
ĠBruy ne
Ġ24 5
do ch
Ġm Ãºn
p ho
ĠV ision
ĠTr á»ĳng
ĠX á»ķ
ĠNH M
Äĳ á»ĵ
19 0
ĺ I
Ġrá» £
ĠNg á»įn
ĠL uyáº¿n
Ġt áº§u
ĠH Ã²e
ĠchÃ ²m
17 0
ĠAl ves
ĠN ao
ĠR M
din and
l ant
ĠCatal onia
Æ°á»Ľ u
Ġw ith
11 5
ĠRob in
c y
ĠAs us
l Ãºc
Ġv Ã¡t
ĠP K
ĠT iáº¿c
D áº¡
n b
ĠGr uzia
m u
ĠT axi
m Ã³n
ĠcÆ¡ i
ĠD Æ°a
en v
ĠWil son
he ed
ĠB O
BGD ÄĲT
Ġ5 20
ĠS und
ĠG at
ĠLÄĲTB XH
D F
ĠMal l
ĠV áº£i
ĠÃ į
on to
ĠCh ap
acom in
ĠB ID
ri ot
ĠE arth
ĠAl pha
ĠPrem ium
G L
ĠH U
ĠM es
L aren
V ui
ĠP ow
ĠSal v
Ġt ennis
T áº¥n
m Ã´n
ce p
lo yd
ĠSav ills
l ao
2 60
ĠTT ÄĲT
q uÃ¢n
ĠL áº¡m
ĠTh S
ĠSa ch
. (
ÄĲ áºŃu
ĠE CB
ĠAt t
d ÃŃnh
In ter
ĠTr áº¡ng
al es
ĠH áº¢I
p i
ĠX áº¿p
Ġc áºŃt
Ġ19 30
ĠW ell
ĠMarcel o
ĠFal cao
ĠMu eller
ĠG E
ĠRou hani
Ġv ÃŃt
ĠQ R
ĠC Ã¢n
phá» ¥
Ġgi Ã£i
há» Ļi
' )
bour g
rog ba
Th áº©m
Ġho m
ĠG errard
ĠG Hz
Ġ id
am bi
se ille
ĠMotor ola
ĠG ul
ĠFl ash
Chá» ¯a
I F
ĠV R
ĠPer ry
Ġba ht
ĠX avi
N á»Ĺ
Ġ18 1
h áºŃu
M ich
t Ãłu
Ġkh áº¿
ĠTh Æ°á»Ľc
... âĢĿ,
Ġb Ã©t
Ho áº·c
Ġ16 6
Ġbol ero
D G
att le
ĠH ae
ĠM ikh
Ġb Ãºi
Ġv Ã¡nh
ĠBl anc
3 40
R o
in am
ad er
Å¨ NG
T Ã´n
Ġb reak
Ġx iÃªu
ĠNG UYÃĬN
ĠD uyá»ĩt
ĠÄĲ iá»ĥu
ent ial
ĠMark et
ĠAth ens
ĠAsia d
f o
ĠÄĲ á»ĭch
ĠS ara
3 30
giá» ¯
Ġ19 55
ĠChristoph er
ĠJ or
ĠH ur
ĠR um
Gi Ãºp
ood y
ĠSand ers
ĠPr inc
is o
D iá»ħm
em b
ĠV J
ĠÄĳ Ã¡t
u ar
ĠRos s
Ġ18 3
r as
Bu Ã´n
ĠTr ay
ast ian
ĠN áº¯m
ot on
conom y
au s
ho use
C ola
ĠGabri el
Ġng áºŃy
ĠEd ge
ĠF ast
ĠC CH
ev el
l Ã¡
ĠB iá»ĩn
Ġ5 000
ĠMan cini
ĠMor ris
ĠLig ue
ĠDi or
Ġ195 3
ĠH iguain
ĠI gor
Ġ20 24
Tr Ã¢n
ĠElectron ics
ĠGo al
ĠM ol
ĠA G
th Æ°á»£ng
Ġt áº¥y
ĠBr ian
ĠP ao
ĠAl onso
Ġhá» ±c
ah awk
Ġch uá»ĵn
O n
ĠX Ã¡t
m Ã¹a
ep end
il i
ĠATVS TP
ra h
ĠT Iáº¾
z er
Ġnu á»Ļt
ĠÄĳ ay
ĠH err
ĠTh iá»ĩp
9 50
end ra
Ġ á»ĳ
ĠKab ul
ĠRe port
ĠD áº¡y
ĠCh er
Ġbá»ĳ t
chu áº©n
ĠN CT
K TT
v al
o us
p hÃŃa
ĠV iÃªm
ip edia
BÄĲ S
m Ãł
Cá»¥ m
ĠB ond
Ġs áº§n
ĠP el
ĠÃ ī
G Ã³i
om es
L áº¡c
ĠSch ool
Ġ estrogen
om et
y ong
ĠHá»Ĵ I
ĠKyr gyzstan
p him
ĠM oto
ĠCh eng
C áºŃp
Ġb Ã¡ng
N á»£
ĠMassachus etts
ĠCh Æ¡n
ĠD ur
Ġnh á»įt
X áº¿p
Ġl Ã³ng
Ġg Ã¹
Ġhá» Ľt
ĠT A
Ng á»įn
s or
ĠK op
ĠV as
ĠMoham mad
G u
ude au
n an
Ġkh Ã¡u
ĠK arl
Z en
ĠInd ia
ĠM iller
rid ge
ĠGram my
C Æ°á»Ŀng
ĠDo ug
ĠCB RE
ĠDo wn
b Ãłn
Æ°Æ¡ c
ĠJon athan
ĠÄĳ iá»ĥu
ĠChá» ¯a
con i
im er
ĠInd ustr
ĠKho ai
Viet in
ĠR á»Ńa
uk a
ĠGra echen
Bar celona
Bl ack
Ġc áº¡y
Ġl áº¥m
m ang
Bay ern
ĠB re
Ġsal ad
ar in
ĠL áº½
otos hop
Ch am
N C
Ġ18 8
âĢĻ ),
ĠÃį ch
ĠG hana
ĠF ans
ĠB et
Ġl Ãµng
m et
ĠH as
HÄĲ ND
L ÃĬ
Ġm áº¡t
ĠC Ã²
ĠL ov
ĠN in
ar on
d á»ħ
Ġca ffe
Ngh Ä©
ĠDá» ¥ng
f ace
á»Ł m
ap ova
Ġgiá» ħu
ĠSo chi
Äĳ iá»ĩn
ĠTh iá»ĩt
ĠTh iago
ĠMart inez
ĠParag uay
ĠTHA AD
t iáº¿ng
ĠC ay
ĠWal ker
ĠKiatis ak
ĠJ en
ĠCh am
ÄĲ á»ĳng
aks in
ĠPhilipp e
ĠCl ass
ĠAr ch
ĠSer ena
ĠTho Ã¡t
Gi áº¥c
ĠN á»Ĺ
B ang
Ġ17 3
ĠInd epend
ĠM em
NhÃ £
ĠSer v
ĠC á»Ļt
20 26
ĠK V
ĠS á»Ńa
ie g
ĠH á»ĳ
Ch Æ¡i
c áº¥m
Ġ16 9
ĠDon bass
ĠTH U
) âĢĿ.
ĠTo ure
ĠHo ms
lac era
ÄĲ CÄĲ
ĠUnivers ity
ĠTr udeau
ĠT Ã´m
ĠD L
ĠFer dinand
ĠAnd erson
ĠKH ÃĶNG
i el
ĠGar cia
Ġgiáº¿ m
ĠW iki
al an
ĠC yr
ĠZ alo
ĠIsa ac
be ck
qu Ã½
Ġs áº¡m
ĠTr á»«
is er
Tr ump
in da
p lus
ĠPr ay
Ġxu Ã½t
ĠPat riot
Ġv áº±n
Ġs tylist
ĠM n
ĠÄĲ á»ķ
ĠK ÃŃch
ĠBus an
¡ n
ĠC II
ĠQu ÃŃ
ĠComp osite
Viet combank
C áº£ng
ĠÄĳ áº£n
ĠMar itime
Ġl em
ĠH áº¯c
t á»Ń
Ġ19 46
Ġ at
P etro
ĠEs tonia
Ġ5 40
ĠA L
ĠRem ix
c es
ĠP eople
K A
Ġn ai
Ġt itan
ĠCar lo
ĠL INH
c ap
ĠSD F
ĠP ass
ĠI phone
ell aini
Ġl Ã¬nh
s burg
ew ay
ina wa
ĠW hat
t áº¥t
ĠEU R
Ġáº ¨n
ug eot
ĠO S
Kh uyáº¿n
ĠBu g
ĠN ut
ĠV iÃªng
ĠSam son
ĠAn a
ch em
ĠB LÄĲ
Ġg anh
ĠSu ga
Ġ5 60
tr ang
ĠM ug
ie u
ĠTR áº¦N
ar n
ĠSal man
ĠChan nel
ak ov
ĠLau rent
Ġgi en
am an
ĠLat in
ĠNav ibank
ThÃ ´i
ĠAbd ullah
ĠG ho
ĠK w
ernand ez
ĠPet r
l eo
id as
ĠV SA
Ġngá» ¥t
ĠV Å¨
al ke
19 88
áº¬ T
gr ini
K á»ĭch
ra phic
ĠM XH
ĠÄĲ Ã¨n
ĠG áº¡c
c t
is co
ĠK as
ĠRom an
Ġá» ·
ĠÄĳ Ã¡u
An d
ĠPep e
ĠRang e
ng á»ĵi
ĠL TE
/ -
Ġh ack
ĠJam ie
Tr Ãºc
ag awa
L á»±a
AD B
ĠB lin
ĠRe g
Äĳ á»ĳt
ĠSp a
ĠB ab
98 1
Ġng Ã¹n
Äĳ Ã¡ng
Ġd iáº¿t
ĠN O
+ ,
N áº¯m
ĠFul ham
s hire
20 30
h áº¿t
ĠN á»Ńa
ĠX o
ĠTh aksin
Ġ18 6
ĠW u
ĠBo x
ĠRes earch
9 90
ĠSt one
Ġtest oster
F ord
as m
Ġ20 45
oc us
C Æ°á»Ŀi
ĠLock heed
to is
ĠD Æ¡i
H uáº¥n
ĠHil ton
J enn
ĠRob ben
Ġb áº£nh
L and
TT T
ĠIP U
Ġt iá»ĩt
Ġd áº¥m
ÄĲ á»Ļt
HO NG
m á»ĳi
T á»ĳc
ot or
Â Ń
Äĳ au
ĠKro os
k us
ChÃ ¹m
ien Viet
Ġl áº£ng
» Ľm
á »Ľm
nh áºŃn
inn ess
B GTVT
N á»Ńa
M Ã¢u
ĠAc t
ambi que
ĠMikh ail
Ġ18 2
ĠF air
k an
ĠSam uel
ĠnghÃ ªu
Nhá» ĭ
od ay
ĠNet work
Ġ á»ķng
ĠW ong
XH CN
ĠHe er
ĠGi Ãł
ĠLá» «a
ar ia
l á»«a
ĠKh en
ĠB phone
l á»Ŀi
ĠQu ay
ĠSo c
ĠK in
T om
ĠtÃ¹ m
ĠKhu Ã´n
ĠMil ey
ĠTor onto
Ġn ong
Ġ17 9
Ġ18 7
qu in
ĠMum bai
ĠNh áº¯c
ĠChav ez
ĠOk inawa
D e
b Ã¡nh
ĠNh ai
K on
ĠL ot
ho g
ĠJ ar
Ġ20 3
b ell
E conomy
ĠC BS
ĠB A
t ag
Ġs p
ĠA ung
Ġm áº£
ĠAl bert
T iÃªm
CÄĲ V
Ġso Ã¡i
Ġqu áº§ng
Ġ17 7
khá» ĳi
L á»ĳi
Ġx áº¯t
H GÄĲ
Ġ4 40
Ġx áº»o
ĠO f
ÄĲá» ģn
Ġp l
ĠI ron
19 91
ĠM ald
ĠVi enna
Ġg áº«y
Ġr Ã¨
ĠÄĲ iá»ģm
Ġná»ĩ m
L Ã¡i
est ay
ĠSt art
Äĳ áº¥u
ĠEzz or
ĠCS B
V it
Ġr up
ĠV ald
ĠNaj ib
s w
Ġsing le
ĠH end
r io
ĠCB CNV
ĠL á»±a
M Ãły
ĠMc G
Ġh uÃ¢n
Th áº£m
ĠPV S
ĠS eb
Äĳ áº¹p
v áºŃt
Ġchá» ±c
2 70
ĠKh as
Ġx iÃªm
iag gio
ĠF T
itt le
ĠH all
2 10
c Ã¡n
ĠNhu áº¿
ĠSp ider
ĠC Äĥng
ĠC NH
t iáº¿n
Ġcon cert
ĠA TP
a j
Ġqu Ãłng
ĠM I
en ia
lus coni
ĠI Q
ĠMel ania
ĠM áº¡i
Ġsil icon
ĠS S
col n
ch et
ĠPV D
or p
ol in
Q SDÄĲ
Ġrá» ¥t
il et
Gi Ã³
ĠT CM
ĠMor ata
r ate
it ies
Cap ital
ĠSho igu
ĠÄĲ áº©u
T Ã³m
CS XH
ĠCoo per
nh áºŃp
ero on
W ashington
ĠEl on
ip e
V áºŃt
Ġdo ping
ĠT een
Ġ áºµm
19 89
Ġl Ã¨o
Ġc ort
ĠB ella
us ra
ĠD á»¯
ĠVen ice
ĠHS SV
ĠP TTH
v ÃŃ
D iá»ĩp
ĠE o
m á»Ľi
ĠL GB
ives how
» ĥn
á »ĥn
Ġg ara
ĠTh áº±ng
ĠÄĳ áºŃn
ĠD rogba
ĠFir st
ĠDan ny
ish ino
uck s
ĠPh iÃªu
ĠLaw rence
ĠPhÃ ª
b iÃªn
Ġng Ã¡t
x tan
env een
r ia
ĠBe auty
ĠT K
ĠL á»Ńa
ĠNhá» ķn
Y o
VN PT
Ġr an
s son
Tr Ã¡ch
Ġje an
ĠTP CP
Ġ23 5
ec a
am ol
ĠR Ã´
ron t
ĠY oga
Ġtrá» ı
ĠI CT
IC EF
ĠÄĳá» īa
Ġs áº¥p
c áº£m
ĠS BS
Æ¯á» ¢
Ġnhá» £t
ĠMar seille
Ġs ho
i ao
Tá» ī
ĠA CV
ĠAbb as
Ġ el
b b
ĠRob ot
ĠAv engers
Ġth áº¹n
ĠH ernandez
ĠA vent
Ġr áº£
Ġr áº©y
ag s
ĠJ a
ĠColum bia
x ÃŃt
ĠGirl s
un e
Ġ2 19
D ragon
19 90
Ġn Ã¡i
ĠJ ICA
ĠTr an
ig o
ĠK oh
M u
ĠMoz ambique
ĠW r
ĠBÄĲ KH
ĠN ike
ĠÄĲ Ã¡y
ar u
v ui
H R
ĠNex us
C Ã¡t
ĠLe v
H iáº¿u
ĠÄĳ anh
n Ãłng
ThÃ ºc
ĠPelle grini
ĠL oa
ĠSN SD
nh áº£y
Ġ4 70
r Ã´ng
ĠVig lacera
Ġh áº¯c
n ers
z ania
ĠthÃŃ a
ĠTM V
UB TVQH
th y
V iÃªn
ĠS áº£ng
ĠEl ly
ĠGu inness
ĠBer lusconi
ĠthÃ ²
ĠC ot
ĠCar n
ch at
ÄĲ áº¥u
ĠSib eria
Ġv ol
Hy undai
ĠT ÃŃ
ĠB ÃĮNH
19 92
ĠD Å¨NG
ĠJer sey
ĠMc Laren
h u
ĠFans ipan
htt p
? ...
P ark
p an
ĠHir oshi
ed it
p Ã´
ĠEm ma
Ġ27 5
con n
W F
ed u
ĠT Ã¡
ĠCH XHCN
ĠBC TC
ĠIr ina
m áº·c
Ã¨ ng
M áº¹o
ĠT NDN
ir ect
Ġch áº»
ĠS Ã¡t
gh áº¿
ĠAbd el
Ġr Ãº
M D
ĠCCH C
ĠC CC
ĠMah m
T ottenham
ĠGho uta
ĠK iá»ĩm
ĠBank ing
ĠAll en
ff ee
Ġso da
Ġch áº±m
ch el
ĠVill ar
ĠK iÃªm
Ġchá»ĭ t
s áº¡ch
Ġ19 4
ĠBr u
ĠCor olla
ĠKh áº©n
Ġ19 3
N Ã©t
Ãļ c
ĠÄĳ uá»ĳc
ber ry
ĠBá» ĥ
á»ģ m
ĠA SEM
ĠH Ã´
Ġng ai
E G
. -
ĠLu ke
lad e
S BD
un es
ĠDo ha
ĠZ e
ĠT áºŃn
ĠJ os
ĠInf in
ĠV T
áºł N
m áº¯t
Ġtá» ģ
ĠV iv
ĠV edan
ĠK ay
Ġ6 30
ĠM Ãºa
ĠK ov
ĠN on
ÄĲ iáº¿u
ĠJur gen
phá» ĳ
S Ã¡u
ÄĲ Ã´
ĠCour tois
p ad
Ġgi Ã¹m
av a
H Ã©
M en
ĠV ers
ÄĲ á»Ļ
Ġth au
ĠChÃ ¢m
ĠH em
ĠGi áº¥c
ason ic
Tr á»©ng
L ÃŃnh
ĠM ERS
Ġid ol
ĠW is
ĠMc Donald
ĠAbram ovich
Ġn atri
Ġph Äĥng
ĠBil bao
ĠVog ue
ĠTa j
U ng
ĠM iÃªu
Ġth Ãły
h Æ°á»Ľng
ent iane
ĠPier re
Ġná» ©a
ĠDu c
ĠMu ang
ĠB ac
ĠT I
ĠUN CLOS
ĠPot ter
ai g
ĠD H
Ġt weet
oc co
ĠI z
ĠMB B
ng há»
ĠCong o
Ġc Ã¡ng
Ġmu á»Ļi
ĠHu Ãª
Ġnh en
ĠD Ãłi
ĠR EE
ĠVN R
S B
Th iá»ĩn
Ġ18 4
» Ľt
á »Ľt
iz on
Ã ¶
ĠG á»Ńi
ĠTR UNG
Ġg Ãłi
Ġc rop
Ġ21 7
C ity
eg al
Ġn Ãºm
Ġl Æ°á»£m
f ica
ch t
ĠH ind
Ġná» Ľt
ĠGu ill
t áº§m
Ġ20 26
ĠK ash
Ġgiá» ¡n
Ġso fa
» ¦
á »¦
ĠLe ver
ett ings
ĠPl an
v á»ĭ
ĠTom ahawk
ĠBurn ley
ĠNhá» ı
c al
2 30
ĠK CX
Gi an
ĠHeer enveen
S an
Ġm on
ĠR az
ĠCorp or
ĠF ellaini
N ASA
ĠR ib
ĠE va
Mic rosoft
V an
igh ton
fl ix
ĠS ag
ar ov
N Ãºi
nh Ã´m
» ¥ng
á »¥ng
ĠHerr era
N á»ķ
Ġvi r
Vn Express
ĠÄĳá»ģ m
f u
ĠL A
ĠY G
Ġng Ã´ng
ĠCh iáº¿u
ĠTim o
Ġurani um
ĠGold man
SGGP O
S e
ĠC au
aph one
ĠAng ola
Ã ¼
ĠRi hanna
00 1
ĠSach s
99 9
ou k
Ġr áº¿t
ed l
ĠN ishino
Ġkhu áº¿ch
ĠGrand e
Ġr Ãºp
ĠZ in
ĠEv ans
ĠCam eroon
ĠF ound
M ark
ins tein
em on
ĠS ull
iss a
ĠNh Æ°á»£c
Ġng Ã³c
U P
x it
ĠcÃ ¹i
hy un
0 80
ak er
ĠCom ex
Ġt en
m ino
Ġph iá»ĩt
há» Ĺ
Ġsá» ©t
áº ©ng
ĠT ÃŃt
Ġl iáº¿ng
F BI
Chá» Ŀ
ai re
T áº·ng
g Ã£
Ġnh Äĥng
am ily
Thu áºŃn
Ġl Ã²a
ĠCh Æ¡i
Ġph om
Ġl ip
á»² NH
Ġnh áº¥m
ĠAvent ador
Iá»Ģ U
d ie
ĠFernand es
ĠU FO
ĠJ oa
Ġ20 4
om b
ĠT iÃªm
h er
á»ĭm á»Ľi
ĠCar ina
L Ãłn
g ram
Ã´ á»ĭmá»Ľi
ĠX Ã³m
up er
s ong
ĠY un
ĠT Ã¨o
ĠHong kong
ĠY our
eg u
O ne
Ġtho áº¯t
ast ic
áº¤ T
hog gi
ĠSun ny
ĠGaz prom
ex co
ĠManh attan
D a
V iÃªm
Ġcá»± a
w as
ĠO CB
ĠMid d
á»· u
X EM
M Ã´n
Ġx Ã¬nh
c z
s ai
ĠÄĲá» £i
p etro
Ġlu áº©n
Ġ3 25
ĠAnd er
A t
m Ã¹ng
ĠL ow
ind y
arb ucks
ĠNghÃ ¨
ĠPV I
ĠYang on
ud o
Ġmaz ut
ĠManag ement
L Ä©nh
Ġcá»į p
Ì ī
ĠIndepend ent
ienViet Post
al t
y me
G I
ĠR iver
ĠCr oss
ĠL Æ°á»Ŀng
ĠW onder
ĠH Ãłi
ter res
c áº£nh
c os
ĠB Ã´
áº¬ N
ĠM á»±c
ip al
ber l
em outh
ah r
Ġch áº§m
Ġkh anh
A pp
Ġ( ?
lin s
ĠTan zania
ĠM ov
ĠHÃłn Ã´á»ĭmá»Ľi
ĠV AR
kus en
S á»£
ĠG Ã³p
ĠBar b
et amine
ĠchÃŃ p
Ġ app
ĠG el
Ġt Ã½
Ġtu Ã´n
ĠV áº¡c
ĠJoh an
ĠK aka
Ġd áº¿
T iÃªn
oh an
ĠB is
ĠSh ay
ĠInter pol
or ough
ĠSil icon
ĠP P
re z
ra vel
ĠSch alke
f ri
Ġb áº½
Ġn áº¿t
Ġl Ã¢ng
Ġng Æ°Æ¡i
ĠKh Ã¡i
ĠKhas hoggi
Ġg Ãºt
ĠConn ect
ĠÄĳá»ĥ u
y ch
ĠT IN
ĠC OC
ĠL ac
th áº¥t
O L
Ġcom ment
B Ãły
M ac
B áº¡c
et ti
C áº¡nh
ĠB Ãºt
t v
ers ky
ĠNov ak
Ġg áº·m
ĠA H
ĠLin coln
T áº§m
ÃĤ u
b iá»ĩt
es co
ĠÄĳÃª nh
usse in
qu oc
ĠC re
ĠInvest ment
ĠChá» ¥p
Ġrá»§ a
Ġp Ã´
ĠMan s
ĠAl v
ĠÄĲo Ã²ng
Ġx Ã¨o
Tr ÃŃ
ĠAr n
ĠG em
Ġr uá»ķi
ey ang
Ġkhu á»·u
CO C
Ġqu áº«n
Ġgh áº»
Ġ áº¡ch
19 79
ĠPL VN
al in
ĠGu terres
ĠVi ew
os i
Ġm y
m Ãłu
Ġd Ã´i
hi ll
ĠE ast
Ġ21 8
ĠBill board
ĠÄĥ ng
chá»ĭ u
Ġm el
atch back
ĠLGB T
ĠMas ters
Le aks
n Ã¢ng
ĠN ano
ĠGiá» Ĺ
Ġlá» įi
Ġf eet
ĠPar t
ĠN Ã©
ĠQ Q
ourn emouth
ĠTr á»©ng
c over
Ġte aser
Ġhá» ¯ng
Ġ5 30
ĠD iÃªm
d Ã¹ng
ĠOl iv
C áº¯t
ĠZ o
ĠT NT
ĠX oan
Ġr á»±a
ĠPe ugeot
T Æ°á»£ng
ek o
TN MT
L Ã´
Ġb anh
Ġra ting
C R
ĠD or
ĠhÃ ºng
ĠH wang
Ġn Ã²i
C áº¥m
Ġlá» µ
ĠShar apova
ĠN an
ĠPhá»ķ i
el en
ĠHo SE
ĠD aw
oh ama
Ġsá» ©a
ok a
Ġd an
Ġtr á»ĵi
ĠTr á»©
ĠDN A
ins te
Ġ0 90
ĠEs p
W eb
Ġkh áº¥t
Ġx Ã¢u
Ã ĥ
ĠMig uel
Ġco c
i Hay
l on
ĠV S
ĠG L
ĠR Ãł
N uÃ´i
ĠM áºŃp
c le
ÄĲB SCL
Ġ78 7
Ġá» Ķ
ĠLar ry
ĠMos s
m áº¡nh
D ung
Ġ5 80
Ġ ol
ĠMA X
Ġnháº¹ t
ĠgÃ³ a
ĠC MC
Ġr á»įi
ĠC VT
ĠSt ur
m á»¥c
ĠRol and
ĠM ÃŃa
ĠY áº¿u
Ġ20 8
ĠÄĲá» ¨C
Ġth ong
um er
ĠN á»ĳt
Ġthi u
ĠKh oan
Ġo ut
N Ã³ng
ĠSuk hoi
Nghi Ãªm
ĠB ong
M áºŃt
ĠT á»ĵn
ĠL ay
... ",
ĠD á»ħ
ĠCyr us
ĠLÃ£ m
Ġg áº£
Sh are
Ġma fia
ĠGI ANG
ĠHo ward
ai ts
Ġ Ã¡ng
tr áº¯ng
ĠR ak
ng há»ĩ
Ġm iáº¿t
ĠMarc us
ĠM oun
Ġc al
ĠL lor
ĠC ent
ĠLeg end
d es
ĠS app
ĠCh áº£
bur n
S ham
Ġá» ¦
ĠHe ung
Ġgl uc
C om
id o
and ro
14 9
Ġl á»±
ĠTr eo
ĠTh Ã¡ch
il ia
ĠRom ney
ĠNg Ãµ
b Ã¡c
Ġk o
Ġ22 2
EV FTA
ro und
m ec
Ġit em
ĠHÄĲ LÄĲ
ĠIN F
ienVietPost Bank
ĠBir d
ĠSc arb
Ġ20 9
ut o
ĠrÃ¬ u
ĠJ al
ĠChÃ ªnh
¬ m
ĠM Ã©p
ĠWik ipedia
Ġgh áº¹o
ĠTur bo
ĠSh a
Ġt on
ĠG há»ģnh
he imer
P al
Æ¯á» ļ
Ġr Äĥm
ĠJ P
10 5
ĠB ut
ĠM á
ĠS amp
ĠMá »
ĠEs s
C VN
ĠSch we
ĠNe uer
ĠRiyad h
ch en
ĠGre at
n ess
m at
Lá» ĩnh
W D
ĠW ei
Ġm Ãłnh
f it
Ġlo ve
Ġc ode
ĠâĢ ¢
Hot line
ĠNhá»ĭ p
as y
ĠV isa
ĠT TC
ĠX ÃŃch
Ġ6 40
Ġ21 6
r ich
ĠLux ury
Ġs Ã©c
ĠR up
... ),
Ġm Ã¡ng
Ġx iÃªn
is ton
ÄĲ Æ°Æ¡ng
Ġn ot
ĠRe cep
c Ã¡nh
ĠGiá» ĵng
ib le
t am
m Ah
Ġd es
Ġdu á»Ĺi
hÃ ºt
ĠD I
LÄĲ LÄĲ
ĠWat ford
L ai
ĠQueen s
ĠM ill
L ink
g ate
Ġbá»ķ n
ĠM Äĥng
Ġph áº£
Ġcá» ¯
ĠH ÃĻNG
Ġx á»ĳi
ĠS eng
ĠM oody
Ĵ NG
ĠM iá»ħn
ra w
N okia
ĠS tyle
Ġv áº©n
SD F
eb e
ĠR Æ¡i
ch áº¿
ĠBuff on
ĠBug atti
ĠShang ri
ĠS Ãºp
ĠScarb orough
Ġc c
el in
ĠCh ol
IC E
C á»±
Ġ20 7
y ahoo
ĠL it
ĠMc K
Ġ20 6
ĠM R
Ġ23 9
i que
hi ng
ĠvÃŃ u
tr áº»
asp ersky
Ġnháº½ o
Ġst udio
Ġh Ã¡m
ĠW o
Ġt Ã©t
ĠLib erty
ĠCh un
Ġb Æ°Æ¡n
Ã ī
ĠP ur
ĠM ate
ĠAir Asia
C á»§
n áº¡n
ĠC ua
Ġin ox
ĠKH XH
Ġv Ã¡i
S K
Ġh ip
bl r
ĠA se
ĠB ran
Ġvá» ī
ĠS ÆłN
Ġo C
ĠS á»ķ
II I
ĠQu in
B XD
ĠM ing
ĠN ani
Ġp izza
Th Ã¡ch
ĠNT NN
ĠHá»Ĵ NG
Man chester
ĠH V
ĠP iaggio
ĠH ussein
ĠWel beck
O I
ĠX ay
B á»ĵ
Ġmar gin
ĠLaz io
Ġ Ã¹
x uá»ĳng
" âĢ¦
Ġvá» ĵ
g am
ĠCCC D
its u
ĠA eg
inste iger
Ġm il
ĠÂ ½
ĠU m
ĠG oo
ĠJor ge
y u
ĠAm b
ĠY i
ĠVi entiane
ĠÄĲ Ã³n
ĠIn t
ĠLis bon
ul o
ĠJ ust
5 70
ĠG an
ĠMul ler
ĠV áº¿t
ons ai
Ġnh Ã¢m
Ġb iáº¿c
ĠH UD
ĠI oT
ĠEX O
Ġdi oxin
m Ã¡u
iz er
ĠAqu ino
EC O
R Æ°á»£u
Ġs Äĥm
Ġhá»Ļ c
ĠQ N
Ġ5 12
ĠT BA
Ġ21 4
ĠLew is
ĠVill as
ak o
ĠLever kusen
C Ã¡o
ĠCH ÃĤU
Ġá» ³
Ġnh Ã³i
ĠO ng
ĠTe am
ĠJ MG
ĠDy nam
Ġg há»ģnh
Ġph áº¿t
ĠCr edit
ĠNet flix
M ade
Ġr áº¡c
at ter
ĠTR ANG
m and
hi to
ier i
ph en
ĠTU áº¤N
ĠN Ã´m
ĠQu á»Ľi
chip s
ing rad
Ġth Æ¡i
Ġphá» ī
ar at
N eymar
ĠWar ner
my ra
Ġr Ã¡ng
Ġt áº¯p
ĠGD TX
Ġ19 47
ĠLe ad
St ar
Ġnh áº£n
ĠÄĳ Æ°Æ¡c
19 72
ĠV at
há» ĵi
ĠN Ã©t
Ġto ilet
ĠN ich
Nh iáº¿p
ib er
ĠLH TN
th e
2 12
4 80
tr ic
ĠAn ne
G áº¡o
ĠBan d
ĠQU á»ĲC
ĠR ivers
Ġv áº¹t
Ġl áº¯t
if a
ar ak
m ore
ut ion
ĠVin acomin
AN A
ĠDig ital
ĠP av
ĠF und
ĠAst ra
Ġ7 30
Ġ22 4
ĠCB CC
l Ã²
Ġng áº©ng
om on
Ġcá» įng
ĠYoshi hi
le g
ĠW ester
ĠTum blr
oot ball
ĠKH ÃģNH
Ġ4 10
as o
ĠW TI
PP P
b Ã³
u al
oo p
ĠWal cott
ĠSus an
hol m
es ley
ĠB SC
Ġt Ãły
It aly
L á»¥c
ĠSt arbucks
ĠFor ce
ĠFound ation
n CoV
k iá»ĥm
Ġph Å©
Ģ N
ĺ C
ĠPan asonic
P lay
ĠB á»ĳi
iz en
19 46
ĠRe p
NT M
ent o
Ġnh áº©m
ĠP ok
ul in
ĠTT GT
ĠKh iáº¿u
Ġ20 35
s ilk
ĠB io
Ġlá» ¥i
ĠAs an
Ġm et
ĠH orm
G Ã²
Ġb allad
ĠSch ol
= "
ĠSA B
ĠS Ãło
ĠYok ohama
Ĩ NH
s uáº¥t
ĠL áº·c
ĠR ow
ĠJul ia
ĠHo dg
âĢ¦ ".
ĠSc ience
ai do
ĠH appy
ĠV áº½
ĠKh Äĥm
Ãģ I
ĠGra ham
ĠÄĲH ÄĲCÄĲ
ĠS r
ex t
Ng Äĥn
t á»ĳt
Ġch Ãłm
ĠY uri
Ġcá» Ĺi
ĠL Ãºa
ĠP ink
Ġchá»Ń ng
p hÃ¢n
ĠNg o
Ġtestoster one
bur y
ir am
ĠHaw k
Ġc up
Æ°Æ¡ Ã¬
em ala
th áº¯ng
ĠBen fica
Äĳá» īnh
ib r
ĠPow ell
CP OA
ĠCorpor ation
ter est
Ġhá» ī
ĠB og
ĠSmall ing
Äĳ Æ°a
sov petro
Ġdá» ģn
G Ã¡i
ic es
ab aby
Ph oto
ĠSim e
T á»įa
Ġxo ong
k áº¿
D Æ°a
u le
ub er
all as
oh yd
ĠTH ÃĢNH
ĠHK TT
Ãģ C
em i
z heimer
ĠN ord
5 60
ĠKat y
is i
Ġs tream
ĠSp ec
ĠÄĳ Ã¡c
ĠNav as
Ġhá» Ľ
Ju ventus
Ġm Ã³i
ov an
ĠL ONG
thÃŃ ch
P N
V áº¿t
11 3
erg y
ĠTN VN
O lymp
ĠBe at
Mer cedes
ar ch
AR T
op hi
ĠC ast
Ġso c
ĠBey on
ĠMatth ew
thá» ķi
ĠE IB
ĠTr Ã¢u
Ġl Ã³
Qu áº¿
Ġ27 9
ĠPal myra
Ġb im
ĠVu it
V ina
Ġc Æ°u
Jenn ifer
ĠJ azz
Ġ+ /-
on na
uat emala
ĠW h
au d
j k
H ua
ĠL X
Ġ31 5
ĠR eb
ĠHar per
" )
M Ã£i
ĠSe an
ch an
ĠRe agan
iá»ħ ng
ĠN Ã¹ng
d ao
land o
7 20
TS KH
4 40
n ie
it ol
ĠD Ã£
ph an
ĠNH CSXH
ĠRos si
ia r
2 90
Ġqu á»ĩt
ĠL em
Ġ21 3
Ġ22 9
ĠVn Economy
á»¥ a
Ġnh Ã¡p
ĠK iÃªu
v áº«n
Th Ã¡p
ĠKho ang
ĠBra h
Ġ195 2
Th ua
ĠGi Ã³ng
M exico
Ġh áº¿n
Ġho e
ĠvÆ¡ ÃŃ
ĠX UÃĤN
ĠT ung
ĠS ig
ĠCl ark
gi áº¥y
Ġt Ãłnh
ĠCP U
ĠH ans
ĠchÃ ¹n
Ġ26 5
C áº§m
Ġtr end
b ro
b iáº¿t
T axi
ĠD ang
Ġb ox
A CB
Ġ2 11
ost ok
M r
ĠMald ives
Ġp ar
ĠIA EA
Ġ6 20
ĠX ong
ĠBá» ĨNH
au me
Ġ25 5
Tr á»ĭ
Ġt Æ°Æ¡m
ĠL et
ĠRC EP
L L
dio xin
... /.
ĠlÃł o
ĠN ot
t á»Ļi
ĠB ournemouth
ĠT KCN
Ġchá» «a
Ġn Ã¨
T KCN
Ġd Ãºi
Iá»Ĥ M
ĠTechn ology
ĠF ocus
Ġng á»ĳn
ĠRam sey
ĠStr aits
ĠR áº±m
t áº¡o
há» į
ĠH á»Ļp
ĠU t
ĠPr ad
Ġ $
ĠÄĳÃ ¹n
A v
ĠF rid
Ġ19 1
Ĭ NH
Ġt Ã³e
ĠHam burg
que z
M Æ°á»Ŀi
ĠK ent
M Ãł
ĠCamp bell
D áº¡y
uts che
and ra
ĠAl c
ĠDN TN
ĠCol le
Nh ung
ĠGl ass
ĠG H
ĠB ag
ĠFu j
ĠK Ãª
SH B
C him
u f
D uyÃªn
, ..
19 30
ng Ã£
ĠN ur
Ġn Ã¡
ĠAll ian
ĠSt ew
Th áº¡c
Ä© u
ĠCh alle
19 73
thá» ĥ
Ġ22 6
ĠTr á»Ļn
Ġ24 7
Ġ28 5
ĠUBCK NN
ĠBern ard
E CB
Ġv eo
Ġg áº¡c
ĠSun ni
ĠD ark
ĠBh ut
ĠBá» ģn
ĠNS A
ĠBV SC
ĠSt udio
ĠCr aig
ĠBá» Ĺng
ĠS ettings
k á»¹
Ä ¨
Ġph Ãłng
ĠTr á»Ĺi
Ġth Æ°á»Ľt
Ġ4 12
ĠS ÃŃp
ĠVinh omes
gi Ãºp
L áºŃt
d Ãłi
ast as
Ġkhá» Ŀ
ĠT Ã³m
ĠExp lor
ens ky
Ġc ui
VN Theo
Ġmá»į t
un ce
Ġs Ãª
ĠAl ba
ĠH idd
N usra
Ġ6 60
ĠMar ina
ĠMic ro
id an
ĠD á»įc
Ġngá» Ĺng
4 90
Ġmai l
ÃĤ Y
5 10
ĠC Ãłn
ĠKy i
ĠBrit ish
Ġnh áº¡o
ĠMan e
nh áº¡c
ng Ã¢n
ez il
g s
ĠN ow
ÄĲ áº¥y
ĠF all
) /
ac le
ĠNh am
ĠS z
l Ãª
ĠRen ault
Ġhá» £t
ĠNh áº¡n
ĠAki ra
Ġ Ã³
ĠV F
uch in
Kh áº©n
z on
ĠL ung
UN CLOS
ĠÆł n
az i
ĠN ancy
b Ã¬a
ĠMat ic
ĠH ey
it or
B MW
cho ol
ĠOp era
ĠH and
Khá» §ng
ĠS áº¯t
uch i
ĠLux em
Ġg áº·ng
ĠMo ore
is m
V ic
m á»ģm
K ia
Khu Ã´n
Ġl Ã¹a
our i
ĠBrit ney
ĠC CTV
ĠSkr ipal
av in
Trail er
ĠMir anda
ĠM uá»ĳi
s á»Ń
th iáº¿t
ĠkhÃ ¹ng
ĠWat er
Ġ Ð
ĠJul ian
Ġt uyá»ģn
ĠTo an
ĠSen egal
PH Æ¯ÆłNG
IP O
ĠA ub
t hÃ¢n
ĠGo etz
ot el
4 30
ĠVillar real
ĠVuit ton
ĠS á»ĳt
ĠPC LB
ĠHad id
ĠI ng
em e
Ġh áº¹
Iá»Ģ N
en os
Ġvir ut
Ġbá»ĭ p
ĠS qu
ĠFan page
Ġn Ãłi
Ġsá» §ng
M in
Ġk á»ĭ
Ġn á»Ļm
° C
Ġc uá»ĵn
nh áº¡y
tour ist
ĠMi ra
ĠA V
ĠCon trol
TR áº¦N
ĠSi em
h áº¡t
ĠLat via
S uy
ĠNh áº«n
F or
ĠPV X
O PEC
ĠComp lex
K hÃ³a
ac as
K m
ĠÄĲ TCK
ĠDoug las
om at
ĠRe view
ĠKn ight
Hua wei
ĠMy ung
CS C
Ġnh Æ¡
Ġcá» £t
Ġb Æ°á»Ľng
Ġ ev
ĠN elson
ĠB ow
ĠVin atex
n in
ĠDuc ati
Ġchi u
Ġenz yme
ĠJane iro
MA I
ĠTr á»Ļm
ĠAl zheimer
ĠG uatemala
ĠWiki Leaks
á»¥ p
ĠP O
v ax
ind er
Ġtrá»ĭ a
R á»Ŀi
Ġlo anh
ĠSime one
ĠN umber
Ġto ang
L á»Ļc
gan sk
nh Ã¬n
KhÃ³ i
phá» ¥c
J ack
x áº¥u
ĠIs k
ĠNev ada
ol et
ĠMat xcÆ¡va
ĠVin cent
gan ic
Ġnh Æ°á»¡ng
v á»¡
ĠN em
B ig
ĠNat han
ĠTr Ãło
ĠBV MT
Ġg áº¥c
ĠÄĳá»Ŀ n
ĠSchwe insteiger
ÄĲ Ã¡
ĠStock holm
Ġth áº£nh
ĠcÃº n
ĠD F
Th Äĥm
ĠB Ã´i
Ġ10 80
ĠP y
ĠAl ber
S Ã¡t
ĠÄĳ áº§n
ĠCar rick
ĠÄĳ Æ¡
te c
H áº¢I
ĠHo ang
Ġngo ai
Ġl iá»ģm
ĠÄĲ iáº¿u
ĠO Ã¡nh
eo l
Ġh Ã¡
ĠC ub
ĠJav ier
Ŀ n
Ġbá» ĩt
ĠOs ama
Ġgu á»ĵng
ĠM ub
ĠP HONG
ĠLu gansk
ĠCh iÃªn
ĠT áº·ng
C loud
ĠX Ãł
ch inh
ĠTh or
Ġqu á»ĩ
ĠB Ãłnh
Âł Âł
and i
ĠLe ng
ĠVin aphone
Ġgi Ãªng
ĠD uma
ĠhÃ³ t
ĠFur ious
Ġu á»ķng
end all
x on
Ġs Ãªn
ĠR at
ĠFi or
Tr á»ĵng
M e
ĠT F
Th áº±ng
ov sky
n áº·ng
ĠBrook lyn
R á»«ng
S S
ĠKar im
og o
Ġv Ã³t
B en
ĠPh oto
ĠI DC
ĠCo upe
H Æ°á»Łng
S on
ĠM ina
ph Æ°Æ¡ng
d ing
ĠS as
ĠChá» ĳt
Viet Q
ĠchÃ £i
ĠWid odo
ER T
ĠÄĲ á»Ļt
ĠMW G
Ġ>> >
ĠRivers ide
ĠEr n
ĠJim my
M áº¯t
ĠN PK
ra ft
ĠMu ham
ĠDes ign
t ung
og lu
g ers
ĠLing ard
ĠIs lam
ĠAt lant
Ġj ack
m ay
ĠA ustr
ĠC ÃĶNG
f ax
ĠBá» ıng
ĠUy á»ĥn
A lex
Ġkh iÃªn
ĠV ent
Ġ37 5
Ġ24 2
ĠK aspersky
S á»Ńa
V en
Ġl áº¹
Ġl áº¡ch
zo om
ra f
Th uyá»ģn
Ġ15 00
ci el
ĠGR DP
Ġg á»ķ
ĠSX KD
ĠP GÄĲ
o ch
Uy Ãªn
ĠY ak
ĠChrist ine
c ard
p ur
ĠSur face
z an
ĠTh Ãło
ĠInter est
ĠthÃ ¬nh
V L
A f
ĠPl at
ross over
th ur
ĠS ok
ĠMar sh
ĠnghÃ ©
ĠB ian
ĠhÃ©c ta
ĠIv anka
ĠT on
G A
W A
ĠL iv
M N
Ġd áº§y
ĠMi y
Ġs áº¡
s Ã³ng
ĠF ly
Ġx áº©m
ĠV ert
Ġ19 40
p l
ĠT en
let t
ch uyáº¿n
AP EC
lat an
Ġ ).
tr á»įng
ĠWeb site
ĠPark er
ui re
ĠD id
ĠL Ãłi
enz o
ĠK BC
ĠAsan zo
ĠSu u
ĠV á»«
Ġd áº¥p
H ong
V á»ĩ
ĠA ur
M as
5 80
ĠHend erson
Vin amilk
ĠNar endra
th áº»
19 68
ĠNH K
ĠGr ace
ĠViet ravel
ĠEl ite
tr iá»ĩu
ĠG mail
ro ad
n on
ĠChá» Ń
Ġx áº©y
ĠNic ole
Ġdo wn
Ġch Æ°á»Łng
M E
u o
ip h
ĠKash mir
M ob
ĠM og
ĠAm y
tr ai
L Ã²ng
ĠGat eway
ĠSte in
B Ã¡
Ġn Ã©p
ĠMax im
ĠN áº¡i
ĠChi ang
ĠKaw asaki
ĠStew art
ĠVen us
ĠV CG
P aris
ĠK uz
ap l
ĠXinh ua
ĠL ine
ĠL NG
ĠG le
r ice
Ġt Æ°á»Łi
ĠA aron
ĠC Æ°á»Ŀi
hÃ ²
ĠDen is
oy a
ul ia
Äĳ Ã´i
ĠVina Capital
UYá» ĢN
Th Ã¡nh
ĠLan e
Ġhorm on
av an
ĠStan ley
Ġ19 49
Ġhom estay
Ġd en
ĠAdr ian
ĠV FA
ĠR in
b and
ĠTT ÄĲB
ĠÄĳ Æ°á»£m
Ġn ua
ĠIs co
19 69
C IA
ĠKhá» ķ
ĠS et
DI Z
ĠBá»ī m
ĠOr lando
re a
L Ã£o
ĠAs p
ĠIS S
Ġ6 80
v ideo
ĠRib ery
V EC
ĠB ack
in ce
Ġi Pod
n Ãªn
ĠJ ab
um an
Ġh atchback
w o
chá» ©ng
ĠJag uar
ukov ych
Ng á»§
u da
gi áº£
ĠD iá»ĩm
ĠViet sovpetro
Ġthu i
H H
oo ts
ĠExplor er
ĠA AG
T Ã´
ĠN ang
ĠVI E
Ġ23 4
Ġb onsai
a hi
l á»Ļ
ĠB áº¿
ĠL á»±u
M il
ĠXVII I
3 10
ĠP ic
ĠS CB
ĠP od
ĠPhÃ ¬n
Ar gentina
ĠB av
Ġr em
ĠÄĲ áºŃp
ed ad
ch áº¥m
Ġnh Ã³t
ĠM K
ÄĲ N
Ġv oan
ĠT iá»ģm
S Ã³ng
Ġng Æ°Æ¡Ã¬
ĠTP CN
ĠCar ib
f ox
Ch áº¥n
ĠT oni
ĠVid al
en ix
SC E
Ġcho áº¡ng
G áº¯n
ĠHu ll
Ġch áºµn
Ġthá»ī u
1 12
ĠC ope
Ġl Æ¡i
is ha
Æ°á»£ p
iz z
ch áº³ng
ĠTh Äĥm
Th S
Ġm áº¿u
Ġá» £
Ġs mart
EL TS
ĠSecur ity
ĠY aya
ĠMahm oud
ĠmÃ£ ng
ĠShar p
m Ãª
Ġcl ick
ĠWill ian
ĠShe ikh
H iáº¿p
ĠHarv ey
ĠPep si
ĠCar ibe
ĠT Æ°ng
Ġs áº¿n
ĠhÃ ³ng
il ic
ĠE st
ĠSlov enia
V ÄĤN
14 8
ĠchÃ ¹ng
ĠS id
D á»ħ
ĠAN Z
G á»įi
11 7
01 0
ĠSe attle
Ġ( ?!
Ġ18 00
ĠP LA
ĠD ak
ĠBos nia
ÄĲ áº±ng
ĠBig C
b á»©c
ĠNik ol
Ġb eng
M M
19 86
v iÃªn
ĠM áº¡n
ĠMer c
Pet rotimes
ĠAd idas
ĠVin mec
Ġg áº«m
Ġd Ä©a
ĠK Ã¨m
ĠDis play
My anmar
n ic
T im
c ung
ĠYan ukovych
ĠPL O
ĠthÃ¹ y
ĠKhÃ ¢u
Zen eca
Ġr áº§n
Ġmar athon
ĠXS KT
ĠLib an
enc y
Ġx oan
ĠSant iago
Ġlá» īnh
ĠMuang thong
ĠN á»ĳi
ÃĶ i
ĠK á»µ
ĠNh Æ°á»£ng
W est
Ġnh áº±ng
ĠAsh ton
G r
ĠO ezil
4 60
v áºŃn
Ang el
ĠCh ai
ĠLat akia
ĠAse an
3 90
il ton
ĠLÃªn in
5 20
ĠR h
ĠN áº¥m
ĠMug abe
t Ã¬m
ĠO ECD
ab in
ĠLand mark
ĠAlf red
ĠVSA TTP
ĠR ico
ĠY áº¿t
tr Ã¹m
us a
ĠRonald inho
rus h
Ġ22 7
ĠBit exco
el ly
ĠFrid ay
Ġchá» Ľm
ĠÄĲ oÃłi
ĠSh an
Ġ ethanol
Petro Times
ĠFre e
c á»©ng
ĠRap tor
c ul
i ya
Ġvo á»įc
Ġ24 9
ĠGre g
ĠGuill aume
Ġkh am
H Ã´n
b ong
ĠN á»Ł
ĠÃĶ i
ĠMorris on
ļ t
Ġl áº·t
ĠÄĳ Ã¢
VKS ND
ĠAss ange
id ent
Ġ3 01
13 2
ĠH eb
ĠHS X
ĠM Ãły
ĠNe il
Ġd áº£
Ġkh áº£m
au n
Thá» ©c
ĠAir es
ĠMatt eo
G en
A b
ĠEv ra
nh anh
AN K
ĠLuxem bourg
Ġph Æ°á»Ľc
ĠEl l
ĠV Ã¢ng
Äĳ Ãºng
ĠC ath
ines e
ed onia
ĠM om
enn y
il m
Euro zone
ĠkÃ¬ a
C PTPP
ĠL ip
ĠQ CG
ud ential
am eyang
Ġf ull
ĠB old
ï ¿
TB D
D áº¡o
Ġn á»ĭnh
ND P
Ġl Ã¡o
ĠL ittle
: âĢľ
all et
uc ci
m ai
ants ir
ac et
ĠCÃ´ng ThÆ°Æ¡ng
iz u
U R
Kho ai
S al
T hÃ³i
ĠV SI
x á»ĭn
su it
ĠJ ai
ĠBru ce
Ġp H
Ġm Ã¡nh
Ġcá»¥ i
ĠB uá»ĵn
ĠFab io
Ł m
ĠI TA
Ġm in
Ġ30 4
ĠHo p
Ġlo Ã¡ng
ĠToshi ba
Ġm Ã³p
ĠTr ue
ĠAn to
H e
Th áº»
akh ar
ĠA MO
Ġcarb ohyd
w atch
Ġph otoshop
ant an
ĠNg áº§m
2 25
Ġmag iÃª
+ .
nik ov
I U
q uyáº¿t
Ġ6 36
Ġ22 1
let on
T á»ĳ
ĠN Y
ĠX y
ĠA ug
Y áº¿u
ĠBr os
ĠMat s
ĠEn ergy
ĠE PS
F ran
Ġgi Å©
ĠCo ffee
ary an
ĠHol mes
10 2
V ÄĲV
c Æ¡m
ĠNh iá»ħm
ĠL Æ°á»£c
ĠFox conn
ĠM ÃŃ
Ġf ashion
ĠAl tis
Äĳá» ©a
ĠU g
P SG
ĠMor occo
Ġ4 90
c áº£i
Ġ26 8
Ġcaffe ine
Ġtrá» ģ
d á»ĭ
ĠR us
ĠV á»ı
ĠKat ie
L TS
Ġ30 5
ĠLu ang
ĠNor wich
it ary
ĠPrad esh
. '
Ġm ethanol
IS A
KCN A
ĠK omp
ĠCH I
Ġsal on
M azda
chá» ĳt
ĠV C
ĠQ P
Ġso Ã¡n
ĠP anda
b le
Ġnh áº·n
Ġr á»Łm
ĠM itch
o it
ĠW ook
f in
ĠK Ã©o
ĠIvan ovic
Ġp as
C ol
Ġmicro SD
ĠL á»¥a
Ġn ews
ĠI an
Ġxu á»ĥ
4 20
Ġn Æ¡m
Ġnh áºµn
ĠH R
Ġ23 1
Ġ zoom
ĠV Ã©
hÃ² a
b un
ĠD ae
H an
Ġ3 35
Ġb áºŃp
Äĳ Äĥng
qu Ãªn
ÄĲ áº¡t
ĠL PG
ork s
ĠPhÃ ¬
Ġtr áº¯m
ĠFT SE
Ġ3 12
ĠHo s
ard e
ĠAl m
ĠÃĲ áº¡i
ĠS Ã¢u
ĠLaz ada
ĠT E
Ġ26 4
ĠAMO LED
ĠV ardy
ï¿ ½
» §ng
á »§ng
19 87
Ġc rossover
Ag ribank
ĠL ake
ĠI ELTS
ĠSoh u
ĠL ienVietPostBank
Ġd Ã£n
op y
ĠF on
au ss
ĠG áº¥u
ĠVat ican
ed ine
Ãµ n
6 30
Ġbá»ĭ u
BÄĲ BP
Ġnh Ã©p
ĠU d
m iá»ģn
m Ã¡t
Ġ19 48
Ġg out
tr á»±c
ĠColle ge
Æł XH
Ġ22 8
ĠO il
ĠEm ily
ĠPin terest
ĠSouth ern
ier ra
ĠR Ã´ng
Ġtu r
6 40
tr anh
ĠSil ver
Ġlá» §i
ĠP Ã¹
g Ã³i
z ig
ĠCH LB
ĠMarc os
ĠCon f
ĠD W
Ph Æ°á»Ľc
ĠM am
ĠDia z
PP O
ĠK ob
ĠMub arak
ĠPap ua
ĠX Æ°a
Ġv Ã³
ĠK TX
ĠStan ford
en ter
Ġtrá» ©
ĠV B
ĠSh ark
ĠM áº¡o
ĠR iv
ĠShi ite
t ail
ĠTr o
ub lic
ĠZ am
Ġ4 000
ĠR ac
ĠthÃ³ p
Cho Ã¡ng
ĠLim a
K N
ĠChar ter
f un
ĠNhÃ £n
ĠCope nh
Ġyá»ĥ u
ĠB ot
P O
Äĳ o
lu an
ĠD AP
F one
ÄĲ Ã¢u
ĠRub y
ĠÄĲV TN
Ang ela
ar ay
V EF
Ġthá»ķ n
ĠK eo
Chi Ãªm
ten berg
ĠC áº¥u
al og
Ġm oi
ĠA UD
op mart
ent s
st one
l Ã©
lin ois
ĠMn uchin
ĠP it
ĠP os
ĠE SP
cover y
at y
ĠTitan ic
ĠHorm uz
ĠH abeco
ĠFin ance
ĠAstra Zeneca
Ġg Ã´n
ĠR Ãª
f one
ĠCá» §ng
ÄĲá» īnh
w orld
TH A
d áºŃy
us k
Olymp ic
s tr
Ġngh iá»ħm
b iá»ĥn
k or
ĠKho áº£nh
b ike
ĠQ Z
Ġblock chain
. âĢľ
ĠnghÃ ª
ĠZar if
Äĳ á»ĭnh
ĠL ak
ĠB ib
at as
Kh áº©u
ĠS BD
con sin
Ser ies
ĠSp ears
Ġhá» «ng
ill ac
im Äĥng
ĠBar r
Ġth áº«n
m ingham
Ġq uyá»ĩt
el sen
yr on
Ã ģn
ĠPu erto
Ġl Ãµa
ĠG MT
ng hiá»ĩn
ĠHo áº¯c
Ġd Æ¡
ch Ã¡u
ĠZel ensky
Äĥ c
ng e
br ight
s á»Ł
ĠBu ck
Tr á»£
chet tino
ĠH Æ¯ÆłNG
l Ã¡ch
Ġ45 8
TN AM
ÄĲ Ã¨n
Ġsoc ola
Ġn Ãºc
land er
j e
ĠB X
b al
ĠZ TE
t ang
Ġcar ot
k Ãªu
ĠSt ol
ĠB ull
ĠTr Ã´ng
ed o
EN CO
ĠP f
giá» ĳng
ĠPhá» Ł
F PT
ĠS Æ°á»Ľng
Ġr e
ĠJer emy
n Ãª
11 1
ell en
ĠTh Ãł
ur ch
ĠA ud
Ġlá» ķ
end s
! ",
ĠhÃ ¹
B á»įn
M on
Ġho en
Ġ8 20
Ġh Ã¡ng
ĥ nh
ĠC and
ĠE to
D H
Ġh áº¡c
is se
ĠRi edl
Ġná» Ľp
Ġi T
ĠJac ob
r ise
ĠMary land
áº ¶
ĠD á»ĳc
L á»Ńa
Ġv Ã¹
ĠM Æ°u
l Ã¢m
Ġn áº¥ng
Ġchá» Ńa
b reak
ĠKyl ie
ĠD ata
ĠT BN
d iá»ĩn
id s
ĠSo ci
ĠPol y
ĠXX I
ur n
Ġ25 4
ĠThá» ĳt
Ġgi Æ°Æ¡ng
ĠR ho
Ġmu á»ĵi
cop y
ĠP un
ĠC ass
ĠMand ela
ĠCh ong
ĠMor si
ĠSeb astian
U T
ĠGeor g
ĠIsk ander
ĠSl im
ĠB K
ad el
ĠTr Ã¹
Ġx Ã©o
ĠTri um
Q C
Ġg Ã¡p
as il
ĠSev en
Ġ23 6
Ġb áº·t
u ver
Ġ29 5
Äĳ áº¯p
ĠWolf sburg
ĠN eo
ĠAngel ababy
app er
hÃ ©t
ĠTH áº®
Ġu áº¿
Ġnh Ã²m
ĠK Iáº¾N
ĠB ever
ĠM Ã£n
TT LT
Į C
ĠA ustin
12 3
ĠS SD
ed s
ĠFut ure
V al
ĠM uk
ĠK araoke
ĠH áºŃn
ĠHun t
I raq
ĠF ront
ĠA AA
ĠB le
av y
ĠDá»± ng
ok er
ĠN ino
ĠTh a
ĠHu ang
ĠC atherine
ĠMar s
CÃ´ng ThÆ°Æ¡ng
ĠA Q
ĠGi ll
ac an
ĠPal m
ĠQ aeda
and r
P op
ĠSchol es
ĠIl linois
S how
Ġsh oot
Ġ3 24
Ġt Ã²ng
ĠEng lish
Ġ26 7
Ġlá» ³
ĠLa h
b áº£ng
ĠSqu are
ĠBu enos
ĠP age
Ġ24 3
ĠKhÃ ´n
end i
Ġd iáº¿p
ĠSalv ador
Tr ÃŃch
SL NA
M obile
Ġ5 10
Ġgh áº¹
ĠT á»±u
it ic
ĠTá» ģ
ĠC all
igh light
ĠTr ail
P aul
ĠC á»ĵ
ĠCN CH
ĠHo on
Ġng Æ°á»Ľc
ĠL áº¯m
ĠElec tric
ĠPho enix
Ġ23 2
ĠT á»ĭch
us ic
ĠAeg is
p ost
ĠChÃ ¨
Ġg Ã£i
l iá»ģu
Ġchá» £p
B aghd
b ps
ĠG á»ĳm
ĠW ay
R Ãºt
ĠCH K
ar ag
ĠV á»¯ng
k k
Ġ Ãº
ĠDan ce
c hÃŃ
f eld
ĠLau ra
C uba
D on
Äĳ áºŃp
âĢľ .
ĠSM E
D NN
l Ãłng
ĠD Ã¢y
ĠO wen
tr ao
ĠSoci edad
" !
Ġrá» ©t
ĠF ootball
Ġ29 8
p ark
Ġchá» ĵi
ĠSc ar
ĠKr as
Ġd Ã³
ab lo
Ġ29 9
ĠT ui
ĠÄĲ Ãºc
ĠTr á»¥c
ĠK ans
Â »
ĠSport ing
ĠPir lo
ĠFir mino
n uÃ´i
ĠHu ff
NG á»ĮC
Ġx Ãºm
ill o
Ġná» ĩn
Äĳá» ¥ng
l ov
ĠArm ata
ng á»§
y ang
l áº¥p
ĠHar ley
ĠK err
tr Ã¬nh
20 23
Kh Ã¡
ut ra
n Ã´
6 60
ĠB MP
há» ĵ
ĠN ice
Qu Ãª
ĠMod e
Ġn Ã£y
Ġkh Æ°
Ġ19 20
lu áºŃt
ĠMis tral
ĠF it
ĠEd u
chÃ ©m
am oto
ĠC orn
Vietin Bank
N ay
N ews
H Ã¡t
ĠV pop
il yn
g áº·p
Ng uyá»ĩt
il ity
Ġl iáº¿c
ĠXK LÄĲ
iÃª t
TT CP
ĠCap itol
ĠG yeong
ĠS ne
Ġg Ã¡o
il ever
Ġn Æ°á»£p
Ġl iáº¿m
ĠK obe
it on
is ter
ap ol
ĠB M
ĠHy brid
6 80
ĠChÃ ¨o
ine ken
ĠHodg son
ip zig
ĠZ akhar
ous ine
M Ãª
qu áº£n
ĠM eh
S ide
Ġph Ãłm
ĠB áºłN
C anh
t imes
x Ã³a
D á»¯
ĠStur ridge
ĠB es
ĠNg á»±a
ĠNat al
s Ãª
Ġm obile
Vit amin
c are
ĠHun ter
; ...
hi um
ĠPh Ã¡n
Ġ35 6
ĠT áº©n
Ġ24 6
nh á»Ŀ
ĠSaf ari
ĠVL XD
6 10
ĠÄĲ un
ĠSol eim
at hip
ĠM á»µ
Ġn áº£i
Ġt uáº¥t
b iá»ĥu
x o
Ġtr Ã¡m
ĠCom ey
R Ãł
ĠD allas
ĠNhÃ ©
ĠCh áº¿t
ort ivo
X Ãºc
ĠSund ay
ĠD PM
ĠC hÃ³
ĠP antsir
Ph áº¥n
ĠM AI
ov inam
b Æ°á»Ľc
ĠSp ark
OO OO
ĠY el
ĠB our
ĠkhÃ ²
ÄĲ á»ķ
ĠâĢĿ .
ĠDu á»ĩ
ĠBir mingham
ĠAc er
Ġmen u
ĠTH áº¢O
á»Ĺ m
ric io
ĠChu ck
ĠK oi
ĠMag uire
Ph Æ°á»£ng
ĠBur iram
v it
ĠH L
ĠAc cord
ĠS U
ĠSo on
Ġ30 2
ĠZ latan
Ġb ot
Ġxáº» ng
ĠSaigon tourist
om i
B ong
P utin
Ġx Ã²a
12 6
Ġ25 8
V Ã¡y
Ġc áº§y
k im
vax em
Ġh uyÃªn
ĠSoleim ani
Äĳ á»ı
ĠBhut an
Ġ ),
ĠM SC
ex im
ĠCopenh agen
S ony
r iz
khi t
Äĳ Ã²i
ĠH ak
15 4
Ġch Æ°á»Ŀm
ĠPr udential
ĠUN ICEF
hi t
ec ca
ThÃ ¬
ĠchÃ³ p
ĠKhai silk
al ian
m os
Ġ25 2
ĠWis consin
ĠVN G
ĠS áºµn
t uyá»ĩt
ĠKh uyÃªn
ĠDr ive
ĠC Ã¡o
ov en
nh an
ĠCl ar
Ġnh á»Ļng
Ġn Æ°á»Ŀm
ĠV QG
ĠS Ã¡n
ĠOl iver
ĠnhÃŃ m
khit aryan
Ġs iÃªng
ĠB um
ĠDe utsche
ĠKal in
ĠSan na
co in
10 9
Ch áº¿t
ĠA eon
ĠOliv ier
k ey
ĠCharter ed
ĠbÃª tÃ´ng
qu ets
Ġká» īnh
ro e
ĠFior entina
Ġnh Ã¡m
ĠS AM
km en
n á»Ńa
Ġx á»Ļc
H Ãłm
co uver
PH áºłM
ĠMark le
ĠC ort
ĠBar t
ĠVH NT
ĠPH ÃļC
ĠH Ãºc
ĠThá» ı
ĠB ÃĢI
ĠMai n
ĠDel ta
ĠBor ussia
Ġs áº¯ng
ÄĲ áº¹p
ĠWom an
TT M
c ess
pp e
ĠBar ry
ĠMuham mad
char ito
Ġrá» £p
19 50
ĠXÃª Ãºt
nh o
ĠCar acas
ĠIn doch
ĠC oi
ĠMes ut
Dr ive
ĠT oáº¡i
ĠHiroshi ma
k u
ĠT ong
tr á»Ł
ĠK BS
Ġ24 1
l Ã´ng
b Ã³c
ĠPr ime
ĠSp eed
ĠI CBM
thá» Ń
Ġ3 19
ĠB ald
Ġ7 80
T áº¡
y ah
ĠN E
10 8
iá» ĳt
Ġg á»ĵ
ĠDa ew
Ġc áº·m
ĠE up
ĠPo int
ĠCa hill
ĠJac qu
ĠS ierra
0 20
th al
Ġkh Æ°á»Ľc
ĠT áº¤N
ĠWat son
Ġnh Ã£o
ĠPC A
Ãļ Y
ĠH iáº¿p
im et
b áº©n
ĠPr es
Ġhá» ¥c
a a
Ġc r
Ġn Ãµn
ĠPe arl
D á»«ng
ĠF DA
To quoc
0 90
Ġfol ic
ĠL Ã¨ng
ĠÄĲak rÃ´ng
uá»ĳ m
7 60
Ġtr áº¡ch
Ġd eb
Tr iá»ĩt
ĠR Ãºt
ĠAv ia
ĠlÃ² i
b áº¯n
ou ch
ĠCap tain
ir ut
ĠT áº»
ĠN iá»ĩm
m iá»ħn
v áº¥n
âĢ¦ /.
Ng Ãłi
ĠGi Ãły
ĠR al
Ch at
ho Ãłng
AN TT
ĠC ir
Baghd adi
ĠN Q
ĠComp any
ĠS GD
âĢĿ ).
ĠR IM
ĠT Ã¨
ac a
we ather
ĠNi elsen
b áº«y
gi áºŃt
ĠT Iáº¾N
ĠF our
ĠMal aga
U BCK
c Ã¡t
ĠHy o
M H
Ġ9 60
ĠX iá»ĥn
ho áº¡t
N o
FI FA
ip l
chá» įn
ĠE P
ĠHar am
Ġtá» ĥ
Ġam i
Ġca c
ĠTH I
M L
BH YT
ĠMar ca
enc ent
B TV
85 01
ĠHap ro
T ao
ĠT hÃ³i
ĠJ Y
Ġ27 2
ĠSt ate
M Ã´ng
Ġ23 3
f r
Ġr áº·ng
ent a
im i
htt ps
Ġv Ã¢ng
p ro
Ġg áº¥m
TS C
ĠSir i
ĠF ish
ĠSe ABank
Ġ6 10
lyn n
ĠATVS LÄĲ
ĵ m
aze era
36 5
T ÃŃch
Ġtá» Łm
ĠLe ipzig
K ÃŃch
d áº¡y
Ġ23 8
emb ley
Äĳ áº£o
ĠPo chettino
ĠF at
vietnam net
Ġm á»ĳng
ĠW AG
ĠTá» ıi
Äĳ áº¯t
G etty
ĠBr ighton
ĠP yeong
c áº¯m
ĠP áº¯k
m Ã¢y
b ala
ĠKrist en
ĠD UY
av er
s how
ĠZin edine
Ġ25 1
ĠMar ine
ng há»ģ
PhÃ ¹
ĠWhit ney
ĠAh n
Ġh Æ¡
ra ham
hÃ ©
A B
Ġty pe
ĠR ice
ĠMah at
ĠSky pe
Ġden im
N á»ĳi
x ra
Ġ195 1
Pod s
ĠMa j
88 8
ĠAc cent
ĠGol an
ĠB á»Ļc
ĠR OS
Chá» ¥p
ĠAl ph
ĠHam ilton
Ġmá» ģn
Æ¯á»ļ C
Mich ael
ĠTTT T
ĠP ict
ĠiT unes
ĠSp urs
ng Ã¡o
ĠFire fox
ĠSpace X
au gh
Ġn Ã´m
ĠKan te
ĠT áºłI
ĠBo at
ĠSub eo
ĠNas ri
Th Æ°á»Łng
l ob
tho Ã¡t
Ġmá» ¥
un i
SE A
ĠWhat s
ĠW embley
: -
s oi
Ġchá» ģ
ad ep
ĠPr im
ĠÄĳáº½ o
Ġn Ã¡n
S Ãºng
Æ°á»Ľ m
ĠLo ew
l inh
ĠC ES
ĠQuin vaxem
ĠHai yan
ĠÄĲHQG HN
ĠDid ier
ĠSoo bin
ĠAub ameyang
Pet rolimex
ĠP CT
iff any
ĠP B
t es
ph y
nh áº±m
ĠR iá»ģng
gi es
ĠN ÆłXH
n ell
ĠH áº§m
ĠGr ai
D á»įc
ech n
19 85
sk aya
ĠTh en
ĠStol tenberg
ĠWil d
ahr ir
Ġd á»ĳt
ĠDA B
h n
ĠL ily
Ġng Ã²
3 01
ĠVan couver
ĠW igan
ĠH VN
ĠBy ung
ĠToshi ya
11 4
Ġ inh
ĠSt ory
9 20
ĠP on
ev o
G h
I CM
ĠRet ail
Ġlá» ©t
8 40
Ġ24 4
an ie
ĠHan n
k ÃŃch
Ġg ala
ĠBrad ley
k á»·
ĠVA SEP
iff el
qu ay
10 4
ĠVI N
P ak
Ġ30 8
Ġn Æ°á»Ľu
ĠPel osi
ĠEl le
ĠtrÃ¬ u
ch amp
ĠY aris
ĠM ind
t oÃłn
ĠCh ao
b á»ķ
iv an
ĠInd ian
n uá»ĳt
ĠT áº£n
Ġkhá» ĳ
ĠGi uá»Ļc
Ġbar ie
ĠL AN
ĠHab ana
H ÃĢ
ĠCom mun
ĠNg Äĥn
AT A
P ay
ĠC indy
ĠMod ern
ĠDh abi
ĠJ oan
l á»Ĺ
Ġho Ã³c
Ġgi Ã³ng
Ġ6 70
ĠSH S
ĠBright Side
ĠUn ilever
h iá»ĩu
Ġ ar
ald o
ĠPh iáº¿n
C NN
4 70
ĠBl atter
K ong
S uz
t uá»ķi
ud din
HÄĲ QT
l á»±c
ĠS OS
ĠÄĲ u
ĠLot us
Ġh and
ĠAl am
ĠDo c
av on
Iá»Ĩ P
ĠSo áº¡n
ĠS tream
ĠAnto ine
ics son
ĠJoa chim
Ġp ost
Ġc á»Ļc
19 67
17 5
ow a
ĠPH áºłM
LÅ© y
ĠRoy ce
TT C
berl ain
en burg
19 80
ĠPro duc
ĠHag el
SC IC
omp son
ĠDomin ic
ĠL áºŃt
ipp i
ĠVAM A
ĠD ara
ĠLu ka
ĠSir o
Ġ26 2
ĠXp ander
Ġmo Ã³c
ĠhÃ ªnh
ĠAle ks
m Æ°á»£n
m á»¹
Ġt iá»ģu
Tr uyá»ĩn
¥ m
Ġ3 45
Ġph uy
k ar
ĠE iffel
Ġtal uy
ĠShay k
er ing
ĠSin ai
r ome
ĠL U
R ad
M ax
ĠP E
ij der
ĠA o
ĠH AN
10 3
ĠKy oto
ĠVic em
Ġkh Ãłn
ĠInfin ity
Ġ0 98
th ua
5 40
ĠGar ros
ĠCru iser
S á»ĳc
ĠS I
ĠV or
ico id
ĠG uy
ĠAn aly
G IA
ĠNG H
E ver
eo r
nghá» ī
ĠD Æ¯ÆłNG
ĠDef ense
ĠM oney
Ġt one
Ġquá»µ t
ĠRaz ak
thÃ ¬
Ġb á»±
S áºµn
Ġ ion
Ġp ap
ĠS Ã¬n
Ġ ex
S á»Ľm
Ph Æ°á»Ŀng
ĠDan ang
m el
orn o
P hÃŃ
cher ano
ĠHer mes
b Ã´ng
ag on
ĠRes iden
end o
ĠIL O
Ġc áº¡m
Ġ24 8
eth yl
h ung
Ġlo áº¡ng
ĠDep ortivo
Ġm áº£y
ĠnhÃł u
Äĳ áº©y
n Ã©
ĠK ao
ĠChá» Ĺ
ĠC in
ĠV ung
ĠNH ÃĤN
apl uat
T an
Ġr á»Ļp
ĠGor don
23 5
ach i
ĠHe ineken
ĠC GV
eb r
ĠCo in
ĠHe art
ĠP OS
AR S
ĠCap ello
ĠBro ad
ĠM Ã¢n
ĠQueens land
ar es
Ġ č
ĠT est
ĠAlb ania
ai ca
ĠPf izer
ĠG Ãłnh
Ġgluc ose
Ġáº¤ p
ĠSuz y
b Ã©
Ġhá» Ľn
19 47
Ġng oa
Ġ33 3
sh ere
ÃĴ A
Ġ( âĢľ
ĠF amily
Ġlá» £m
es ong
ĠAc ad
Ġh Ã¡ch
Ġ33 7
ĠDong A
Ġnh uá»ĳm
ĠAl leg
d ate
ĠS SC
ut ch
J e
R obot
ev i
ĠB ord
ĠC az
ĠT ahrir
ĠBus quets
B Ã²
Ġd anc
Y am
ÄĲá» ©a
áº ¨
ĠCÆ¡ m
Iá»Ĩ T
ĠL anh
Ġd ata
ĠCA SA
ĠBe ast
Ġs ize
ĠHim al
19 82
ĠGh ost
ĠCarib be
Ġs in
ik istan
any ol
Ġcar at
Ġg Ã¹i
KD T
ĠT Ã¡nh
c Äĥng
ĠM BS
ĠNap ol
V Ã©
ĠWan na
âĢĻ âĢĻ
ĠGer ard
Ġv log
Ġn anh
ĠB á»į
ic kr
l Ã£nh
Ġ27 4
ĠP il
s m
ĠD R
Ġph ung
ĠJer ome
ĠM D
ĠChinh phu
KH HGÄĲ
ĠL O
á»ĩ ch
Ġd Ãºm
ĠDe pp
Ġ22 3
Kh Ã¡t
ĠW ard
z ai
Ġ7 47
Ġ3 22
Tá» ©
ĠWester n
C E
al ez
ĠMac edonia
Ġ un
Ġ25 7
ĠTu c
B áº¡o
V á»ı
Ġlá» £
H TC
en berg
BC A
V a
ĠL Ã¹ng
ĠCH Ãį
ĠVol vo
ĠTHáº® NG
Ġ23 7
ĠB Ã¢n
ĠRod gers
Sai gon
' '.
sk a
tr Ã²
ĠOne Plus
ho ck
Ġx áºŃp
ĠÄĳá» įa
ĠCh ad
l ah
p hÃŃ
lan ta
ng á»±a
ĠJe ong
Iá»Ĩ N
ĠlÃ² e
q i
th áº¯t
6 20
k Ã©o
ĠHold ing
ch Ãło
ĠA ce
áºł CH
ff i
11 6
ĠSim p
P F
Ġ28 8
At letico
Ġv Ã¨o
ĠVlad iv
Ġtr áº¥u
ĠÄĲ ÃŃch
ĠDep ay
ĠR A
ĠT encent
ĠhÃ ¬
ĠC loud
Ġc ur
ĠV il
ĠNav al
ĠMad onna
ĠHugh es
ĠQ UYÃĬN
ĠS R
ht ml
Ġco upe
ĠSapp oro
ĠHá» ĺI
ĠL V
á»į p
ra p
ĠC F
19 53
H iáº¿n
Ġdan tri
P ink
ĠMal ta
Ro oney
1 45
ir in
ĠMar oc
Rob ert
ĠN TBD
ĠGr ay
ĠR im
ĠTr av
ĠTh ompson
Ġnh Ãºc
N Ãªu
C r
ĠF loyd
ĠGeo g
ĠVir us
hÃ £
ĠM áºŃn
ĠRam ir
G R
ur al
ĠP ET
k á»ĭch
Ġp an
ĠM iá»ħu
ĠGonz alo
há» ĳ
Ġtá»ĭ t
ng Ãłnh
ĠB áº¡t
R á»Ńa
ĠMar gar
ĠCes c
ĠÄĳÃ ¬a
ĠR Æ¡
Ġi Cloud
Ġl Ã³e
ĠAl ice
Ġd Ãł
ĠRe y
Ġch uá»ĳc
ĠM khitaryan
Ġ8 30
ĠHá»į p
c anh
ĠUg anda
gi Ãł
th ers
ĠJe ju
iag ra
ol t
ĠKTT V
Ġth áº±n
ÄĲTB XH
id es
Ġtá»ĩ p
ĠJ up
ĠHind u
Ġt Ã³p
ĠPlay boy
ngh Ä©a
ĠR ia
el u
Ġ5 90
n Ã´ng
Ġl áº¡p
ĠH PV
ĠD X
ĠF ive
ĠPhil adel
ĠAR V
h ang
Æ°á»£ i
T e
0 40
ĠFlor es
ĠEup hr
M ad
Ġ48 8
ĠVN N
Ġr Ã³i
ĠCM CN
Ġc ot
Ġw orld
ĠRo os
Ġmá» ģ
PhÃ ¹ng
id on
TT DL
ĠRo jo
H á»Ļ
ĠN eg
ĠCol a
Ġnam e
CN TT
6 70
ĠÄĲ á»±c
ĠHÄĲ H
Ġo x
ĠTimo thy
ĠchÃ ¬nh
Ġkh áºŃp
ĠLib eria
Ġd áº¹t
ĠDz eko
Ġlá» ¥ng
ĠBe e
ĠBR I
7 80
ĠKomp any
Ġb Ä©nh
os an
ĠPhiladel phia
ĠV áº£
? ,
ĠL ite
f acebook
p rus
ĠGi Ã£
ĠW ord
lo e
ĠGang won
ich el
ĠN Ã¡
ian i
ĠKuz net
ĠBoy s
Ġv Ã´ng
ĠL ed
ĠN Æ°a
ĠK ad
Ġth áº«m
im p
H á»Ļp
es i
H am
ĠRad io
17 1
PV C
gi Ã¡m
ĠNh áº¥n
Chu á»Ĺi
ĠCh uyá»ģn
Ġmá»ı m
ĠCap e
land s
Q uyÃªn
ĠV is
0 70
b ut
ĠC ul
ĠT Ãª
ĠV á»Ł
ĠP ablo
ig i
Ġcarbohyd rate
KhÃ ´i
ĠLag arde
x Ã³m
ĠH á»ĵn
ĠSp ir
tho use
Gi Ãłnh
Tá» ©c
ĠF ax
N m
ĠV issan
Ġv in
em o
ÄĲ áºŃp
ĠE than
Ch uá»ĳi
Äĳ á»Ļt
ĠO GC
ĠMar athon
Ġ( !?
let ic
Ġn áº¹p
ĠHel en
C hÃ³
ĠEng ine
0 60
Tá» ıi
ĠLes te
! .
Ġtr á»ĭch
T Ã´m
Ġb oots
ng ay
ĠEr icsson
ĠSne ijder
Khá» ķ
Ar ena
: "
ĠSte el
ĠM Ã¡u
as oan
Ġ35 5
ĠCard iff
V irus
ĠT ot
ĠÄĲ ua
ĠGi anh
ĠMil k
ĠÄĲ áº£n
any e
Ġsu it
ĠT it
im o
y áº¿u
ĠF lynn
ĠSah ara
Ġth iáº¿c
Ġnh Ã£ng
Ġsá» ı
ĠA EC
ĠR áº¡p
C áº©n
ĠHidd ink
ĠTHá» Ĭ
Ġo Ã¡i
Æ¯á»ľ I
G ame
ĠCon tinental
ĠA TTT
ĠAb raham
bi ent
ĠSar ri
j ong
Ġngá»¥ m
Ġlip id
bur gh
ĠC ash
ad an
ĠVladiv ostok
ĠBe irut
ĠÆ¯ Æ¡ng
C al
Ġch Ã¡c
ĠLlor is
kh Ã¡t
m Ã´
40 4
bu Ã´n
ĠEuphr ates
ĠKhá» §ng
Ġkh áº¥m
Ġl áº¡t
ĠK ings
ern er
fish co
ah an
ou cher
ĠK endall
iet nam
Ġg Ã²n
ĠW ind
Ġl áº¿t
t ime
Ġ999 9
am mar
ĠS Ãºng
ĠV K
ĠStar s
u ter
ĠK ush
Ġr Æ°Æ¡i
ĠP ang
Ġs treet
ab al
con s
QU ANG
ĠZ ur
ĠZ ara
Ġr iá»ģng
ĠV ivo
ĠChu á»Ĺi
ĠT ata
ĠDe ep
ĠS ign
ter n
ĠSH TT
Ġchu m
ĠN im
ĠW S
ĠB á»ķng
ĠDá»ĭ u
ck tail
B áº£y
ĠC CN
ĠH NG
ĠD iá»ģu
! ).
ag as
TC T
ĠDi jk
ĠChá» «ng
ĠHu d
» ıng
á »ıng
Ġn ÃŃt
AF I
ĠA pol
ĠÄĲá» §
Ġs hi
n á»£
Ġtr Ã¡t
g Ã¡nh
ĠÄĲT LA
ng on
ĠHy uk
ĠIndoch ina
ĠR ot
ĠCharl otte
kh áº©u
ĠJeff rey
ÄĲá» ¨C
hÃ ´
ĠStr auss
ĠN ix
Ã¢ t
ĠI NS
ĠOm ega
ĠBlanc os
Ġl áºµng
It alia
ĠM O
ĠD iÃªu
24 7
Ġkh iá»ħng
ĠY at
ĠKal ibr
ĠVar ane
x Ã¡c
ĠSc ud
ĠQ CVN
19 76
ĠG áº¯n
Ġl it
ĠJ oko
V AM
r Ãª
ĠTur in
Ġkho áº£i
ĠVal ley
m á»įi
Ġcoc aine
Ġnh oi
ĠM old
ĠL iveshow
12 8
ĠBeck s
D O
Ġg Æ°Æ¡m
Ġdeb ut
p en
Th Äĥng
ĠWal ter
N ick
h in
ver t
ng he
ĠG A
Ġx Æ¡i
ĠK LS
ĠD ec
ĠLo áº¡t
r iÃªng
s á»£
u oka
Ġmod ule
Har ry
** **
ĠL áº¡
Ġ9 20
âĢĿ (
ĠCh Æ°á»Łng
ĠÃĲ á»ĵng
cho Ã¡ng
ĠKa esong
B ike
Ġ( *)
12 4
L á»Ĺi
l Ã£o
m uá»ĳn
ĠEVN N
IN K
7 70
B Ã´ng
ĠTh ink
Ġev ent
19 65
el op
m ain
ch Ãłng
á»Į NG
Ġsá» §i
ĠPh áº©m
A FC
X Äĥng
Tr ans
ĠMar in
ĠDa egu
ĠM N
ĠI CTnews
ĠMon roe
âĢ¦âĢ¦ âĢ¦âĢ¦
Äĳ Ã³
P er
T Tr
ĠV iss
ĠB Ã³
ĠAllian z
ĠE S
ch áº¯c
Ġ4 25
Ġu á»ĥ
ĠMas cherano
Ġph áº£ng
ĠTa ekwondo
ĠT ol
Ġrup ee
B iá»ĩn
ĠHH VN
ĠPr ix
ĠCad illac
ĠAr k
n Ãºt
X S
ĠJe on
nh a
N áº¥m
Ġb áº¹
ĠDaew oo
b ele
ĠInter fax
ed es
Pak istan
ĠGH PG
Y ou
d ge
ĠEnter pr
ĠWell s
in fo
ĠSá» Ľm
10 6
Ġm á»ĳ
et e
x áº¿p
tr á»Ŀi
Ġá»¦ ng
TT CK
ĠVald es
ĠD oll
en ne
E n
s Ãło
ĠDem i
Ġph áºŃp
ĠMar ilyn
x áº£
ĠF ol
ĠPrinc ess
ĠK ep
ĠD ustin
ĠK iá»ĥn
ĠR ick
J ames
ub le
ent in
ĠAlv aro
Ġt uá»ĳt
ĠÄĳo áº£n
Ġo unce
Ġá» ¶
On line
T áº¤N
L en
Ġm ac
Ġgi Å©a
ĠGran t
j ar
ĠO PPO
ĠX Æ°á»Łng
ĠAl li
m áº«u
ĠAr thur
D aily
ĠÃ Ģ
ĠFal con
ĠUnivers al
n á»ĳi
ed ette
15 5
ĠS ton
Ġtr uÃ¢n
ĠH áº³n
ĠY uk
ĠWhats App
Ġrá» ĩ
ĠSull i
d á»Ł
ĠL ap
ĠmÃ´ t
19 60
tor y
ĠWil shere
ĠSecur ities
ĠAM D
ed ira
ĠV ip
b Ã¹ng
Ġchá»Ļ p
ĠPet rov
ĠPH AN
ĠDem bele
ĠK ub
ĠLin da
N e
L i
K em
j un
Ġt Ä©u
Ġg Ãłu
ĠF ore
ĠPh Ãłm
ĠHav ana
ĠK ap
ĠBarb ara
Ġl ed
Ġo Äĥm
H TX
ĠTur kmen
BC ÄĲ
ĠAn at
ĠSun rise
ĠVinac a
Ġ12 00
ĠRan ieri
w ick
ĠA qua
ĠBlin d
; âĢ¦
ne ider
ĠSir ius
thá» §y
ĠAl ess
ĠVina chem
UB KT
Ġr iÃªu
Ġpas tel
C á»Ļt
5 30
Ġng an
Ġr Æ°á»£i
av ia
ĠQu Ã£ng
tá» «ng
s ch
B om
y uk
ĠB áº¡o
Mos cow
S Ãłn
CM O
ĠAt lanta
ĠC J
Ġto asoan
ĠBob by
ĠEs per
ĠMar ch
ĠF old
ĠDy bala
Ġr á»į
M at
n Ãºi
ap e
ĠMil itary
Ġx á»¥p
Ġvá»ĭ n
chá» ¯a
ĠBlo g
ĠT ÃĤM
S outh
Ġcar ton
D D
ĠÄĳ iáº¿m
8 80
ĠJam aica
ĠVid ic
his ha
ĠOr acle
Há»į p
ĠEm p
ĠTaj ikistan
r áº¯c
ĠW ith
gi Ã³
Ġphá»§ i
Ġd is
net h
TN ÄĲ
Ċ Ġ
ĠD áº¡o
Iáº¾ U
Ġx imÄĥng
evel t
ĠPh e
ĠÄĲá» Ľi
le e
Thu áº¿
7 30
ĠP sy
ĠEx po
ĠO re
ent ino
g l
uc t
ĠM áºłNH
o ul
ĠP ico
IL O
ĠMik el
ĠH SC
ĠÄĳÃ ¬
ÄĲ á»ĩ
e em
ĠK ara
log an
giá» Ľi
ĠAlleg ri
1 19
th áº¥p
d ap
ĠSte fan
g ang
Ã §
ĠB oko
) âĢĿ
ĠT Æ°á»Ľc
ul f
P I
ĠE p
Ġ4 01
eth ad
ĠCV ÄĲ
Ġá»Ĳ ng
ĠGi use
M c
ĠC Ãły
Ch iÃªu
D Ã¢y
QL TT
enn es
ĠCy prus
ĠHo w
Chá» ©c
ĠB eg
ĠJenn ie
á»± ng
Ĩ Ĵ
Ġá» ©a
ĠRed mi
ĠVig o
ĠNg á»§
ĠC Æ¯á»ľNG
] .
ĠC lo
c us
ĠCh áº©n
ĠDi esel
G l
ĠVer ge
ĠB á»±c
7 90
ĠW en
Ġ30 6
ĠAct ive
ĠD at
4 10
ĠAd ele
Ġto anh
VA SEP
9 80
Web site
L áº§u
Ġm Ã©
ĠAir Pods
ĠX iÃªm
th áºŃt
ĠSal eh
S uper
ĠLe y
. âĢĿ,
Ġs áºŃm
et on
S un
l ike
Äĳ un
Ġg uá»ĳc
hÃ ª
Ph e
av en
atas aray
ĠS ey
Ġ3 99
ĠCol l
ĠHer ald
ĠAlexand re
Ġf rom
Ġgi áº»
ĠTr áºŃt
ĠA U
Ġw e
Ġch eo
Ġc opy
ĠD Ã¢ng
ĠG ur
ĠTh áº£m
ĠN áº¥u
ĠJ ens
ĠWol ves
ĠF ind
ĠB áº£nh
Ġ19 41
ĠD B
AR C
ĠIP S
Ġ27 8
ĠEsp anyol
C áº¥u
ĠDev elop
TE M
ĠD Ãłnh
ĠI owa
Ġphoto copy
Ph áº«u
ĠCA O
ĠArt eta
8 60
ĠG iáº¿ng
ĠDis covery
ĠNest lÃ©
Ġb áº«m
Ġtho áº¡t
Yam aha
ĠGi Ã¡n
ĠChi charito
ĠLe van
ĠAr ms
ĠHe at
akh tar
ist ic
ĠLuk ash
ĠWin ner
Ġhá» ·
ĠMahat hir
d ech
ĠAng kor
V IT
s un
uy en
Ġ9 30
ĠN KT
g Ã³p
ĠT áº¥u
ĠTuc son
an ov
Ġqu áº·n
Ġkáº¿ ch
r ie
ĠX P
t uyáº¿n
ĠH ard
T Ãºi
R ed
Ġr Ãªn
ĠF un
O b
ĠT iffany
h ong
ĠHo áº¡ch
ĠRak itic
H Ã²n
S martphone
v ay
Ġtr Ãª
ĠChan athip
ĠRM IT
s ar
ĠB áºŃt
Ġcot ton
ĠTT KS
x u
ng u
ĠKh Äĥn
Ch e
Iá»Ĥ U
ĠB Ã¡u
Ġrá» Ľm
ĠG ear
ĠTR Æ¯á»ľNG
ĠH ero
S eo
ch ang
Ġb Ãªu
ĠR oi
oC Nhiá»ĩt
x ay
Ãĵ NG
Ġk W
áº® C
ĠhÃ³ i
ĠAf rin
ĠHQ C
ĠBlue zone
ĠNN VN
ĠL áº¥p
ĠFut ures
il es
ĠSub aru
T áº¯m
U AV
ĠA er
Ġrá» īnh
ĠVSI P
ĠHuff ington
Ġchá»Ŀ n
ĠPV EP
P ep
T áº§ng
g art
ĠRe v
Ġr Ã²i
ĠLau ren
ĠTh áº£n
Ġt Ã¢ng
Y M
ĠV D
om an
16 5
nes ota
Ġ31 6
ĠRobert s
ĠN L
ĠGer man
Ġlá» «
Ġ26 3
ĠRoos evelt
k os
á»ĭ u
ĠYoshihi de
champ s
X a
Ġy o
ĠCong luan
ĠT á»ĳn
ĠOs p
m Æ°a
Ġ28 1
f ast
ĠBeyon ce
ĠFi eld
ry s
ļ I
Ġ27 3
D Ãłnh
ich ai
» ıi
á »ıi
ĠTh under
ĠPT I
ĠVin son
ĠMiss ouri
ar oo
im art
Äĳ á»ĳn
ain a
ch áº£y
ĠJan et
8 90
ĠUn ion
ĠcÃ³ i
at ive
F in
ĠMeg an
ĠA TNÄĲ
ĠBoat eng
iF i
P B
ĠSe ong
C rist
NT K
ĠE van
M iá»ħn
ĠNg áº¡c
ĠkhÃ ª
ĠBor ed
Ġthá» ĳ
Ġop era
U K
CC S
ĠMil ner
Ġnu Ã´ng
S á»ĳt
Tá» §
c Ã¢n
Ph un
ion al
lá» Ľn
oh en
B á»Ļt
ald eh
ĠR X
ĠB QT
ĠW ir
or gan
thá» ıa
ĠKH ÄĲT
K iá»ĩt
ĠLog istics
ĠT at
Äĳ á»§
Ġ9 90
ĠC ald
Ġn Ã¡y
yl an
d ia
ĠMar i
ĠAnd res
M á»±c
ĠC Ãłi
ag le
ĠEco Sport
Ġb aux
Qu Ã¡i
ĠKos ovo
ĠM ia
D UY
D inh
Ġ27 6
ĠE th
ell es
net t
ĠEco park
ĠBo un
ĠMay weather
R Ã¡c
Ġ en
Ġl Ã³a
t ÃŃch
Ġ all
n u
ĠÄĲT M
ĠIslam abad
ethad one
N XB
5 90
Ġt Äĥn
m Ã³c
Ġe Bay
ieg el
X K
ĠEng land
ĠNin ja
Ġan ti
ĠInd iana
8 30
ĠF itch
bient ap
ĠMar ri
ant ra
ĠGonz alez
ĠR áº±ng
ĠJ CPOA
ĠWal mart
h ua
ĠRic ardo
B TT
ĠTR á
ĠTRá »
ĠSystem s
ĠmÄ© m
ĠK won
ith u
or ama
m Ã¬nh
Ġban bientap
d it
ĠPark son
z ing
ĠKh edira
ĠMin nesota
Al bum
ĠT Ãºi
ĠS W
ĠTh is
ĠHeb do
S acombank
mp ic
BV H
ĠTh s
os un
ĠG LC
ĠPao lo
ĠSk ull
Ġs ne
Thá» £
ĠO M
ir d
j on
6 90
ĠD ennis
Ġ3 21
ĠE k
ĠT ul
ch ol
nh á»ı
nb ull
ly se
ĠK ok
ĠVe yron
thá»ĭ t
ĠI w
d áº¥u
ĠCh iáº¿m
Ġnghá»ĭ t
ber ra
ĠAndre i
Ġs ushi
ĠâĢ Ķ
all a
ick s
ĠAndre as
0 30
ĠB ast
I m
ĠHop kins
Ġ" .
W e
ĠV biz
PhÃ ª
Ġdi ez
ill on
ĠBu á»ĵm
Ġ4 13
r ik
ĠLight ning
9 60
ĠO ver
uc ation
F L
Ġthá» ĵ
Ġh Ä©nh
ĠS em
ĠLevan te
ĠGang nam
n á»ģn
c at
ĠCon cept
Ġj azz
ĠSh el
ĠAlex ei
ĠApol lo
l im
ĠM Ã¡
P D
ag i
ĠL ÃĤM
ĠAl ab
ĠG IA
ĠAl t
ĠR ussia
C Ã¢n
Ġá» Ľn
m Äĥng
ch Äĥm
on ic
ĠBl air
Ġth iá»ĥn
Ġcomp osite
n Äĥng
Cap rio
ĠÃ ģn
X Ã³a
ĠLá» «
is son
O r
R R
ĠLil ama
ĠL iam
Ġas en
Ġs ter
ĠF arm
D ani
eb ack
ĠRob inson
c Ãł
Nhá»ĭ p
BÄĲ Q
phá» §
Ġg ly
ĠCon t
c n
áº¢ NG
ĠGi áº¥u
Ġl uy
Ġng áº¥n
ĠY PG
ĠF actor
c á»¥c
Ġv áº¡y
Ġph uá»Ļc
Ġx Ã³
Ġk it
ĠO TC
Ġho Ã¡
ĠPH áº¢N
os p
ĠGCN QSDÄĲ
ĠTur nbull
Qu Ãł
s Æ¡
ĠK le
ĠHat ha
Ġghi m
ĠGeog raphic
ĠRa chel
ĠFel ix
Ġo áº±n
20 24
Há» §y
ĠQ SDÄĲ
ĠBR G
ĠH á»±u
ach er
ĠKh áº¿
ĠHu l
Ġ38 5
ĠSte f
Ġ7 60
Ġv edette
ĠBold sky
W ill
x á»©
ffi eld
ĠNix on
U SA
ĠVill age
ing o
Ġ Ã¡y
Ġr Æ°á»Ľi
29 5
Ġ29 2
ĠTr end
S JC
ĠRuss ell
his it
Ġ one
Ġph iáº¿m
ĠH eo
azz i
Ġ are
Ġ35 4
ĠDak ota
ĠA udio
ink i
ĠHal ey
áº¦ U
ĠÄĲT ÄĲ
ĠVIE TNAM
ĠRo usse
ĠAustr alian
ĠFernand ez
TR UNG
Ġ28 6
ĠV BÄĲQ
Ġ26 6
ĠKy le
ĠBa ek
ĠC ÄĲT
ĠESP N
ĠSam dech
olo gies
ic ia
J ustin
ne ft
ĠAss oc
Qu Ã¡ch
ĠSte v
ĠP Ã¡c
ph etamine
ĠÄĲ ÃĤY
ĠBrah Mos
19 81
ĠK sor
ast ar
l ess
Ġs port
ĠC Ãłnh
ĠSh u
d Ãłnh
ĠMas on
B R
Ġm Ãµm
Ġs hisha
ĠHD R
ĠSá» ıi
Ġrá» §ng
19 84
âĢĻ )
ĠCes ar
v ez
V Ã¢ng
d ul
ĠDi Caprio
Ġoff line
19 59
Lo ading
d ung
Ġ- >
Ġ6 90
11 8
ĠFl appy
Ġs up
r á»«ng
up ol
) ".
es port
etro it
ri er
ĠSch neider
00 2
Ng Å©
az ine
ĠLind say
ed er
k Ã½
Ġ Ãºa
ĠJohn s
ĠDu áºŃt
ĠHatha way
ĠOr ange
ĠN orm
Ġ28 2
Ġ30 3
C ard
ĠC TÄĲ
ov ers
ĠD Ãª
ÃĶ tÃ´
Ġx á»ĳc
TH U
ĠA sen
ĠMos es
Ġs ÃŃnh
ĠAth letic
ĠMon te
P CCC
C Æ¡m
R os
Ġ25 3
ĠHous ing
ĠEd in
ĠÄĳá»§ i
or f
ĠH M
** *
Ġ9 80
ĠT iáº¿u
ĠA Z
tr á»Ļm
ĠC ohen
ff et
10 7
ĠAb hisit
ÃĬ M
ĠW ins
ay ev
ed i
Æ¯ NG
ĠPhÃ ¨o
Ġn á»ĭch
T Ãłng
ĠR B
14 2
ĠT CN
Ġtr Æ°á»£ng
ÄĲH QG
ĠH iáº¿m
ĠK ind
ĠStr at
Ġmag ie
R u
V Ãłnh
Ġn áº±ng
ĠSo und
ĠG á»«ng
l á»ĭch
ĠV DB
ĠI CC
ĠFul bright
W EF
Ġ6 75
v áº½
Ġ19 44
ĠCl as
13 7
ĠRom ero
ĠHil ux
z Äĥng
Ġáº¢ ráºŃp
12 7
ĠCan berra
ĠZh ao
á»Ĳ c
Ġngo áº£nh
Ġs Ã¬nh
Ġ40 5
ĠDes champs
Ġ00 7
77 7
Ġ31 7
Un ited
Ġqu áº±n
ĠT ÃĤN
l Ã½
n Æ¡
ĠBay er
' t
O s
b ak
au er
el i
K E
Ġr inh
s berg
ĠKhal ifa
ĠM á»ĩnh
Ch iáº¿m
ĠS J
Th iá»ĩt
ĠTB KTSG
ĠEn d
arag ua
Ġáº ¨m
Ġt Ãło
ĠV O
Ġd iáº¿m
m id
ug a
A TTP
ĠCh áº½
27 5
ĠMu Ã´n
uk ic
aw an
ĠHel lo
X iao
y on
ĠTh ua
ĠSp ot
Iáº¾ T
od om
ĠPV T
he e
Ġur ic
Ph Ã¡i
ĠAr iana
ĠL T
ĠPh Ãłn
12 1
ĠL á»į
ĠG áº¥m
Ġ4 99
ĠFri ed
ĠSoft ware
c as
ĠTIáº¾ T
sh ine
ĠUt ah
ng hÃ
ĠF ant
ut i
ĠÄĲ KDT
is ic
25 6
13 4
¡ i
ra v
j ad
asc ara
ĠCot ec
ĠZakhar ova
or ia
ĠHud son
Ġ28 3
Äĳ Ã¨n
t iáº¿t
B TNMT
ĠFlor ence
ĠC á»ĳt
ĠCh ern
ĠVers ace
b Ã©o
B áºŃt
Ġd Æ°á»£t
Crist iano
L á»¯
ĠK agawa
Ġg ar
ĠM it
? '
Ġsho pping
ĠÄĲ iÃªu
ĠÄĲ Ã£ng
Ġnh oÃłi
á»¥ n
ĠSt u
ĠMend es
Thu Ãª
13 1
ur ai
C Q
ĠPh am
Ġol iu
In ternet
ĠE CMO
ĠD Ã¢u
ĠEur ope
ĠThá» £
ĠBar c
S á»¹
ĠChi bi
e aux
m áº¯c
S ol
ĠTr áº¡c
Ġ4 75
19 70
qu áº§n
ien ne
m al
ĠKenn y
Ġs ÃŃt
Ġlá» įn
Ġng Ã²m
ĠBlack burn
ĠmÅ© m
t z
M Ã¹i
Ġ7 70
8 70
ĠE le
os in
ĠR id
ĠBib ica
S áº§m
ĠKh áº³ng
ĠHimal aya
er mo
Th an
ĠhÃ ¹n
Ġd áº±ng
Ġ55 5
Ġlo Ã¡t
ĠG au
Ġ 000
ĠGP U
ch Æ°Æ¡ng
ÄĲ á»ĵn
ĠKush ner
( *)
ĠK ien
Tr i
ĠL Ã¡ch
ĠK wang
ĠR ag
ĠHá» Ľn
13 6
u ong
16 8
rin ka
ĠKhÃ³ i
ĠNev ille
N issan
dap lus
ĠP and
ĠNg á»įt
ĠM PV
ĠCel ta
ĠB eo
ĠB Ãºn
Nghá»ĭ ch
ĠPr iv
ĠA DM
19 77
ĠCL IP
Ġm Æ°á»Ŀng
ĠP att
r ico
Ġbox ing
Ġnh Ã²e
ĠK anye
ĠUn i
Ġ40 8
Ġl act
ĠÃ ĵ
po int
ĠYat sen
ĠO TT
ĠJosh ua
H V
ph in
Ĭ CH
ĠM k
Ġngo áº·c
Ġgi Ã£y
ĠA D
th ai
aw rinka
ĠCaribbe an
Cl au
ĠDe an
ĠTurkmen istan
S en
T KV
ĠMSC I
S he
l áºŃp
end y
B ill
lin k
Ġnh Ã¨
Ġchá» Ľi
Ġng hÃŃa
eta fe
ak es
» Ĵ
ĠN TC
4 35
ĠNaval ny
á »Ĵ
ĠBa e
ĠBeng al
In f
ĠFrank lin
Ġcháº¿ ch
ĠViet Nam
ĠN ation
tr á»ĳn
khá» Łi
ĠA ff
Ġbl azer
ĠChalle nge
ĠM Ã¢m
8 10
iÃª p
) âĢĿ,
ok i
Ġ19 42
Ġto Ã¡c
8 20
ai se
ĠQu Ã¡t
ĠJ esse
es te
ch in
ĠFortun e
es land
P o
ĠB áº¿p
ĠC NG
ĠTá» §
ĠZ ah
ĠX iáº¿c
Ġx áº¹p
12 9
Ch áºŃm
ĠR Ã¡c
Ġm Ã²i
ĠHá»Ĺ n
n ow
Vietnam net
ri en
ĠL ÃŃnh
os tr
° NG
ĠHo kk
ĠÄĲ oa
ay e
Ġ8 70
ĠHo REA
Ġsc an
Ġqu áº¡i
ĠY ellen
19 83
Khá» ıe
ĠCa fe
th áº±ng
Bao dautu
ĠEx xon
ĠY en
ĠV ie
19 61
ĠTCC N
L áº½
ĠTechn ologies
ithu ania
Ġ8 10
Ġf ax
ail ly
ĠL iz
ĠN ishi
pa che
ĠlÅ© i
Ġd iá»ħm
Ġ30 7
ĠTh iá»ĥm
ĠB LV
ĠBer g
V áº¡n
V oi
Ġch Æ°á»Ŀng
ĠBl an
ĠP om
ĠL if
co unt
N L
ĠÄĳ Æ¡m
bat ov
ĠL Ã³ng
ĠM itt
Ġng á»ķ
ĠD P
ĠE instein
ĠWom en
m iáº¿ng
IA EA
ĠWAG s
ĠAy un
Ġblue chip
r ina
Ng Ã£
ĠJ erry
VN A
Ph iáº¿n
ĠE y
ĠH ell
ĠN ova
ĠCar e
ĠM Ä©
Ġd iá»ĩp
S áºŃp
M á»«ng
ĠW iFi
ĠAlber to
oz a
ĠJon as
B áº¿
ĠD etroit
CP C
ĠTHA CO
Ġdá» ģ
ĠP AC
ĠGiá» ıi
ĠTh áº¡o
ĠTO P
Ġbá» ¥
PH áº¢N
G H
ĠP ele
am el
ĠMar awi
ĠK Ã¬nh
ĠQu i
ĠCh ay
iÃª Ã¹
ph e
ab let
Ġ26 1
Ġs andal
u j
ĠS martphone
ĠHo m
7 40
ĠAcad emy
19 74
ĠKH KT
ĠBat man
Ġm Æ¡n
ĠClass ic
Ġd ec
yo ung
Ġki wi
hi d
BGD PL
ĠkhÃ ªu
ĠVel vet
Ġ33 6
ciel ny
Ġth at
es o
ĠB Ãło
ĠAm ber
I PA
ĠCh au
Ġchá» ĵm
ĠPart ners
ĠGD ÄĲH
ĠEm ery
2 45
ĠWr ight
Ġ(? ).
F DA
ag lia
ĠRe us
Ġ58 4
ĠY eo
ĠS ym
Ġ26 9
há» §y
or la
ĠChi ld
ĠOre gon
Ġvá» ±ng
M its
stan tin
ĠU cr
ic ot
ĠHS MT
ĠÄĲ Ãłng
ĠMon tr
ĠBos que
b Äĥng
ĠSo fia
kh Ã¡c
ĠHokk aido
H ari
ĠMu ammar
ĠAnaly t
» ¤
5 01
19 64
ĠH els
el ess
ĠV E
C u
ĠH eng
Tr Ã´ng
so Ã¡i
ĠWan bi
Ġdown load
ĠAir b
if y
ok u
ĠA il
ĠI ker
ĠW y
ĠÄĲ Na
ĠA ero
ab et
Ġváº» n
Vic tor
ĠL ast
s á»Ŀ
Ġco cktail
ĠCar ey
et er
ĠX O
ĠN Ã³ng
9 30
Äĳ Ãª
Bá» Ĺng
ĠSeung ri
ĠJun cker
ĠChampions hip
ĠKuznet sov
F e
K e
ĠE L
ĠS ide
Ġ7 40
ĠDe ad
Ġs á»įt
Ġu á»Ļt
ĠO z
ĠNic aragua
F err
ĠK iss
ĠPr ince
00 5
á »¤
tr Ã¢y
kho áº£n
A udi
26 5
ĠGal atasaray
s áº¿p
Ġtá»Ń u
han ouk
ĠT ea
ĠServ ice
Ġho p
ĠX R
15 2
19 78
Tr Ã¹ng
ĠD irect
ĠANT Q
v id
ĠC Æ°ng
ĠOr ion
ch áº¡m
âĢĿ ),
ĠCh at
ĠD um
ĠE A
eg ro
ĠZur ich
ĠA IM
ĠChi p
ĠSum it
ĠClau dio
ĠthÃ ªnh
r ac
Th ai
ĠX en
S il
ĠAR M
Ġxá» īa
ĠP ui
DNN N
Ġlá» ¥p
f ile
t iÃªn
ĠGun nar
w ord
ĠSa w
alan ta
ĠTN LÄĲ
oo c
lad bach
ĠV ÃĢ
pho on
ĠKar en
ĠS ew
iF ood
ĠF ai
Ġlit hium
ĠK Ã¬
ĠL á»ģnh
ÄĲ Ã¢m
ĠLu ck
z ukic
ĠM ito
A ll
Ġv áº§ng
ĠL áº¯p
Ġtrá»« u
ĠL ook
av al
ĠD á»«ng
utt gart
ĠGre y
F E
ĠT áº£i
ĠVH M
c ab
od ia
ĠD ipl
Ġb allet
Há» ıa
ran t
R ich
Ġcort icoid
b ot
ol on
Ġg há»ģ
Ġng Äĥm
ĠKum ar
Ġgá» £n
ĠAtt ap
ĠPict ures
9 70
Ch áº¥m
Ġ37 1
av irus
l á»Ĺi
st agram
ĠClas ico
ass em
ĠH is
ĠTh oan
Ġ5 25
ĠP ia
ol ution
ag ne
ĠSum atra
ĠCNH T
ass er
P E
ĠK ona
yn os
ĠHu á»ķi
nh Ã¡i
g áº¡ch
ĠHD V
g ue
ĠM Ã¡ch
w itter
19 5
ĠTr Äĥm
ĠP ose
ĠZ hou
ĠHum m
ĠNat ure
G roup
t Ã¢n
ĠI ll
ĠMold ova
Ġhá»§ i
ĠWe Chat
ĠMur phy
Ġ3 23
nd ai
14 4
ĠGiuse ppe
l áº¡c
Ġd áºŃm
en ei
c or
ĠJ Ãºt
ĠX s
H ome
ĠDav os
ĠV SD
ĠN it
re gor
VAM C
us o
ĠM ÃŃt
cÃ´ la
Ġ4 35
ĠR ab
ĠFel ipe
v áº¿t
Ġ25 9
Ġ36 3
ell ini
g áº¥p
ĠMoham ad
es is
Ġba by
Ġ28 9
Ph áºŃt
12 2
ĠWars aw
Ġt Ãºp
ĠS Ã´
Tr inh
Ġ9 18
ĠCon cert
Há» ĴNG
M aster
ĠRom eo
g d
ĠH MS
Ġlá» ĥ
ĠGD NN
Mits ubishi
d om
on n
ĠA DIZ
A X
Tr Ã¹m
ĠGi gi
17 6
Ġser i
Æ¯á»¢ NG
ĠLe eds
Ex imbank
H oan
ĠRousse ff
ĠT iá»ĩn
ĠT enn
ĠAd el
Ġl áº©m
p et
hi ro
ĠSC R
ĠJal il
TN GT
Ġqu áº¡
Nh anh
AM G
ĠF oster
Ġ4 15
ĠG MS
ĠN C
ĠL á»ĵng
ophi e
Ġqu áº¡nh
ĠT áº¯m
ĠP ick
Ġm uá»ĳt
ĠD ick
ĠVer izon
ĠH ui
ĠXo ay
á»ģ u
m ers
ten egro
Ġbaux ite
Ġ7 10
ĠA pache
26 8
s ing
M Ã³ng
ĠVina food
Ġthá» Ľ
ĠKaz an
ild ing
ĠGS M
k ina
m inh
ĠVin Mart
V á»Ł
x ia
18 5
ĠSh akhtar
22 2
c á»Łi
d Ã¬m
ĠV Ã²
ox ide
3 19
ĠMus ta
ĠG Iá»
O cean
g á»Ńi
ĠHá» §a
ĠAtlant ic
ĠM iá»ĩn
ch áº¥n
ĠSh ell
ĠB eta
Ch arl
ani um
ĠFlor entino
ĠL ike
Ġchip set
ĠMus tang
ĠRog ers
Ġnh em
» Ľc
á »Ľc
ĠF ad
is lav
c umin
Ġkh eo
uch el
KhÃ ºc
ĠKham enei
en kov
AT XH
ĠF E
ĠK amp
il s
ĠMed ic
V Iá»ĨT
ĠKh Æ¡
ĠYu an
Ġ32 6
ĠKos cielny
r er
âĢ¦ "
ĠC ow
Tok yo
ĠM E
ĠG áº¡ch
ĠC AT
ĠÄĲ em
ĠM ake
25 5
ĠK Ã¨
Suz uki
ĠG in
ĠL omb
ĠQ S
ĠK iáº¿p
Ġ31 4
V ol
hÃ³ t
NE T
erm ain
ĠI ce
ĠV ovinam
ĠBol t
b Ãª
ĠÄĳ iáº¿ng
ĠEx ynos
ĠphÃ ºng
ĠAr my
G reen
ĠTom my
ĠShe ffield
........ ........
7 10
3 75
ĠQ PR
ĠBRI CS
n s
ĠEm dep
R ON
x trÃ¢y
Ġw hi
ĠRos ario
N M
l Æ°u
20 5
Äĳ Ã²n
ĠPar a
ĠL á»Ł
ĠK D
ĠCh em
ĠV Ã£n
ol an
Tay lor
Ġng áº¥y
Ġthá»§ i
Ġthá»§ a
at ing
ĠBr emen
Ġ8 40
g ian
Ġ3 11
ĠS uez
M áº£nh
man i
m Ãłn
ĠS ik
og ne
R om
Ġphá» Ŀ
Ġ36 7
EA M
Ġform at
echn ya
ĠS TEM
ĠT ass
ĠJi ang
ĠAQ I
C Æ°á»¡ng
ĠN az
ĠRe ap
EO N
ĠJo el
f ul
bb s
nh eim
ĠEl antra
ĠL ithuania
ĠPol it
ĠD in
ash tag
b Ã´i
S oi
ĠCS ÄĲ
Ġy our
ĠJul ie
ĠCol lins
Ġdá» Ńng
ĠCh ase
J ose
ta wa
ĠMargar et
khá» ķng
ĠÃī n
iet y
ĠSC TV
ĠRaf ale
21 5
i ent
M ail
ĠÄĲ N
Ġvol ley
et amin
13 3
ĠMarsh all
ĠghÃ ¬
Ġl Ãªu
Ġs it
ĠEd ucation
Ġphá» Ľi
S iáº¿t
ĠN Ãª
ĠT Ã¡t
15 8
ĠIndustr ies
Th Æ¡
Ġlá» §ng
ĠS áºŃp
Ġdr ama
H ang
Ġb alo
ol ski
S SI
yd e
G ermain
ĠBian fishco
ĠH ague
ĠHur acan
w ing
ĠMu á»Ļn
ĠF ac
ĠMarri ott
r ell
ĠLá» £n
ĠSz cz
Lá» Ĺ
F estival
ĠHO A
ĠBak er
G a
V S
k iáº¿m
z man
Ġb á»įng
ĠT CB
ĠB orn
Ġrub le
Ġv ac
ĠN BA
ĠBro thers
ĠGHPG VN
ĠN ina
ĠCh áºŃm
ĠJ oy
Ġngu á»Ŀi
Ġg roup
EC H
Ġchá»Ļ t
G á»£i
Ġg á»įng
Ġ- -
Ġ27 1
ĠLan c
0 24
L Ã²
Nghá» ī
evi ew
ĠIP v
o ai
ĠCaz orla
LA CK
ĠR á»§i
was ong
x Ã¢m
ĠBr yan
S mart
thá» «a
ĠNor odom
Clau de
Ġ31 3
X UÃĤN
ĠÃ ¨o
ĠR ao
ĠAdam s
Æ° m
ĠhÃ ¢u
15 6
ĠNig er
Ġm ao
ĠB ok
ĠCh echnya
ier ry
ĠPC R
d áº±n
ĠJenn y
T iá»ģm
Ġqu áº¯t
ĠKe ith
ĠCS ND
ĠMah rez
ĠR ush
ĠEv o
ĠCho e
c uá»ĳi
f eng
ĠP uy
ĠSi hanouk
ĠPray ut
xx x
lin er
tá» ©
ĠPh uk
ep ard
ĠHa aland
ĠJav ad
ĠRac ing
l Æ¡
ĠHor net
ĠP PC
ĠR as
ĠPra ha
ĠPer eira
ĠTr oll
Ġbu ffet
k n
w orth
Ġnh áº¡i
Ġth Äĥn
Ġná» ı
Z or
ĠÃĶ tÃ´
ĠFl ickr
ĠS oi
ĠHD MI
áº¤ y
ĠN oi
ĠDu al
ĠS oy
ĠYe ah
ĠG y
ĠNh áº£y
ĠCA D
ĠO to
Phá» ¥c
ĠTr ÃŃch
D j
um e
ĠWood ward
Thá» īnh
ĠChu Ã´ng
M Ã¢m
ĠST ART
nh u
ĠÄĳÃ¬ u
B TS
ĠPlay er
Ġ4 19
v ili
is k
i h
ĠG row
ĠP eng
K á»ģn
Ġ31 8
ĠH Ã¹m
Ġu áº©n
acet amol
for man
ĠTom as
ad ow
IN I
ĠADM M
Ġv oucher
ĠR ong
Ġs logan
Sp utnik
ĠG ent
ĠL Ã£n
ob a
H K
ĠÄĳi Ãª
ĠSol ar
ks hire
ĠR á»Ŀi
Tr áº¡i
Kh en
ĠC ip
N SNN
ĠTC VN
p ole
D an
ĠS ANA
ĠR el
ed ge
v ir
Â ³
Äĳ Ã¡p
ĠM M
w at
is es
ĠVan essa
Ven ezuela
ĠF eng
B uá»ĵn
R áº¯n
ĠChu á»Ļt
ĠBr end
ĠL I
Ã¬ u
as co
g il
Ġ38 4
ÄĲ o
Ġv Ã³n
Ġb áº¹n
ul ith
ĠH VG
Ch ang
ĠF M
ev ich
Ġ50 5
Ġkhu Ã¢n
Nh áº¥p
Ġ30 9
ĠVol od
ĠW awrinka
G ap
18 2
B itcoin
ĠTH ÃļY
Ġ09 149
ĠCons umer
el ino
ĠPr Ã´ng
13 9
26 900
ĠSe arch
ĠV JC
g it
ĠKalin ingrad
ĠT NG
P ower
c io
Ġ32 8
ĠG O
ĠU H
Ġc p
Ġ asp
C ovid
Ġl iá»ĩm
ĠB ing
Ġ8 60
19 8
ĠFri esland
Ġlo áº¹t
Ġ09149 26900
Ġm ascara
ĠMer lo
he an
yd er
t Æ¡n
18 3
Ġfol low
ĠNghá» ī
ĠGM D
ĠY ear
Ġm ad
T y
SD L
AS T
port s
Ãģ CH
ĠVes ak
ĠR ik
Ġ28 4
Ġhand made
l áº¡i
at ure
ĠW erner
66 6
ul ar
sw orth
ĠS int
rys ler
ast opol
ĠSC G
H ighlight
or ies
ĠR á»©a
Ġta ekwondo
I bra
Ġyo utube
ks how
ĠL DP
eria l
ĠVin am
01 6
T Ãļ
ĠAnd ers
G old
ĠCy ber
ĠkhÃ ¨n
Ġk á»ĭt
ĠErik sen
há» ĵn
ĠTy phoon
ck i
ĠNut iFood
Ġx á»ĳt
we ek
ÃĴ O
ĠG etafe
et y
ags hip
avon oid
ĠAT R
ĠPar aly
ph Ã¡o
Â ·
ĠI g
ĠQu Ãł
ĠW ifi
18 9
l áº¡m
ĠPh un
ĠCh áº¥m
ĠFA O
ĠRom elu
TT Y
ĠL ille
ĠZo om
J ICA
Ġn áº¹t
ĠW as
3 25
ĠNg Ã¢m
Ch anh
ĠM ick
ĠX iÃªng
Ġnh Ãºm
ĠB Æ¡
ĠFal ko
O ECD
há» ıi
® U
l Ã£i
ĠU BS
K at
ĠÄĲ Æ°á»Ľc
am o
col m
ĠSton es
B QL
j al
agas car
23 4
19 62
Ġnh Äĥm
Ġx Ãµa
ob i
mon ella
ĠVic ente
ĠMo us
K arab
S ch
ĠPose idon
V AMA
ĠH wasong
ĠHá» ħ
ĠHels inki
ĠÄĳ áºµng
14 3
if ood
ĠM Q
ĠTá» §a
ĠH áº¹n
ĠMand zukic
Angel ina
ap est
ĠTIáº¾ P
ĠNg Ã²i
phen ol
ĠJar ed
ong hean
ĠDav ies
Ġqu Ã¡nh
ĠGr ig
Ġ5 45
ĠChrist ina
ank e
ĠServ ices
eth er
ĠJ ud
ĠPray uth
ĠNG Æ¯á»ľI
uz u
eth ao
ĠH in
V y
ĠG ust
ĠOt tawa
ĠMW C
Ð ¾
ĠÄĲ Ä©nh
ĠL L
Ġl Ã¬m
G eor
G rab
ĠÄĲ áº³ng
thá» £
ĠSam an
ĠLukash enko
ĠFPT S
C á»Ŀ
ĠNg u
ot ion
m ont
âĢ ĭ
Karab akh
Ġenz ym
ĠTrium ph
ĠBald win
Ġ19 43
ĠÄĲ áºłI
ĠB uy
ĠF V
S el
R am
tr á»ĵng
es ny
ĠU áº©n
ĠP ent
PC W
ĠLu zon
ĠSt uttgart
ThÃ ´n
Ġ us
B Ãºn
H áº¡ng
Ġgar age
ĠDim it
ĠB áº¡
ĠSo ul
Q atar
ĠD iva
19 71
oz nia
ĠBet is
9 40
udi os
ĠMon tenegro
ĠP Ã´
ĠIs hi
ĠHam id
chÃ ¢u
Ġch Æ¡
ail and
ĠNao mi
ĠD HA
as ha
Th áº¯p
ĠB áº¯p
Ġ6 25
Ġc lo
ĠViss ai
ĠOut lander
ĠErn est
ĠD ana
ĠMag n
j ing
Ġr áº¯p
ĠMira ge
ĠO K
ĠWol ver
ĠMau ricio
V á»ĭnh
ĠV FC
ĠxÃ© m
ski y
ĠFuk uoka
ĠBil d
ĠK á»ģn
ac ca
J o
r au
y t
Ġd ÃŃu
ĠA x
ĠBer batov
Ġhu á»ĩ
Ġ ez
ĠF au
ĠV all
Ġ32 7
ĠOl ivia
ĠS OM
ĠPar ad
ĠNich olas
s chool
ens tein
ĠW er
ĠLouis iana
az ette
22 6
ĠCro wn
Ġvu á»Ļt
qu á»·
Ġr áº¯m
ai d
ĠGD PT
ch eng
ĠT áº¯t
ĠC ode
Ġnh Ã³
Ġn iÃªu
ĠS iam
00 3
ĠVP B
b Ã£i
ĠT ien
ĠR and
t áºŃn
ĠJam al
Ġtu m
ND T
Ġ19 39
ri y
m Ã©t
Ġá» Ńng
ĠP Ã¡o
nh áº¹
Ġk ar
Ġá» ļt
UY áº¾T
B KH
ĠN áº·m
ĠT usk
gi áº¥u
ĠAN TV
N ad
Ġf r
ĠWar ri
ĠV ista
ĠCS KA
ans son
ĠLy bia
Viet lott
Vn express
Ġ29 3
ĠHumm els
ĠGo et
ĠBer kshire
C ry
ĠMontr eal
Ġur Ãª
ĠÄĲK XT
ĠthÃŃ m
ĠCh op
enc ak
ĠHe ad
Ġ( ~
Ġ40 2
ĠNov aland
ĠHuy ndai
ĠM ess
s tein
ĠK il
im an
Tho Ã¡t
ĠS yn
ĠFi esta
Ġ(?! ).
ĠD á»±c
ı n
ÄĲ iá»ĩp
ĠÄĲS VN
Ġv iÃª
im ov
P an
ĠE ug
ĠSp iegel
ac ao
c oli
th ep
C oi
T ui
ĠL Ã¹
13 8
ĠMidd leton
CS VN
ĠGu ang
c á»Ļng
oa h
Ġ5 33
ĠÄĳÃ³ m
Ġba king
Ġnh á»ĳn
ĠcÃ ¢
ĠSil v
c Æ°á»¡ng
Ġta g
24 6
C ERT
ĠGrab Bike
ver de
B Ã¡t
Ġngo áº±n
ĠX Æ¡
Ġcr Ã´m
ĠTT K
ĠN FC
ĠH amp
ĠFood s
Ob ama
ÃĶ I
ĠPa j
ĠN iu
ĠF low
ĠSP DR
ĠWin ter
ĠH au
NG UYÃĬN
ĠBuk it
l á»įt
0 36
PA C
ĠCur ie
20 2
phi s
ĠY ulia
ĠWood s
ĠTo k
t áº¥m
ĠâĢĿ ,
m á»ķ
Ġfashion ista
as ia
ĠH m
b Æ¡m
Ferr ari
ĠPC TP
ĠOp t
ĠBlack Pink
PC O
is ol
ie ng
Ġl á»¯ng
ĠSt udios
X inh
ĠN ab
ĠHá» §
B lo
Ġbá» īnh
19 66
ĠJe ep
ĠD ylan
ĠPhuk et
en ue
ĠP asc
ĠSiem ens
P le
Ġ8 80
ĠT uchel
Ãģ T
Ġcom eback
ĠAlab ama
ĠBav aria
' ...
Äĳ á»ĩ
ch ange
ick er
l Ãłn
Ġb Æ°Æ¡u
ĠG ao
ĠH oney
Ġ5 99
ĠSev astopol
ĠNatal ie
G ar
ĠWeek ly
ĠB uá»Ļc
ĠAd d
ipp on
ĠB Ãº
ĠS BT
an ao
ĠSte gen
uz a
ist ar
W C
ĠDA TC
B el
Ãģ O
t uyÃªn
ĠF SA
ĠE t
ĠTT YT
S m
Ġ5 75
ĠBord eaux
ĠKh ao
' ).
ĠQu anh
ell ig
ĠÃª kÃŃp
ĠÄĲ ÃĮNH
19 44
Ġh ist
ĠCas ino
ĠOle g
b Ã¡t
ĠTenn esse
G á»«ng
T p
ĠS ex
ĠMor eno
Ġnh e
ĠU tt
T ek
ĠTG PL
Ġ4 11
ĠAki hito
Ãģ i
u eta
ĠMoun t
ĠNg oáº¡n
Ġrub ella
II B
ĠAbram s
R Æ¡i
19 63
ĠKras n
ĠDoll ar
B BC
ĠU K
19 9
IS S
ĠN á»ķ
ĠkhÃ ¨
ĠShim bun
K iáº¿m
ĠR ost
ĠVietnam obile
ĠSun shine
ĠPlan et
Y D
ĠL iá»ģn
ĠVert u
t Ãº
ĠMal colm
ĠMR CC
P INK
ĠRa fa
ĠSá» £i
ĠCh osun
ĠZ ero
ated o
I CBM
ĠTr áº¯c
ĠKH OA
ĠS iso
ĠO ri
but amol
Ġp er
lah oma
ĠGle i
ĠV W
ĠAt alanta
ĠLit va
Ġm Ã³t
ĠB áº¯n
ep o
ĠMor ales
ĠM G
d áº«n
ĠMay bach
ĠM ei
Æ¯á»¢ C
ĠMc Con
Ġ ..
LACK PINK
ĠH adi
âĢľ ,
ĠWeb b
ĠCh áº£y
ed e
ĠDI FF
ĠcÃ³ ng
HÄĲ BA
ch es
gh en
k orn
ui gi
ĠPhilipp ine
ine jad
ĠP Æ¡
re at
ĠâĢ Ļ
Ġl Ã¨
d Ã²ng
Ġ37 2
Ġb ina
ĠTr ib
Ġt áº¡nh
Ġmod em
ĠBud apest
ĠC ob
ĠHo pe
le v
f al
ĠNg áº¯m
ĠGi z
ĠCh ua
ĠPal ermo
Ġ29 6
og h
RC EP
ĠMetro pole
ĠZ ag
C Ã¡m
Ġ32 9
ur u
Ġgiá» ¥a
ET RO
ĠGi b
ĠSzcz esny
ĠHo áº£ng
Ġtho Äĥn
ly wood
ĠDo uma
as in
Q ue
ĠmÃ¹ n
av es
ĠS AT
ĠN ong
ĠSad dam
b is
ĠNhá» ¯
B OT
com Bank
ĠL ohan
ĠNapol eon
ere um
uck y
g roup
ĠGen oa
3 45
Ġnet izen
ĠK ud
ĠG á»ĳc
OS AI
' +
ĠLe one
ĠHai ley
ham phetamine
acc in
Ġn icot
ĠAss et
ĠM eng
H áº§m
ĠTot al
ĠThu Ãª
ĠAm anda
ĠSEA L
Ġ55 9
eb ay
Ã¢ p
i Pad
ĠP BGDPL
est in
CN T
TE X
ĠCh on
áº °NG
ĠT yl
Ġr á»¯a
izz ie
Ġshi pper
s om
ĠBlo om
ĠCer ato
2 99
ĠKh ay
d ale
Ġtá» Ŀi
ĠMag ic
l ife
x b
ng áºŃm
ĠH ank
id al
tr Æ°á»Łng
ĠFu ji
ĠB ou
Ġr áº£o
M od
Ġng á»ĳ
ĠD ion
ĠTr iton
ĠMark ets
B ia
Ġmang an
kho a
t Ãª
21 8
ĠH Iáº¾U
lo un
Xiao mi
w ha
CS T
Ġm om
Ġngá» ¥p
ĠGi ven
ĠDu ke
ĠTh ierry
ĠCh eon
CN CH
Le icester
ĠDav e
ĠKL GD
ĠDipl omat
Ġlá» įng
ĠSh yn
ĠP ag
ĠA man
ĠNS X
cr ai
l Ã¡i
01 5
fri ed
B us
Ġqu áº©y
ĠM áº£nh
EP R
CI EM
ĠKe ane
ĠSan cho
tr uy
ĠKir k
Ġgi áºŃm
ĠFil m
ĠKhal id
ĠF iat
ĠNav y
ĠKyl ian
Bo as
ĠR á»ĳi
ĠGE TTY
ic y
ĠOd essa
p ilic
ĠH SD
ĠB TR
et to
ĠA EON
b á»¯a
V R
ek e
ra g
ĠPan etta
ĠKiatis uk
s ha
ĠD eng
Ġ33 4
H á»ķ
ĠMon ster
ĠPh Äĥn
as ak
ĠPr ot
ĠMad e
9 10
ĠSum mit
há» ķ
16 2
o on
r á»Ńa
st ad
ĠBl ake
ĠB Ãºp
Ġ5 85
ĠR ut
ĠT ank
Ġsil ic
ĠP SV
ĠWS J
ĠAd en
K ahn
S ay
Ġ36 4
ĠCher yl
pilic ueta
R á»§i
n m
ĠI E
ĠY ale
ĠPuy ol
Y ÃĬN
b áº¿n
ChÃ ªnh
Ġch ong
ĠOk lahoma
Ġk iá»ģng
E d
Ġ9 01
C ÃĶNG
et ox
A FF
Tech combank
ic ut
Ġ34 9
ĠSimp son
ĠE agle
ĠMad agascar
ĠL on
l áºŃt
itz er
c ong
00 4
ĠSiso ulith
uz aj
Ġb ook
Ġb lo
ĠOp tim
ĠB ailly
us ha
Ġb Ã´n
ĠCent ury
ĠSand ra
Ġal umin
k al
ĠHu t
mand u
H á»ĳ
m áºŃt
22 8
ĠKo eman
ĠPod olski
Ġm Ãº
Ġh iá»ģm
ĠLen in
L au
ĠVn Media
ĠZ one
V ay
Ġ39 5
hÃ ©p
ĠGi áº£n
b Ã¡
Ġx Ã©p
Ġl Ã¡y
ĠL loyd
ĠMTTQ VN
ĠD E
un o
ĠAndre y
B á»į
ĠD uÃ¢n
ĠZ hi
tr áº£m
H i
ĠMeg astar
b á»ĳn
ĠBa h
t áº·ng
ulo use
ĠB MI
Ġph áº©y
KTT V
ĠPlat ini
Ch ina
Ġnh á»Ń
ĠTá» Ľ
ĠTo ul
ĠSew ol
ĠAttap eu
ÄĲV O
TC TD
Ġvi olin
ĠTennesse e
ĠPark inson
am co
ĠIU U
Vi ew
Ġv áº¡m
ĠV á»±c
Sau di
PM organ
Ġ43 2
» ®
ĠKer ch
ĠSpec ial
F actor
ĠMitch ell
Ġâ ĨĴ
40 5
X uyÃªn
er ati
H Ãºt
Ġt Ã¨
ĠAr d
b ana
á »®
Ġr Ã©o
ĠS ob
ĠP am
Ġ50 4
T L
Ġ29 7
g ie
Ġng Ã¡p
ĠMB A
Ġb al
Ba onghean
ĠPet ra
k top
Ġph Æ¡n
Ãį CH
b el
Ġ" ,
ĠV od
ĠArms trong
t áº©y
Ġ20 40
ĠFernand inho
D ie
Iá»Ĩ U
ĠA ge
ĠBai du
ĠghÃ© m
ĠTT ATXH
ĠÄĲ Ä©a
hÃ³ c
C ong
T Ã¡m
enc er
Ġp a
ĠCh rysler
khÃ³ c
ĠN oda
ĠÃĲ Ã´ng
j ee
15 9
th áºŃm
un ya
v y
L ib
ĠGr iff
ĠVer ma
apol is
28 5
ĠC isco
20 4
ĠQ Na
Ġcho Ã¡n
ĠA e
th uyá»ģn
ĠK IA
ĠW WF
ĠNghÃ ª
21 3
ĠL áº¡n
Ġá» «
ĠG ay
21 4
ant ara
ĠSch w
yan ua
Ġm iá»ģu
ĠX box
Ġ7 90
f ram
Ġn áº¡ng
el ia
ĠUd inese
ĠCl aire
Ġ ]
as i
ĠBright side
ĠD ir
aldeh yde
19 2
ĠW oznia
b il
Ġb Ã¢ng
Ġan t
Gi Ãły
ĠVal verde
Ġv Ãª
ĠPhá» Ľc
ĠB D
Ġ %.
ĠB iá»ģn
01 8
ĠThong loun
U NESCO
m obile
15 3
our ce
ĠLy nh
enz i
Ġ900 1
ĠX EM
ĠVKSND TC
ĠL oc
ĠS ix
igh ter
Ġá» ª
ĠBH TG
Ġr ÃŃu
Ġ19 36
ĠJ ing
á»Ķ I
Ġ36 8
g es
h áº¡n
ĠCo co
VP F
Ġru á»ĵng
asm ine
ĠIl bo
ĠA A
ĠVin ci
ĠPH Ãļ
Ġ27 7
ĠX ÃŃn
khá» ķ
ĠCarol ine
ĠResiden ce
p es
Ġr ÃŃch
ĠAmb ros
ign o
ĠÂ ¼
Ġvac xin
man e
T K
mid t
kin son
Ġ34 8
r Ã¢u
b á»ĵ
f ort
Ġn Å©ng
18 6
d á»įn
Ġch rome
ĠI FC
ĠCB R
ĠShi b
ĠX Ã³a
ut oday
VN N
Ġ80 2
ans a
asm us
Ġk e
Ch Ã¡o
n áº¯m
Ġ35 2
Ġ29 4
Ġpr ess
ĠB IC
D IC
Ġv Æ°á»£n
ĠM und
ĠTá» ĩ
ĠRod ong
l Æ°Æ¡ng
01 1
f ol
ĠB Ã´n
j ic
ĠFl am
ĠP TSC
Ġ ab
ĠHe ath
KhÃ ©p
Ġ4 16
ĠIv y
ĠM AC
Gi áº£ng
ri x
Ð °
ĠD ÃŃnh
ĠR oh
x áº¿
ey eon
Ġ9 40
d al
Ġ6 000
ĠB áº¢O
ĠA GM
ĠVN EN
C ua
s ur
Ġkh áº¡c
ĠC ON
ĠLah m
r Ã¡c
Ġho st
ĠUn der
Ġ9 10
Ġn ail
ĠS ed
GP MB
dor ia
ĠÃģ c
L ife
Ġv áº¡i
ĠVCB S
Ġs hip
ĠRamir es
ĠG AP
ĠAz pilicueta
ĠKind le
Ġbá»ĳ ng
ĠZh ong
ĠEnterpr ise
ID I
ĠHolly hock
ĠQU á»²NH
Äĳ áº»
ĠAB Bank
ĠCol in
ar ro
Ġh Ã¡c
ĠH wa
Ġá» Ľ
ĠChá»ĭ u
enz ie
ĠM BC
ĠF en
ĠTI SCO
ĠBever ly
Ġs ur
ĠY os
ĠBa ch
Ġ Ã©n
et ic
16 1
ĠP áº¯c
ĠHu dd
ĠCald eron
ng á»įc
it age
ĠDW T
Ġqu áº»
Ġsit com
ĠPr ice
son aro
ĠJoh ansson
er an
Pet er
Ever ton
S ky
Cap ita
L áº¡
ĠB ore
Ġ36 6
0 25
ĠH Æ¡i
Ġthi s
ĠEthan ol
ĠH wan
m ins
18 4
ers field
áº¬ P
ĠYatsen yuk
Gu ard
x áº»
20 8
V VN
X Ã³t
Ġc ut
ĠH Æ¯NG
ĠZen fone
ĠC ord
ĠStev ens
A U
ĠLá» ĺC
ĠSl av
ri es
ul y
ĠCh erry
ĠOn ly
ĠI CO
Ġsá»± c
ers in
Ch áº¥p
Is lam
p hÃ³
Gi Ã¢y
ĠRoad ster
S ir
forman ce
ĠT iá»ĩm
ĠHAN OI
17 7
» īa
á »īa
ĠX á»©ng
B al
ĠNg Æ°á»¡ng
âĢ¦ );
Ġ28 7
Chá» ¯
eman ja
ĠI F
Ġp ass
ob o
a ar
ph áº¡t
f en
ĠÃĲ á»©c
c Ãły
00 7
Ġam idan
ĠCel tic
Br exit
hi zer
ĠJY P
b s
K hÃŃ
ĠK FC
ĠAn iston
ĠH ÃĴA
ĠH BO
%. /.
fi q
L áº¯ng
al ong
Äĳ áº£m
C Ã´n
Ġf estival
ĠGran ada
ĠBO G
ĠS ophie
ĠCh ul
ĠCle ver
Ġcá» Ł
EF L
ĠBL TT
99 5
) ?
ĠWal t
K Ã©o
ĠG ong
Ġban king
m ler
S tr
ĠK ot
ĠB á»ĳng
ĠNgh inh
ĠBe an
er ic
ĠZ ay
ĠL ÃŃ
ĠBol sonaro
ĠM ash
ĠS ilk
Ġvi et
ĠSpr ing
r Æ¡i
ig roup
ĠBr y
f rey
ĠV iagra
ĠZh eng
ĠhÃ ºp
KH Q
Ġb asa
ÄĲ iá»ģn
Th Ã¡o
ĠSao star
P HC
ĠT aw
D es
ĠD arm
n eo
v áº¡n
Ġxá»ĩ ch
ĠÄĳÃ º
ĠM ore
Ġb io
ĠCa fÃ©
l iu
ĠG ro
os ph
ĠDevelop ment
ĠJ azeera
ĠM áº¹o
48 5
ĠNh Æ°á»Ŀng
á»£ c
ĠMay er
ĠMon de
35 5
L INH
ĠÄĲ iáº¿m
Ġtu abin
B G
r ing
ĠIs ab
35 6
y p
and e
Ġlo e
Ġ34 3
!! !!
ĠBak r
ĠUtt ar
20 3
p ar
ĠCoun try
ĠMon ica
áº¿ nh
ĠDX G
Ġv accin
David son
h azi
em iro
d ore
ĠhÃ ¹a
Ġkhu a
ĠSan e
kh áº£
ĠArn old
er co
akh on
ĠSB J
ĠK GB
x Ã©
01 2
ĠBrend an
ĠHaw king
Ġpoly mer
Ġp ano
ĠP MU
ĠM ey
Ġfl agship
chÃŃ n
ĠU NDP
18 8
ĠBlock chain
ĠHot line
21 6
ĠSumit omo
ĠO xy
ĠP Ã¬
ĠSp l
ĠBen ed
K ar
ĠPaj ero
ĠG TS
ĠMas erati
ĠSpir it
ĠO SCE
33 3
nh iá»ĩt
Ġ19 38
21 7
H Ã¹m
ĠT au
ĠF ah
ĠConnect icut
Ġp eso
Ġkhu Ã¢y
ic ky
gi áº¥c
ib ar
ĠAnton ov
ĠKath mandu
l ang
ĠV log
Ġbá»ī u
ĠEconom ist
Ġox al
Ġb áº¥u
ĠW or
ĠTho áº¡t
ĠG um
Ġ7 18
ect ion
CC o
Ġtr Æ°á»Ŀn
ĠN ippon
14 7
ĠBu zz
ĠRe yn
ul u
L eo
Ġvá» ©c
Äĳ an
ub ank
ĠEdu ardo
ĠT ia
BTT TT
O P
Ġh ashtag
19 3
n Ã³
os ta
Äĳ Ã¬nh
v as
ĠI CD
n á»Ĺi
ĠL Æ°á»£m
ob ar
d otel
ĠBra vo
ĠR áº¯n
Äĳ Ã¡m
I E
Camp ina
Ġg ÃŃ
ĠMat h
K Q
áº¶ NG
Ġ <
p hÃ³ng
Ġb ack
Bl ue
er b
R i
Ch ev
ĠV RE
ĠPH I
r á»ĵng
Tr Ãło
4 75
w eb
po on
ĠPA K
ĠT os
ĠAs ahi
ĠParaly mpic
Ġdr one
ĠL eop
Viet Times
elo f
PH AN
ĠUcr aina
er er
ĠM áº§n
ĠF ay
ĠCoun ty
ĠLight hizer
A z
ĠNg áº§n
Æ¯á» Ľp
ĠRen o
L R
ĠR iz
ĠKar zai
M Å©i
L ondon
3 35
Ġc os
ĠD Ã¡ng
ĠAhmad inejad
dg ame
t as
Giá» įt
ĠCar bon
ĠBe aut
f ire
ĠFab ian
ĠPh Ãł
gi Ã¡p
H a
ĠAst ana
nh ang
D á»ĭ
ĠT ad
an th
Ho REA
ĠC E
Ġt uá»ĳc
b Ã²
Ch rist
ĠPL X
at hi
Ġn il
ÄĲá» §
ey m
chá» Ĺ
M ag
ĠF aso
ĠS ic
Ġ19 37
ĠVI NA
ĠÄĲ Ãłnh
ĠsÃ´ cÃ´la
há» įa
ĠO a
ir st
16 3
Äĳ inh
ĠPr om
U ber
ĠLac azette
ĠVietJet Air
j n
ĠO TP
4 99
19 55
arao h
ur ri
ĠIC E
Ġtal kshow
ĠNew ton
TH IÃĬN
Ġph ay
p sey
ĠHul k
ĠW endy
s op
ĠH Æ°u
id ay
ĠMans our
let cher
ord er
ad dy
W al
ĠH ector
m ic
s ex
ĠJ PMorgan
ĠP ing
! )
ĠTy m
ĠTal k
ĠOt to
m Ã´i
Ġk en
19 41
Ġ4 18
ig am
F LC
ĠCav us
ĠPre ah
ĠHar a
Ġfl avonoid
ĠCo ol
ĠPet rol
j ung
CP MC
ch un
on es
me im
w ij
hi eu
0 85
w ater
Ġn ew
oy ama
ĠVin school
ĠMH B
ĠâĢľ âĢ¦
ĠCle ar
17 8
ĠSch war
Ġ34 2
ĠP Ãł
ĠScar lett
ĠIs mail
ĠBen igno
ĠAt las
ya f
j om
iz ens
k iáº¿n
Con tinental
M á
ĠW anda
ĠTh ailand
Ġr ai
Ġ4 45
Má »
ĠTr iá»ĩt
L uc
Ġt oáº¡i
t Ãºi
Ġor ganic
ĠSam ba
ĠV ay
ĠW igo
m á»įc
ap a
Ġ5 01
l á»Ńa
ĠTo ulouse
ĠEconom ics
F ood
ĠSt orm
Ġcac bon
ĠM ut
Ġ Âł
w oo
ĠPan ther
erg en
Ġtru á»ĵng
ĠG and
ĠH ÃĮNH
ĠRum ani
H áº¯n
Ġth áº£ng
ĠR ing
m b
ĠTB NN
Ġs kin
Ple iku
ĠBeng hazi
t Ã´n
ĠKu o
ĠK ishi
aki ra
tr Ãºng
. âĢĿ.
ĠCN XH
ĠTy son
ĠH KD
ĠInst it
p m
Ã§ ois
Ġn Ãºng
ĠSnap chat
ĠM MA
ĠTang o
Ġ50 2
Ġb ua
te en
Ġv Ã¨
Ġv n
ag er
ĠBá» ģ
Vin alines
Ġami Äĥng
hÃ£ y
ĠM az
ĠG lor
ĠNag orno
ur ing
Ġtá»§ a
ľ I
ec ts
ĠBur ke
ÄĲT V
ĠAdr iano
T ime
ĠKov ac
l á»ħ
Ġj ump
ĠAN ÄĲT
R ock
k it
CS ÄĲT
ĠHe ather
ĠSo phia
Ġbe at
ĠG epard
17 3
B rad
C AND
ĠJan uzaj
ĠCavus oglu
ĠChi ellini
an tino
Ġt iá»ħu
ĠPh otos
Ġlá» ķng
iden se
ĠRy ab
ĠEss ex
ĠVNA CCS
ĠNO XH
Gi Ã¡ng
ĠEl len
Ġng á»įng
ĠR á»ĳt
th Æ°
ĠOs lo
ĠAnat oly
ĠHamp shire
l Æ°á»Ľt
áº ´
ĠM Ã¹ng
Ġ9 70
Äĳ Ã³i
Tr u
l áº¥n
ĠKT XH
S abeco
ĠBar n
ĠSum mer
ĠAm a
ĠB ert
ĠP ack
P MU
ÄĲ CSVN
AT M
! '
em ont
ĠF ig
g á»ĳc
ĠRob o
ĠIt ar
ĠGu o
ĠJP Y
ĠH ist
Ġá» Ĵ
ĠÄĲÃ´ la
ĠCD U
exim co
s il
Ġv áº¡c
SC T
m Å©i
ĠGD KHQ
N ÄĲT
Ng Ã´n
ĠCom mer
tá» Ŀ
FA O
ĠDaw n
Ġb áº¥n
ĠCath ay
f est
ĠDol ce
ĠPV O
ĠQ T
ĠA LC
ar azzi
ĠMel inda
ĠMoun tain
Ġth inh
ai a
ĠJ W
f am
s uy
Ġ29 1
Ġf ran
Ġw ushu
Ġr Ã¡y
ĠPra gue
Ġsh are
ĠKon stantin
Ġt ie
ĠAl isson
ĠBr on
ĠGreen land
Ġg ran
15 1
ash nikov
ĠU FC
Ġrá» ıi
Ġ35 9
p y
Ġw ill
24 3
R á»ĳi
L ove
M R
qui ao
ĠG Ã¡nh
ĠBarc lay
Viet jet
ĠPan mun
Ġ et
t áº¯t
ĠC Æ°u
al am
ĠCI EM
ĠThÃ ª
ĠN au
ĠSel ec
ĠJ is
Ġn áº¡m
ĠL ol
Ġn ia
g ing
ĠB á»ķn
ĠM ethadone
er ation
Ġm áº«m
ĠJ ian
ob yl
Ġp ate
ĺ NG
ĠSoc ial
ĠSu thep
38 5
ĠnhÅ© n
Highlight s
ĠFor est
ÃĬ U
Ġ34 6
tr áº¡m
h uyá»ģn
Ġc ol
ĠW it
ĠH Ãºt
ĠC Æ°á»Ľi
ĠGi Ãłnh
ĠHo e
S hi
ĠLu d
L iveshow
Ġdá»¥ i
ĠMac book
ĠT ina
ĠR OM
ĠZh u
ĠC ec
ĠPr int
ĠSand ro
L ion
ĠH TS
27 9
ĠL ie
ĠChrist ie
ĠCA C
ĠAlph abet
H U
tr Ã¡nh
ĠNA FTA
ĠI HS
ĠCr Æ°m
ĠHa j
lá» ¡
ĠÄĳ Äĥm
e um
Ġngh áº¿ch
m ing
H UY
ĠT et
ĠSand y
Ġr ia
ĠF SB
ĠKh ark
2 19
cul es
ĠRam adan
T or
me ier
ĠTed ros
00 6
Äĳ Ã³n
Ġf iller
ĠRal ph
meim im
ĠÄĲS Q
V FA
EU R
ĠY ar
c g
§ n
KH ÃģNH
Ġkh áº£n
ĠphÃ ¹ng
23 6
thu áº¿
ĠBh um
B er
ĠE ye
Ch áº·ng
23 3
ĠVictor y
Ġchá» ıng
ol u
h uy
s ak
Ġlog istic
Ġxu á»ģ
ĠEn dgame
ĠMed ical
gi ang
C Æ°á»Ľi
ĠTr Ã²n
lo p
Äĳ áº£
Ġ35 3
ĠdÃ² m
Ġstream er
0 75
en i
v on
Ġs Ãºy
c Ãłi
Há» ©a
16 7
ĠGer ald
han e
Ġ46 5
Ġph áº©n
us an
ĠS le
11 00
Ġ33 2
ĠÄĲ Æ¯á»¢C
ĠP ew
14 6
ĠD il
Ġm Ã¡o
ĠDem psey
f ur
S Ã´i
ĠM ack
' ',
ap s
Ġ33 1
j aya
Ġhot line
Dj okovic
ĠA IA
M Ã¨o
Blo omberg
Ġng Æ°u
ob ac
Ġc áº¡ch
ĠE TC
N Ãºt
g iÃª
ĠthÃŃ t
ĠL enn
a ff
ĠTá» ¥
ĠSu isse
Ġngh Ãłnh
van ced
ust ic
ch ina
ch uk
ĠW TA
ĠDo k
ĠSh am
16 6
kh ut
ĠD VC
ĠF rom
Ã ķ
ĠH BC
ĠT art
ĠMcG regor
Ġs l
Ġ37 7
ĠM ou
19 1
S Ä©
A mer
ĠK ung
Ġph ot
Phá» §
Ġl áº¹t
g om
ĠDH G
PL A
s io
ĠKans as
Ġho me
ĠGu zman
Ġ38 6
ĠH á»įng
ĠM Ã¬
c Æ°a
N hi
Ġ38 8
BVH TTDL
P ogba
Ġs ale
ĠT aro
ĠNg ao
Ġb it
ĠV CSC
B E
ĠReal me
ebay or
ĠB reak
oo ps
ot ic
h Æ¡i
PC A
H er
ap o
ĠMal acca
ĠGh áº¿
N AM
T our
Ġ6 15
ĠG und
Ġn á»ĭt
Ġ33 8
ĠSul aw
or ter
ÄĲ áº§m
S ung
ĠSteph anie
ĠT ig
ĠKw ak
A Q
V F
30 5
ĠKH HGÄĲ
ĠVTV cab
ĠKh au
ĠY az
" >
if ul
k iá»ĥu
55 5
IS T
ĠcÃ ¹m
Tr á»«
Ġ Æ°Æ¡i
Ġcu á»Ĺm
ĠTru Ã´ng
ĠCotec cons
ĠTr ade
Ġ8 88
ĠKh iÃªu
ĠNG UY
Ġ35 1
20 9
ip er
3 15
ĠQu ick
ĠCh urch
ed om
ĠKy aw
s hi
Ġb iá»ģn
ĠTH E
Ġáº¤ m
ĠthÃ ²ng
ĠNim itz
Nad al
Ġnh iáº¿c
ĠN Ãºt
Ġan alog
ub an
Ġkhá» ©a
Ġ36 2
ĠQ E
ĠLu han
ĠV ÃĤN
va jal
Ġqu Ã¡ch
car ot
ĠFil ip
ĠMaria h
ĠMer sey
ĠNu tr
Äĳ á»«ng
áº¬ U
ho c
chá» ©
24 2
5 77
ĠPl atin
N I
d á»įa
qua t
26 2
V á»¡
Ġcl ub
Ġdanc esport
ass o
ad on
Ġ40 4
omet ers
ĠPl ace
L Æ°á»£t
ĠE DM
23 2
ĠMetro pol
ĠR F
Ġso áº¡ng
ĠBur kina
ĠF us
ĠJo ao
Ch áº£
TÄĲ B
QP PL
ĠnghÃ ©t
ĠLe i
EA D
ar ning
est one
eg ui
ĠFin tech
ĠGust av
ĠF letcher
ĠTyl er
4 25
ĠDes ire
B Ãºp
Ġqu Æ¡
raph y
che ck
ĠthÃ ¢y
Ġc ity
28 6
17 2
K TN
os n
ThÃ ¢m
á»Ŀ ng
ĠEs c
Ġ45 5
ĠPetrov ietnam
ĠSulaw esi
ĠSor ento
ĠKr is
T iáº¿c
ĠTo w
ĠPan orama
bi j
Ġau dio
ĠSc andal
ĠÄĳ áº£nh
ĠQ i
ĠP ung
ĠBa ham
ĠNH áº¬T
k Ã©m
d á»±a
ĠK á»ĭp
ÄĲ em
Ġ5 15
d áº¡ng
O ÃĢN
ĠNag asaki
ĠAv atar
ĠGom es
ĠJohan nes
ĠTO EFL
ĠHon or
t á»Ľi
ib ol
ĠRe ed
ĠRay mond
PN J
Ġnháº¹ m
C ro
L CP
. /
ĠNikol ai
j en
ĠVietnam Plus
ust om
s áºŃp
ĠCh loe
L os
ĠX C
ĠP MI
ĠGi or
ĠGr en
ĠP ix
Ġgl ut
áº´ NG
ĠO ak
art ment
BL ÄĲTBXH
h ome
ch y
Ġ48 5
Ð µ
V E
L Æ°á»£c
15 7
ĠRet ina
our a
26 6
ĠN áº´NG
ĠCar sc
ĠCA R
Ġlá»Ł m
Ġsup port
Ġkhu i
ĠBa za
LÄĲ O
ĠK av
ĠM L
ĠDang da
ĠE AS
ChÃº a
Ġn in
ĠN CB
Ġ34 1
c raft
L AM
x Æ°Æ¡ng
20 6
ĠCar Play
ĠUr ban
d aily
ĠNh áº¹
ĠI b
ĠMind anao
m áº¡ng
ĠH ip
we ar
ĠN emanja
tr á»£
Ġcarot en
ĠM áº£ng
ic in
ĠRyab kov
ĠA ND
ĠI B
d áº§u
ĠS ou
n n
nh áº¯m
ĠSen se
ĠK C
Hu á»ĩ
ĠFerr er
ĠHer itage
ĠAl ain
atch er
5 25
ĠÄĳá»ĵ m
Ġ4 47
Ġto áº¡c
B áº¢O
nghi Ãªm
M ir
c áº¥t
22 4
Ġ7 25
am ac
ĠTu á»ĵng
B áº§y
ĠP ure
J ess
an ne
ash vili
M eg
Ġ4 95
ĠDer by
ĠS uri
F P
w ald
iv ar
an ova
ĠHarris on
ul i
Ġ37 3
ĠN á»Ļp
T iá»ĩm
Mu Ã´n
b áº»
cop ene
Ġtr ans
Ġs Ã¡m
ĠTw in
all ah
Ġ40 3
ĠLind elof
v Æ°á»Ŀn
ĠT ian
an te
h ara
ĠH ao
thá» ĳng
ĠKu in
ĠPo or
l áº¡nh
ĠP ai
Th Ã¡c
Ġtim e
ĠTur k
ĠSamp doria
ĠCel ine
ĠTh uá»Ļc
m Ã¡
ft ar
ĠSin mun
ĠH ana
ÄĲ C
ĠBe ar
Ġngo Ã¡y
sen d
' ;
le igh
Ġs ulf
ĠQu ad
ĠI ly
ĠMersey side
ĠSe pp
VC IS
M el
ĠCas emiro
Ġm atch
ĠHá» §y
chá» Ŀ
Ġ(!? ).
Ġtr áº¡c
n Ã©t
Ġbá» ¥t
ĠBern ie
Vietin bank
ĠSaman tha
ĠMang khut
dr ess
CQ ÄĲT
ĠG ate
ĠMa as
TH CS
H Ãło
Ġpr ot
mo us
ĠCQ CA
ĠDA X
ĠM Å©
U p
ĠCit igroup
m á»Ľ
Äĳ e
ĠBH D
Ġ68 9
Ġg á»Ļc
ĠAd obe
ĠBaham as
ho Ãłnh
ĠSeo k
QU á»ĲC
Nh Æ°á»£c
C as
ia z
ĠCho ice
ĠT ut
ĠbÃ¬ u
ĠCommun ic
Ġtr áº±n
ou ter
ĠÄĥ m
Ġ čĊ
ĠJacqu es
ĠPlatin um
M áº¡c
am y
Ġ50 8
Ġasp irin
ĠAl ps
ĠP Ã³
ĠCN A
Ġ46 8
P ar
y i
ĠP avel
ov ina
os ology
ĠSir te
S et
ĠCit izens
Ġnh Ã¨m
or te
Ġn Ãª
ĠCh Ã¡o
n ien
ac in
V Iáº¾T
ĠS tre
ĠL ist
e us
v áº¡ch
ĠSA A
Ġtáº¿ u
45 6
ĠAr c
ĠAt om
ĠKath y
iÃª á»¥
ĠM áº¡
ĠStart up
e co
ev ic
16 9
Ġm áº¡p
VH D
Ġm otor
Ġ4 37
ch Äĥn
ĠEngine ering
6 75
ĠC op
Ġx á»ķi
ĠIs uzu
uc tion
ĠPat o
% âĢĿ.
Ġ ag
Ġr Ã¡m
Ġ5 35
B log
B áº¿p
oton in
phÃ ©p
ĠHem sworth
ĠSag na
L Äĥng
Ch ris
L E
om in
ĠRost ov
j ima
ĠCo x
ĠOto fun
ĠKon ash
ĠA w
39 4
38 6
ĠÄĲK KD
ĠBuff alo
ĠN xb
Ġph áº§m
ĠJ VC
ĠCar vajal
Ġca cao
Ġf in
ĠShi eld
Ġs and
H I
ĠAR F
ĠSpr int
ĠC eb
ĠHe idi
ĠKal ashnikov
ess en
ĠD ing
ĠRichard son
Ġb Ãµm
Ġfol ate
ĠF lip
ĠQu e
ĠH AI
m á»ĵi
ĠhÃª n
ĠV ong
Ġsá» ģn
l la
Ġsmart watch
g ame
B Æ°á»Łi
ev l
c á»Ĺ
H á»ĵn
ab h
ĠR asmus
ĠB ass
S CMP
v ong
ģ u
Ġr Ä©
ĠCh áº·ng
te ga
ĠAut om
Ġtrá» Ľn
2 23
ĠD ab
v u
ĠTr in
L oan
Ġ4 14
S áº¿p
b ane
ĠK DL
Ġká»ĩ ch
P oster
Ġlo i
Ġb enz
ĠC ry
24 9
ĠNou vo
w h
ĠB á»¥i
= =
---------------- ----------------
Ġnh iÃªÃ¹
ĠV Ã¡y
ĠZ ap
ĠHit achi
ĠFriesland Campina
Ġca po
Ġ36 1
Ġ35 8
ĠGor illa
ĠRun way
Chev rolet
t áº¯m
á ¸
er ick
ĠIr ene
Ġ5 65
19 48
y eon
ĠO tt
Äĳ Ã´ng
ion a
ÃĢ Y
Ġ35 7
Phi l
ĠChang i
17 9
Ġweb cam
ĠB izLIVE
ĠHo ts
Ġ37 6
h Ã¡t
ari us
ĠPar ty
SO HR
ĠBÃº k
ĠHá» ĮC
S ec
ĠF X
ĠH áºłNH
ĠTá» ıa
ĠN ile
eym im
Ġg áº«u
Bá» Ŀ
ĠMan bij
ĠChern obyl
M uá»ĳi
o cha
ĠThe in
ĠCal vin
ĠD áº¿
3 99
TT HC
30 2
Gi áºŃt
E co
M or
Tr Æ°ng
Tr á»ĳn
m oi
ĠQ B
ĠRe cord
ch áºŃm
ĠDoc tor
ĠBr em
ĠBis hop
d n
Ġth áº©n
Äĳ á»Ŀi
ĠI CA
Ġs n
H Ã¨
S áº¡t
ĠB uch
ib u
ĠPan am
Ġk iáº¿t
Ġmil igam
ĠT á»Ļ
ĠEm my
W atch
K ate
ay an
at an
ĠSA O
Ġ end
ow indow
chÃ ¬m
ĠAc cess
ĠStu art
I AN
ĠPos co
ĠRah eem
V B
in z
ĠGul en
M id
Ã© s
h áº§u
ĠMem phis
Ġs Å©ng
28 8
ĠM IT
om as
s áºµn
ĠViet Gap
Ġr Ãºm
Ġ37 8
Len ovo
S Äĥn
Ġ33 9
ĠSup ach
Ġmá» £
ĠAB B
X áº£
X Ã³m
ĠTH Æ¯
N SA
ĠRob bie
0 35
ĠC áº¯n
âĢ¦ ?
Dani el
ĠTym oshenko
te k
G á»¡
ĠT BT
ot s
ip ras
ĠMiss iss
Ġlim ousine
ĠQu Ãłng
ĠSouth gate
Æ¯ U
22 7
ĠMartin o
Ġr ua
ĠH ig
PC I
ĠEl ena
s Ãºng
ĠHer cules
ĠcÃ² m
ĠKai ty
chÃ ¬a
ig e
TS A
ant as
Ġt áº±n
Th áº£
Ġthá» ĳc
01 9
chÃ ª
ĠRol ex
ĠCon sul
B á»ĳi
ĠS yr
s Ã´ng
um o
mo Ã³c
og raphic
b ok
ĠW ah
Ġkáº» ng
Ġcho ai
ĠMr s
8 46
TH ÃĢNH
Ġl eg
ĠD PR
oll s
ĠTT F
ĠNat alia
T el
U EFA
ĠB end
áºł T
ind h
W indows
ĠCr is
Ġd áºŃt
il ly
E ur
18 1
ez i
25 2
ĠY O
red o
2 11
S á»©
ĠPanmun jom
K I
Ng á»¡
Ġtr á»įi
ĠPhilip s
% âĢĿ,
Tr ai
if an
ĠH TD
H Ãłi
ĠCol ogne
ES T
Ġng oi
Vin ashin
ĠL er
ĠBaza ar
2 21
z yn
et o
M Æ¡
c Ãłnh
ĠTh iá»ģm
X á»©
ĠA ch
e nh
ĠK iá»ģn
ĠW ag
ĠHa ftar
ĠDream liner
H g
ĠGiá» įt
thÃ ¢m
Ã ģm
ĠInt ellig
b ow
ter ia
ĠN ole
ĠR atch
ĠD BS
ĠUSA ID
ĠAg ency
0 28
H áº³n
ĠB ed
z eg
Ð ¸
6 25
ĠT ake
ap on
ĠCas a
AP I
art ner
Ġ34 7
Ġvá» ĳi
ĠKT NT
Â ®
ĠP ath
Ã© r
27 2
Ġtr Ã¢m
ĠSt at
ch ev
tu Ã½t
Ġkh em
ĠD ag
Ġ osin
ĠSan aa
L ady
dy ch
ja j
r eb
38 8
ĠhÃº i
k hÃŃ
ĠM RI
ĠP ush
ĠZ an
26 4
kh áº¯c
Ġ amp
ĠLyn ch
H ol
Kh áº£i
ĠMC U
3 36
Ġ0 43
ĠG et
ins ky
ĠKur t
t ner
ĠC raw
Ġnh Ãº
all on
ĠG ut
ĠVang a
ĠKent ucky
ĠÄĳá» įt
Ġb áº±m
ĠLuc y
erg round
Ġnit rat
ĠN ara
ĠJ ak
Sh ar
... ?
ĠCheon an
ĠBuck ingham
ĠKonash enkov
ĠsÆ¡ mi
Khu Ãª
ĠBhum ibol
au r
ĠRed dit
ĠMov ie
Chá» Ĺ
ĠPasc al
en sen
M F
X L
ĠU R
ĠCh ae
ĠRobert son
Ġnhá»Ł n
D J
y ev
istan t
ĠSc an
ĠSch midt
ĠPhillip s
ĠRad ar
Ġx uyáº¿t
ĠX abi
Gi Ãł
ĠAnton y
ĠGreen wood
arth y
t áº¯c
ĠRun ning
tá» ī
r ong
Ġr ing
ĠBur berry
ĠS ylv
z hou
ĠV CS
19 6
CK H
W hi
ĠK O
ĠMel issa
ra z
uck land
Ġnh á»ĳ
Ġs elen
ĠL Æ°á»£t
thu Ãª
Ãĵ M
ĠVá» ¤
t Ãłng
hi c
ĠW W
com e
Chá»ĭ u
akh et
ĠJos Ã©
Ġph one
co de
25 8
l ak
mins ter
Ġ40 9
V CB
Ġser ver
Ġchá» ħ
ĠPac quiao
ĠcÅ© i
ĠMu ay
aren ka
ĠT iá»ĩc
ChÃ ©m
ĠV era
ĠM Ãº
ĠTr ading
al on
Æł n
v ey
Ġin f
ĠKh áº¯p
ĠJ asmine
ĠdÃ¹ m
ĠFran Ã§ois
ĠDara a
V iá»ħn
ul d
br al
ĠS acom
ĠMedia Tek
b á»ĵi
vis or
22 9
And roid
ĠHm eymim
it en
s Æ°
b inh
Ġqu áº¯p
24 8
J un
in er
as una
24 4
ĠP Ã¡
le ck
ĠNav ig
Cham berlain
ĠN Ã³c
ĠCP P
Ġth Å©ng
ĠS Ã³i
Ġ5 95
P in
29 2
ĠCen tre
23 7
ĠMag azine
ĠHudd ersfield
ur ance
ĠRasmus sen
ĠY ersin
Ġcom bo
Ġcomp act
ĠÄĳÃ ²ng
ĠV iá»ģng
ĠRah man
S IM
Ġk iáº¿ng
ĠS á»Ĳ
Tr Äĥm
ĠK iá»ĥng
áº® T
ut ions
row ser
ĠT iá»ħn
Ãģ NG
x Ã¬
Ġh áºŃm
ĠVR G
ĠWanna Cry
ĠCarr oll
ĠTh at
17 4
ĠHy ori
Ġ45 6
do or
Chu á»Ļt
l Ã³t
ĠEx change
ĠJord i
ĠSud ico
R es
ang el
ĠND VN
ĠAil en
Ġc Æ°á»Ŀm
m Ãły
36 8
E W
16 4
ĠSher aton
ng Äĥn
ent ine
N ov
Ġchá» ı
ĠAnn an
18 7
ĠOs ius
um m
Há»Ĺ n
ĠNG ÃĤN
ĠNat ions
ĠNg on
Ġgi Ã²i
N Ãły
ĠW ork
ĠAd ebayor
H HT
EA S
ĠCam b
el ka
ĠCN RP
Ġch lor
ĠK ak
ult ure
us mane
23 8
ĠTs ipras
ĠSp e
ĠC ell
Äĳ á»įc
eb ec
ĠLin ux
Ġpro duc
ulin um
ĠW ake
ĠEm il
or es
ĠÄĳu á»£c
ĠÄĳÃ¢ Ã¹
Ġtr áº©y
qu á»¹
ĠEd die
ĠT Ãłm
T ur
5 45
ĠHK QT
ĠBr asil
Victor ia
ĠChi ba
om oto
ĠÄĲá» ĬNH
Ãģ P
ĠE R
th eon
Ġ( "
7 65
ĠVI ÃĬN
Ã¨ s
ag uchi
ĠStef ano
ĠShib uya
al is
m á»Ŀi
Bo eing
ĠC MT
tar io
D Ã¡ng
ĠM iáº¿n
ĠPer th
0 45
? ).
ĠÄĲ iá»ĩu
h iáº¿p
ĠNik ki
ign olet
ĠK B
ĠNg áº£i
ĠChrist mas
am en
0 99
ĠBil ly
Fed erer
ĠC net
ĠA CM
ĠTR á»ĮNG
ho ang
ĠMiss osology
ĠGh osn
Tho áº¡t
ĠHab ubank
ĠTrans it
eller in
á»¦ ng
es hi
ĠBol og
ĠEth ereum
ĠV on
ĠF AT
ĠCro w
Ġpap arazzi
ĠtÃŃ p
25 3
F ox
23 1
M usic
ĠHD B
m ong
R á»ĵng
Ġc lin
G CN
ĠStein meier
ĠE OS
ĠMob il
Que en
eb y
ĠG aul
25 4
H iáº¿m
Ġv iá»ĥn
ĠH ep
ĠE MA
ight s
Ã´ c
ĠKo ch
Gh áº¿
ĠBoun nhang
ĠBag gio
0 65
B á»±c
00 8
amac are
» ª
if lu
B SC
á »ª
os lav
26 9
M áº¯c
on avirus
Th áºŃn
Ġm áº©y
ĠAS OSAI
M iáº¿ng
ĠMad d
ĠInter Continental
ĠCay enne
Ġcort isol
K K
ĠKang aroo
ey e
ĠN áº·ng
ĠB QP
ĠS ty
D Æ°á»£c
ĠEx cel
ĠValent ino
A EC
ĠHu b
h aka
ĠtÃŃ u
ĠÄĲ ÄĤNG
ĠL iá»ģu
t uyá»ĥn
ĠTH áºłNH
ĠBr is
ĠMob i
ĠX T
ĠS ÃŃnh
Ng hÃ
PC R
d á»¥
ĠBlin ken
ĠT eo
ĠCatal unya
ĠAz ov
ĠP rab
iz ation
C OVID
45 8
Ġf ly
Nhu á»ĩ
b ian
lá» ĩnh
ĠTá» ı
D ance
est an
B á»ĥ
ĠGl obe
Q N
Ġch erry
L ou
36 6
r Æ¡
ĠN I
f th
k Ãªnh
Ġr outer
ĠOp rah
Ġch iá»ģn
Ġph ablet
ĠOr ig
Ġpress ing
Ġt om
ea ch
ĠSD ÄĲ
Tr áº¯ng
ĠG w
ron es
Ġ8 90
ĠTas co
ĠGi r
Ġngo Ã¨o
4 45
F SA
ĠTh uy
ha el
Ġp Æ¡
Ġá» ¨
R un
ĠSP F
P ort
Ġjump suit
Äĳ uá»ķi
ĠB Æ°á»Ľu
ah ar
27 4
" ).
kh am
Ġs un
ĠT ÃĻNG
iz a
Ġmake up
4 95
Ġhá» Ľp
v ar
Ġná» ¥c
µ ng
B XH
ÃĻ I
ĠA uckland
O DA
ChÃ ¨
ĠKore an
ĠErik sson
O l
ĠSt alin
ĠFin als
ĠB ain
Äĳ áº§y
Ġ7 000
ĠS uss
ĠNH Æ¯
Ġbik er
Ġsho ck
Ġb Ãµ
... );
ou ane
Ġv ani
kh iáº¿n
B ur
T áº©y
Ġ8 55
27 3
ĠAlc antara
B est
ĠQ BV
ĠPh om
ĠFish er
B áº¯n
l b
ĠSay yaf
iv imart
27 8
46 5
ĠGel eximco
Ġm al
Ġd ep
L áº¯p
ini que
ĠGi bbs
av ong
ĠArt em
ĠLu b
X Æ°a
em ber
se v
ud an
Ġhot boy
Ibra him
Phá» ķ
26 3
val ho
ĠM ist
ĠW ing
ĠYo ona
Ġv áº¡ng
ĠJu ergen
ĠPh el
VN ÄĲ
do c
V Å¨
r áº»
L CNT
r d
Ġdi oxide
G Ã¡nh
ĠTr ain
d uyÃªn
L HP
z ag
ĠÃª kip
ĠAI G
Ġmá» Ľm
ĠLeop ard
Ġnháº£ u
ĠS Ã¬nh
ĠÄĲT NN
ĠVolod ym
Ġ4 34
ÃĴ NG
ĠZam bia
p x
ĠR ui
F T
ad eh
un ch
old s
ĠB ody
ĠCout ure
ĠSoft Bank
Ġngh iÃªp
00 00
Ġs iro
me ichel
ĠLe h
red it
Ġn á»±ng
ĠMcC arthy
ĠGib son
Ġb lu
ĠSol o
ĠI gn
ĠJul iet
c á»§
ĠDar ren
Ph Ã¡n
Ġchá»Ł m
ĠKid man
thÃ º
bal ife
ĠChá»§ ng
b áº¡o
ĠN om
19 7
le ans
Ġng áº¡n
Ġ38 2
H CV
Ġl Ã©m
ĠPolit ico
oa ch
ĠI pad
ĠTH VN
ĠBer dych
Ġvá» £i
ong a
01 4
ant i
ĠM ignolet
ĠC OV
Ġgi áº¯c
01 3
ĠTur ner
ĠJup iter
48 4
Ġpen thouse
38 9
s te
ts ov
A CV
tin son
ĠOn tario
he el
M DB
Ġ19 33
thÃ ªm
ĠKishi da
k ova
Ġsá» §
ĠTá» ¥i
CC N
ĠRa ff
ĠHu oai
bral tar
ĭ ch
ĠG X
ĠN er
Ġphá» Ľ
CN C
H M
ĠRos neft
se i
Ġho áº¯c
Ġd áº·c
riz io
IR GC
ab aya
ĠJ ake
20 7
ĠTr Ã´m
ĠL Ã¨o
ĠviÃª c
ĠK atherine
ĠD ome
is ak
oun t
Ġl Ã¹
act ion
e ong
ĠM INI
bro ugh
chÃ ´n
ĠHy ung
ĠÂ «
ĠSe in
Ġser otonin
Lion el
UY áº¾N
ois ao
ĠTh ib
Ġgi áºŃp
m ob
Ġg á»Ļt
US B
ĠN AV
Tr á»Ļn
19 57
x Ã©t
ĠQ NK
ĠHor izon
an in
ĠK Q
Ġá» Ľi
ÄĲ áº¯c
Ġ19 29
ĠRe ading
chá» ¥p
Ġ14 00
ĠH us
P orsche
J P
Ġd on
ĠQ K
Ġn á»ĵm
ĠX oa
ĠM iáº¿ng
50 5
7 29
O ff
Ġr Ã¢y
áº¤ m
G áº¥u
ĠC ost
ĠP ear
ill ing
Lam borghini
Ġ5 77
L ew
ol s
con tinental
ĠDef ence
ĠhÃ² i
ĠSilv io
L exus
un k
ĠAM N
ĠTHá» ¦
oo ter
ÄĲ ua
ĠK IM
ÂłÂł ÂłÂł
c Ã©
ĠN Ã£o
aph aco
w ide
or ie
J ang
ĠB Æ¡i
ĠBr ist
ĠQuy nh
v eland
ĠBul ava
ir con
ap ro
ĠAnder sen
ĠBal kan
S ARS
ĠSm ile
ĠV áº¯c
ĠCom m
ĠZen Fone
ĠPanam era
27 7
X M
ĠS ep
ĠMur doch
C Ãºp
BV SC
H áº¹n
ĠP iano
ĠO usmane
ÃĶ m
ĠUr al
ĠE lyse
om bia
oc ar
ĠC SDL
xo ay
ĠPer f
ĠKir by
ĠA mar
l á»Ļc
ĠR AT
Ġ40 6
es a
ĠVit aly
ĠthÃ £i
s iáº¿t
Ġr eal
ĠV iber
ĠHy per
ĠMi x
t ur
form ers
ĠSull ivan
g áº¡o
S im
ĠY us
ĠPat tinson
khÃ ¹ng
ub o
Ġnh Ãłi
ĠCons tr
ĠTh ani
Ste ve
ĠP izza
Ġ19 32
TT N
ĠC ra
ĠQu ebec
L ive
ĠF itz
Lá» Ľn
Ġl ia
ĠN ine
t Ãłn
te y
8 99
ĠP ast
ĠCur acao
h ampton
t uy
Ġkh Ã¡o
ĠS Ãłng
ĠNam ib
vid ia
Ġd á»Ļng
ashi ma
ÄĲ am
ĠNews week
ĠÄĲ ÃĶNG
ĠTheo dore
ĠGu us
ĠCip utra
ĠGall ardo
Ġâ ī
ĠÄĲ ÃĢO
ĠPr ed
ĠC ream
ĠL C
Ġn á»ĭu
Äĳ áº³ng
V X
ĠBon ucci
ad get
TC HQ
t áº§ng
G hen
T iá»ĩc
ĠTr Ã¹m
NH TM
ĠEl vis
m ag
lu Ã´n
ĠFar s
Ġ38 3
ĠPet e
N ic
ÄĲ u
01 7
B rien
Ġg oogle
Ġ4 28
Ho SE
th Æ°á»Łng
ĠPhillip ines
ĠBolog na
ĠDai mler
ĠI k
ĠVIN AS
T Ã´ng
áº» n
________________ ________________
card i
oh am
ĠWarri ors
ĠPh arm
nh ÃŃ
ĠYouT uber
ĠWin frey
Ġlá»ģ nh
K IM
ĠMad ison
ĠV CPMC
ĠMer tes
ĠMan or
39 6
ĠCin ema
ĠT ip
ĠS oÃłi
Ġ5 38
ĠP AN
ĠFacebook er
ick i
ard s
K y
ĠAS US
G á»Ĺ
ĠS ut
ap t
Ġi M
m á»ı
Ġ37 9
ĠAd vent
ĠTr oy
ĠAm az
b uá»ķi
Ġr Æ°á»Łi
ĠEl li
ĠBer ry
Ġx ÃŃnh
ico gi
ĠSt ade
ĠVal ery
t á»±a
ĠTh iÃªu
xx xx
ĠLuk as
ob ic
Ġac count
ng á»įt
os port
CA P
ĠEur owindow
ĠLuck y
ĠÄĲ Iá»ĤM
Ġ( %)
ĠMertes acker
ĠCle veland
o f
I l
ĠM á»¡
ĠCh arm
r áº¯n
ĠZ um
Ġban k
ÄĲ Ã²i
ĠVik ing
O SCE
ĠKr ug
ĠM á»ĳc
6 68
Ġ8 35
Ġ[ +
ax o
ĠSh akira
Ġtu lip
ĠF eed
ĠMississ ippi
ĠV X
ĠM á»ĩt
ĠAm ir
Ġ55 1
cap e
áº½ m
Ġmá»Ł n
19 58
ĠIndustr y
ĠSon ata
v Æ¡
lo áº¡n
k at
ĠKl ose
r Ã´n
ĠPar ma
ĠChr om
ĠK ei
av ier
ĠNor man
ĠÄĳ on
Ġr áº¡o
b Ã¡m
ĠAC E
ĠHo ff
ĠVolodym yr
L AN
ĠMal lor
K ing
Ġvi rÃºt
ĠAd ren
T al
ĠL áº£
ĠSch meichel
7 37
ÄĲá» £i
ĠNishi k
S ar
Ġkhá»© u
Ġ edge
Thá» ¥c
ĠCS XH
ĠOr tega
ĠPo tro
ĠBarclay s
ĠNg á»«ng
ĠKara chi
ĠF ivimart
Ġh em
0 55
v Æ°Æ¡ng
ĠBo om
tr Ã¡ch
ĠN B
br ink
Ġá»Ķ n
S n
ĠS od
8 28
ĠphÃª n
Ġl Ã³i
M Äĥng
30 8
NhÃ £n
Ġqu áº³ng
kh iÃªu
ĠTW ICE
8 75
ord an
ĠAsen sio
ĠU T
ĠSSC ÄĲ
ĠBr ug
ĠRiv era
ĠZen it
, .
V V
ĠGaul le
Ġnhá» ¥y
nguy en
s mart
ĠTh áº¥m
ĠR Ã¢u
Lá» £n
ĠC ov
ĠCon tainer
c áº©u
ĠM oo
Ġ4 29
iph one
4 15
ĠJul io
b Ãºp
ant es
ĠKen neth
Ġ4 22
ĠGior gio
23 9
ĠPr ada
Ġch iá»ĥu
ĠCarsc oops
áº¢ NH
ĠOx lade
ĠB LACKPINK
Ġ art
Ġr ob
ĠL áº£i
ĠSh en
SG K
Ġ9 25
c hÃ³
ĠOr leans
ĠP TC
ho on
ÃĻ Y
ĠIR GC
ĠReb ecca
ĠThÃ ¹ng
oz in
ĠVerma elen
Kh uya
pp a
fth ansa
ĠC Æ°á»¡ng
ĠTu áº¿
á»Ĳ ng
Ġcu á»Ļi
ĠQu Ã¡i
19 4
K P
0 95
st en
Ġster oid
ĠDarm ian
Ġ47 6
ĠÃĲ Ã¢y
it es
Ġtá»¥ m
ĠS ino
Ġ39 1
ay ama
Ġ7 99
E I
ĠM X
0 37
Ġbu á»Ļt
gi áº·c
S Ã¢m
ĠNgá»į a
ac ey
Ġth Ãło
Ġcos play
ĠT áº¡ch
en ez
ĠMcCon nell
d el
Ġg áº¡n
ĠOptim us
ĠQU ÃĤN
ĠKit ty
ĠArch it
00 9
ĠBoris ov
c end
ĠD IG
ĠG ua
ĠMal ik
Ġ Ã©m
ĠBV S
ph Æ°á»£t
ĠShar if
C arl
Ġd Ã²i
ĠPC X
Bang kok
ĠNE WS
3 22
ĠAvia tion
am ura
ĠK ali
ĠJ ia
car bon
ĠGund ogan
ĠOs asuna
ĠSanta Fe
ĠV OA
ĠLenn on
Ġ4 27
ĠÄĲ á»ĳp
Ļ n
3 95
ĠAP I
ĠGh eb
ĠPhilip ines
37 8
ĠCoo p
om y
chÃ ¹a
ĠSuss ex
ch áº£o
ĠCSÄĲ TTP
Am azon
along korn
ĠT ag
ĠB au
Ġ4 26
ĠCar valho
kh uyáº¿n
ĠAz z
) )
ĠAP PF
For ce
ĠB á»¥t
ĠK bang
ĠU YÃĬN
ĠOr ganic
ĠFad il
Ġ7 65
thi ng
ĠTem p
ĠE ther
ĠGun ners
ĠGi braltar
Thá»ĭ nh
Ġth Æ°á»£c
ĠIr is
Vin ac
ĠSul tan
ĠLey en
long bank
ĠDomin ica
fit el
ĠL aser
ĠR ita
ĠU ran
ĠCh ow
Ġ8 45
Ġtho ang
ĠCA X
qui rer
Ġngo e
ĠBr ig
S isi
ud y
bur i
T á»¥i
D ortmund
Ġ9 46
T á»ĳng
Ġm áº§n
Ġpoly p
v ette
ĠH á»ĳi
ĠCH á
ĠCHá »
f ess
ĠChÃ ¬a
ĠG MP
ĠÂł ĠÂł
c Ãµng
ĠBened ict
Ġl Ãºm
ĠD iv
98 3
bu Ã´ng
ĠEd inson
ĠVent ures
d Ã¡m
Ġng Ã¡i
Ġsne aker
ert z
ĠCo en
t á»ĳc
ĠDel oit
Ġ7 68
c uá»ĳn
Ġtu áº¿
Ġchu n
int endo
v á»ı
kh Ã¡
ĠSe ason
or ov
ĠF HS
ĠF lex
rey esus
ĠP ie
Te am
ĠMau rit
A sh
ĠPhone Arena
ĠthÃ ¢
45 5
ĠLi ang
ai th
ĠInter continental
ĠDeloit te
áº ¨n
Ġl Ãº
ĠDaily Mail
ĠP á»ĵ
Ġ38 1
5 95
D el
ĠL aptop
th Ã¡ch
ĠO g
thu áºŃn
Ġx á»ĭ
ĠKar ik
Ġb áºµm
ĠB iz
l Ã²ng
ĠN Ãły
ĠTh áº§u
ĠBos ch
ĠB ei
29 8
ĠU rus
ĠT Ãļ
ĠD ÃĤN
ĠAle j
Be ck
ĠE ra
ĠZ ac
ĠSuper man
ĠSad io
her ini
5 75
ĠHU T
7 75
ĠN ash
ĠX haka
to ck
ii i
ĠTab let
Ġkh áº¥p
et egui
ĠThan os
M áºłNH
ĠN is
ĠSp ar
ĠM AS
r al
ĠTa eyeon
Ġ36 9
St ation
B á»ĵi
ĠB ik
l ÃŃnh
az aki
Ġ16 00
ĠCo ast
Ġnit Æ¡
UN ICEF
27 6
ĠAz arenka
Ġhu á»ģ
ĠChe ong
GR DP
C á»±c
N Ãło
28 4
ĠW ant
V IB
ĠRup ert
ĠÄĳ Æ°á»Ľc
Ġpoly phenol
s ol
Ġs á»ĵi
Ġto Ã¡ng
Ì ĥ
ĠBar k
it el
28 2
ĠParad ise
ĠCO P
Ġ iá»ĳt
ĠK p
ic er
ĠJust ice
T Iá»ĤU
g ye
ĠH Iá»ĤM
Ġfran c
ĠA CC
ĠSi ham
l ÃŃp
ĠW ak
Iá»Ĥ N
Ġr iu
ĠSur abaya
Ġn áº©y
ĠW ai
SD LÄĲ
7 35
ĠL ÃĢ
ĠTo dd
ĠGheb reyesus
Ġr Æ°á»Ŀng
ĠTown send
antan amo
ĠN NT
Ġma xi
ĠVin mart
ĠS qua
ĠG im
ĠD io
ĠÄĲá» Ŀn
ĠMat hieu
Ibrahim ovic
Ġ8 99
Jess ica
ĠI PC
Ġo xi
Ġ04 37
ĠT Ã¡n
Ġ60 4
t os
G E
Nh o
ĠAg rico
ĠTour ist
ĠP ong
C Ã²
Ġly copene
37 3
ĠL E
ĠT ap
ph ao
ĠDub lin
ĠÄĲ VHD
int age
Ġr áº±n
ĠTh rones
tr á»¥c
Ġtr Ã¡c
As ton
ĠNest le
ĠÃĤ N
ĠOs set
30 3
ĠToul iver
ĠBe er
Ġx Ãºng
ĠRe id
D ong
V SA
sen i
ĠRang ers
áº ª
ĠSai f
ĠD ah
ĠB áº¥y
ĠL Æ°á»¡ng
ĠBB Q
ĠPer formance
78 7
ĠAleks andr
ĠPyeong Chang
ĠQuÃ½ t
ec on
Tr Ã¢m
ĠCh Ãłi
ĠAn ad
ĠLo ch
aw at
ĠRos a
ĠAir line
ĠMog herini
Ġs tory
ĠM PC
in ay
Ġpar acetamol
L uÃ¢n
ĠphÃ ²
Ġ34 4
Fin ance
ĠB ellerin
ĠT orn
Ġb Ã²n
BV CB
ur g
ĠAz iz
b Ã¨o
ĠT ito
ĠB eth
ĠJ ov
D Ã£y
Ġv anh
Ġnh áº·ng
ĠCarn ival
ĠK TC
ĠRob inho
ĠÄĲ áº¦U
ill ion
ĠHan el
ĠAlexand ra
ĠCruz e
Col ombia
Ġl Ã©t
Ġ39 6
iet o
ĠVN S
Ãģ N
les brough
ĠM LS
ĠMay bank
+ +
ĠY áº¾N
r ung
ĠL AM
ĠAn astas
ĠSelec ao
6 95
ĠV az
ĠS áº§u
ĠAndr ews
er al
ĠD UNG
Ġbá» §n
ĠSc ol
ek a
0 48
3 12
Ġv áº³ng
ĠM áº©y
C p
Ġhá» ¡i
ĠChÃ ¹m
Ġ39 2
34 6
ĠDong ABank
ĠKwak wa
ĠOsset ia
Ġchá» ¥m
ĠAP G
Gl obal
ĠN ess
Th aco
ĠP D
inam o
7 25
ĠC Ã²i
Äĥ h
am endi
ĠS ac
ĠShar ma
uy ff
Sc andal
ĠPok emon
ĠBris bane
8 35
ĠL áº·p
ĠRo om
ĠBe h
ĠÄĲT NÄĲ
D is
s á»¯a
ĠGi s
Cro atia
et ho
ĠC hÃ³ng
ĠGu antanamo
28 9
ĠThÃ ªu
Mob iFone
P e
Ġb rowser
Ġ4 46
Ġá» Ŀ
tr áº§n
ĠG TB
ĠNhÃ ´m
Ġl Ãºi
hi ko
ĠA IIB
ĠPh en
VN E
ĠBe eline
ĠS ent
ag ar
ĠSam ir
ĠKur z
A dam
ĠN ott
ĠP DF
Kho e
ĠKel vin
ĠS áº¿p
ĠAss istant
ĠN á
ĠC biz
ĠPV B
3 18
e uro
ĠAl d
Ġ4 24
ĠP ublic
ĠKH TN
ĠJ udo
ĠD w
ĠSal e
ĠCarl es
ĠPh anh
ĠHy dro
26 7
ony mous
ĠBern anke
R Ã¹ng
ĠNorm andy
ĠNá »
ĠN áº¿p
ĠAn s
ĠGrab Taxi
ĠArd ern
ĠGi ul
ru á»Ļt
ĠInstit ute
ĠNar u
ĠSiham oni
ĠCour t
ĠBos s
ĠTD DC
ÄĲ á»ĳt
Ġcaffe in
Ġcal ci
8 25
ĠE RP
ĠNgh iá»ĩm
5 65
o Ã³c
i os
U I
ĠMar quez
ĠS F
Ġ4 23
ĠPro p
C Tr
Äĳ Ã¨
ĠC od
ĠS ek
ĠMous sa
ĠN akhon
Ġ50 7
Gi Ãłu
ĠSo fitel
ĠNhá» ĩn
34 4
th áº¥y
18 90
IF T
Ġgi áº§u
ĠF ren
co ck
ĠSong kr
Ġcent imet
7 68
ĠEr t
N oo
up co
ĠSp ice
ĠRap hael
f ly
ĠI G
inh a
Ġ6 66
ĠTw o
S ub
m Ã¡i
Ġnhá»ķ m
ĠNav ara
ĠTR A
ĠTD H
food s
ĠR Q
ĠWoznia cki
ĠTart us
ĠTr aphaco
ĠGener ation
w anda
ĠDu o
Ty pe
Ar t
w al
Ġsá» Ľ
G an
ak ed
BC H
IN F
bach ev
he ad
X anh
Tr áº§m
ch áº¥p
ĠBar bie
B Æ¡
ĠHat oyama
Ġ9 55
Ġdo es
Ġr im
b uk
26 1
c áº¡nh
Br it
M á»ı
ĠMcK in
Ġv v
ĠTS KH
" ),
ĠGlobal GAP
Ġphen ol
abal eta
ĠK TM
ĠJ ill
30 9
ĠUn ai
Ġ43 1
O OC
ĠNG A
em dep
Ġca p
ĠHer balife
3 38
ly cer
ĠArt ist
ĠVD SC
ĠN vidia
j ay
ĠAj in
ĠE aster
ĠHel ino
MK I
ĠT ing
VP Bank
ĠTer ra
Ġt v
Ġx áº¹t
ĠTÃŃ m
Kh Ã¡i
M ake
ĠT CH
Ġcao su
ĠCar a
v ers
ĠSo Ã¡i
ĠWe instein
ĠNut ifood
r ica
06 9
Ġ? ??
aro en
b Æ¡i
ĠHá» ®U
thá» ©c
mu da
» īnh
á »īnh
Ġtr Ã¡p
ĠWest minster
MA X
k ÃŃnh
V er
ĠGen esis
Ġ4 38
gi Æ°á»Ŀng
ĠQu en
att ah
ĠP ah
ĠY outh
Ġrá» ©a
ĠW ed
Ġ00 1
Ġd iÃªn
Sp ace
zyn ski
ÄĲ oan
ĠAssoc iat
Ġchá» įt
ĠKho Ã¡t
ero x
46 9
ĠFO B
ĠI OC
k az
w s
Ġ37 4
ĠLop etegui
Av engers
ver ter
ĠU RC
Ġ4 36
ĠJ our
L H
ĠNg Ã¡t
w est
ĠT IM
4 12
Ġg á»Ł
ad in
p ir
ML M
ĠChamp ion
cheng ladbach
v iÃªm
Ġnh áº»m
Ġch áº¹t
ĠÃ´ sin
ĠAmbros io
ĠTT XD
TH áº¢O
ĠK iá»ĩu
ĠIr ma
ĠMont ana
ĠA DS
ĠLu fthansa
was upco
ĠSongkr asin
ha fi
B ev
ĠM áº¥u
ĠTá» ¥y
ĠSt ad
ĠColom bo
ĠEmp ire
Ġ Æ¯á»Ľp
rÃ´ in
ome u
Ġant ifan
an za
Ġf air
I O
Ã ¤
ĠB áºŃc
ĠvÃ© o
Ġ43 3
Ġ44 1
w ings
ĠDol by
ĠChi ron
ĠRe ina
ĠOb amacare
ac io
Ġf ac
âĢĻ ).
ĠRu á»Ļng
ĠPV TEX
Ġá»ī m
KS S
au g
Ġkho m
ĠL ord
ĠGP Bank
ĠTh áº£
ĠMar ian
B Ã¬a
ĠTit anium
ang a
ĠKam al
d Ãłn
0 43
ĠAr mani
per ty
Ã´ l
KT NN
ĠU sh
Äĳ Æ¡
29 6
ĠTor ino
Pr em
S GD
B Ãª
K Ã¨m
Ġ Ã£
Ġ39 4
95 97
ess ions
ĠM TP
há» ĳt
ĠOt amendi
Ġrup iah
ĠN YT
ĠK IS
Ġrá» ģn
ĠCT D
ĠHots pur
ĠI FA
ĠBLTT HS
ĠW esley
ĠAr amco
28 7
ĠSp encer
Ġ45 4
Ġphá»¥ t
ĠMar qu
ĠT iki
ĠCraw ford
ĠL ada
Ġ44 8
LA C
Th omas
ĠÄĲ Ã²
80 4
U NDP
ĠNic ola
0 88
S ex
ĠOl imp
Ġ4 21
Ġhip hop
Sel ena
ĠClar ke
ec tin
ĠFran z
Ġr Ãºc
Ġnghá»ī m
SE C
ĠMac ao
ĠAjin omoto
ich y
ĠOr gan
ĠCro uch
U E
y at
Ġngá» Ĺ
± t
ĠDo osan
M ur
ĠHo sp
ĠCarl sberg
ĠZel en
ro bi
if fe
ĠCh áº¡m
Ġb ass
Ġsand wich
ĠSp yder
ĠRog ozin
Nh iá»ħm
ak ers
all ana
¤ C
ĠD rop
Ġ0 69
ĠPl Ã´ng
Ġmod e
ol and
ĠCB NV
ĠT atar
eg ie
g Ã³c
s hip
nh áº¯c
on ie
ĠPor ter
g Ã´
ĠS we
ĠBro w
Gi Ã¡p
c ial
ĠT err
ch iáº¿u
ĠO dd
rab ook
ĠCl ara
Ġ45 7
c ity
c ua
ĠÃĵ c
ĠB F
ĠRob usta
C ab
S X
ĠD IC
ul ife
sul a
ĠLam bert
Af ghanistan
ĠK M
ĠKr iten
ĠAt kinson
Ġ0437 9597
Ġ04379597 83
j ab
ģ nh
ĠD us
tr áº£i
ĠEdin burgh
S at
ĠTá» ¥c
ax im
hÃ ´m
ĠD MC
yr i
IG A
ĠJ D
Ch áº¡m
ã ħ
ĠE asy
ĠGl as
Chi le
06 8
ĠP s
D áº§n
ĠH TM
uy nh
Ġd etox
24 1
ĠÄĳ áº·ng
ik en
y to
ĠTH VL
ChÃŃ n
ĠBeat les
Ġngo áº¯t
ĠE ven
ĠNghá»ĭ ch
30 4
ĠNM LD
7 85
ĠT ax
ad ar
ĠPV comBank
re ira
SV H
ĠFI T
Ġnh ao
az iz
cu á»ĵng
7 99
ĠH Ã¡
28 3
Ġ46 2
0 46
ĠKhÃ³ c
19 49
ra j
ĠSt ark
ĠAm way
ĠRO E
7 43
ĠVB QPPL
5 15
ĠIS I
6 65
ĠhÃ£ o
kho anh
ĠBer muda
ĠL una
Ġkhá» ĭ
ĠThay er
ĠClo oney
y Ãªn
ĠN CKH
36 9
j p
ĠHá» Ŀi
ĠHen ri
S ev
h ui
ĺ T
ĠOr ch
ĠKriten brink
4 01
ĠL icogi
ĠY ud
ĠOsp rey
Ġv áº¥y
ĠPepsi Co
c ai
Ġs ub
ĠDan ilo
29 3
ĠInn ov
ĠS kin
0 22
ĠSh ort
ĠS ee
ĠOlympic s
ĠGiá» ĳc
E PA
Ġm áº¥p
ĠTh áº¥u
Ng á»±a
ĠKH LCNT
38 2
ĠSav ann
Ġring git
g áº¯n
28 1
5 12
Ġ44 2
ĠKon o
ĠPh otoshop
Ch en
34 7
47 8
dy s
ĠQ antas
ĠI cardi
Ġi S
him i
ĠT á»³
c Æ°
ĠD ÃŃ
at su
ĠRay theon
ĠF ro
Ä¨ NH
ĠH ack
5 000
ĠK oz
29 4
á»ĳ k
ĠP ou
ĠF um
ĠF ury
s av
TU á»ĶI
5 99
Tr Äĥn
qu áºŃy
ĠTr áº§u
ĠGP XD
ĠGu aido
ĠTO ÃĢN
Ġh al
Ġk iá»ĳt
ĠLim ousine
ĠHen rique
Ġrob usta
ĠP oh
A ct
N áº¥u
ĠD D
ab uri
Ġ47 1
c orp
ĠM áº¯c
ĠF o
25 1
ĠClever ley
) ",
Ġt ele
Ġd á»ķi
ĠCh Ã¡n
ins ula
ĠÄĳ Ãªn
Ġ( !).
ĠCol lec
qu en
Ġcarot ene
Ġskin ny
ĠErt iga
sp ace
ĠKl aus
H Ã¢n
S uá»ĳi
b Ã³p
y stem
ĠPer isic
ĠV áº¯ng
ĠTrust Bank
A c
ĠT ac
ĠAtt ila
d Ã¢y
ĠLu la
34 3
Mo on
k on
Tr Äĥng
Ġthu á»Ļm
ĠZ abaleta
zeg ovina
Ng á»Ļ
Ġ40 7
v at
v ing
ĠÄĳ áº«y
ĠB am
or ity
ĠN TP
ĠI NT
ĠB ua
ĠD ÄĲ
HD Bank
Ġ38 7
ric ia
ng á»ĳn
ĠW ealth
ĠCr uyff
ĠÄĲo Ã¡n
U r
ĠM á»ĭ
Ġ25 00
Ch amp
Ġblue chips
0 23
V Æ°á»Ľng
ĠMan n
Ġ45 2
M ah
ar ie
Ġp re
st ra
3 23
ĠDavid son
ĠYan bi
Th áºŃp
Ġcáº£ o
b log
ĠL ian
ĠS AP
75 5
Ġ19 31
IDI FI
Ho áº£ng
ĠG wang
Ġv intage
ĠT otti
Ġthá» įc
iv ad
ĠAN ND
ĠI mm
ĠRobo con
m Ã¹
ĠP Ã²
es pa
ad ezi
ĠNHTM CP
Ġpl ut
E ng
3 11
ĠEuro Cham
ĠRub in
Ġrá»ĩ p
ĠT EU
ĠL LC
yan sk
c Ãłng
AR A
Ġp iston
Ġkhu Ã¢ng
ans as
TR á
ĠScol ari
TRá »
Ġc ell
NT ech
ĠBern ardo
J CPOA
ĠOl ga
ĠIS IS
? )
ĠV Ã¡n
Ġch áº¡ch
THA AD
ĠN Ãªu
ĠS YM
Kho ang
i OS
ĠG Ãµ
l á»¥c
Ġ áºŃm
ĠHy att
ĠBQL DA
' m
m áº·n
Ġ5 28
ID O
Ġ ....
Mas dar
Ġ39 3
Ġto Ãłng
ir m
ĠCN Y
M Ã¹ng
ĠT amp
33 9
ĠB oo
ĠÄĲH SP
CH Ãį
C ai
ĠCh al
6 99
Ġo ang
37 7
c áºŃp
t ao
Ġm á»ĭch
Ġ ap
ĠB Ãły
ĠF av
ĠPH Æ¯á»ļC
w aco
ĠEl sa
ĠV iÃªt
35 7
ĠGor bachev
ip t
ĠKn ow
b á»Ĺng
M Å©
ĠV AFI
ĠD et
ĠR apper
Ar n
and o
25 7
40 2
ĠL un
c en
ĠSab ah
ĠcÃ³ t
ĠSa ab
ĠKle in
Ġ47 4
sm outh
ĠAff leck
ĠG os
ipp o
27 1
B ale
ĠB astian
akes pe
ÄĤ M
ashi r
w C
ĠchÃ ²
Ġ4 17
r n
ĠM ab
ĠX E
ind o
hÃ ´i
ĠX Z
kn app
ĠLou ise
Ġ Î
ĠEVNN PT
VN áº¢nh
Phá» Ł
ĠPetro Vietnam
g Æ°Æ¡ng
Ġr á»įc
ĠDT LCP
ĠReport s
r ai
ĠMor i
ĠKur il
Ġng áº¥p
L in
ĠGab bana
ĠP Y
ĠDO HC
ĠL NA
ĠMo ong
qu et
6 17
ĠB áº¥m
áº¤ U
ĠCHÃį NH
0 98
D iÃªn
tr and
ĠBook s
Ġclin ker
M AT
ĠA kh
ĠN intendo
ĠG hani
ĠAsp ire
M Ã¡u
38 3
7 45
id ong
khá» ī
K iá»ĩn
ĠJ as
ub ai
ĠK eng
C á»ı
s Ãłn
Yo nhap
ĠTow ers
ĠMil ano
r Äĥng
ĠC i
Ch an
Ġváº» o
ĠC andy
f ar
ĠAgu il
3 24
ĠP te
ĠEdward s
Ġc it
47 9
ĠD Ã¬
ĠH ew
ĠL áº§m
05 4
ÄĲ ÄĤNG
Ġláº½ n
L uk
Ġ6 45
Ġbal Ã´
60 8
ĠNag oya
ĠViet Times
ton a
ĠVal er
Ġbio gas
ĠM ok
ĠNishik ori
ĠÄĲ áº§y
b ler
as u
ung e
ĠâĢ ĭ
6 55
W ar
ĠL iÃªng
ĠTh inh
Ġlu á»Ļm
Chá» «ng
ub l
Ġ60 5
uk u
ĠMoh d
USA ID
ĠM á»¥
Th s
ĠJac obs
Ġn eon
05 2
r oo
ĠP J
en co
ĠB oh
v á»ĩ
ĠTR ÃĢ
ĠU SN
ez a
ĠTam iflu
PV PHC
KH ÃĶNG
r il
ĠReyn olds
b ull
ĠA uth
ĠPVF CCo
U Ã´ng
og lob
Ġ6 12
37 6
ĠB ANK
Ġ5 18
ĠPh iÃªng
ĠBrook s
ĠShanghai ist
Ġmad ut
ĠGul f
Ġvlog ger
Æ° h
An na
Ġcoc ain
Ġ19 35
Ġ45 3
ĠEVNN PC
Ġtho ai
Ļ p
ĠHist ory
l á»ĩch
ÄĲ D
ĠCS TT
Tr Ã¢u
ĠZ or
ĠNamib ia
Ġt alk
ĠBran son
Ġ6 49
ay ak
ib a
o ji
t Ã¡m
ĠAv enue
F l
r á»Ļng
ĠDynam ic
C ienco
Ġh igh
4 88
ĠDay s
ĠL Æ¡
ĠDel e
ian t
ier e
Do Ã£n
ĠA TC
F PA
N B
ĠD anc
r un
gi Ãłnh
ĠRam adi
P en
qu áº£ng
40 6
ffe nheim
Ġnet book
ĠCarn aval
an u
ĠWolver hampton
Kh ang
re ad
ĠErn st
k ut
ĠV BA
ĠE SO
25 9
ĠSand s
ĠDar win
Ġbá»ĩ n
ĠFi ji
ĠGr ad
Gi Ãłn
gi áº£ng
CH I
3 17
ĠD ora
Ġy ear
0 27
3 13
M á»ĩt
ĠTak ashi
H áºłNH
Ġd emo
ĠR wanda
ĠBe au
ĠJab hat
B Ã¡m
x en
Ġp ound
ĠK is
ĠThÃŃ t
Ġphá»ķ ng
ĠTho ong
Ġp o
ĠMax well
gr ade
ĠKL F
ĠSoy uz
6 88
ĠN CC
r ine
3 28
ha e
ĠPr ado
ĠUr sula
ĠSP D
6 45
z illa
Ġvi lla
d Æ°
ĠTH ÃģI
ĠBen nett
m áº£nh
Ġ6 01
ĠBrem bo
ĠPK K
58 7
ĠPung gye
ĠMS B
ĠAT K
ĠKe ita
Ġvá»Ŀ n
I d
Ġg áº±m
ĠB áº©y
ĠKhÃ ´
l ook
ĠSo th
36 2
u xe
ĠVND irect
gd emont
ĠHo Ã¡n
ĠBl ood
ĠD ew
ĠWind sor
ĠAd vanced
ĠNV L
29 7
ĠOlympia kos
Ġc á»Ļp
Ġw id
70 5
ĠÃļ y
Ñ ģ
Ġnh Ãłnh
ĠÄĲá» ĴNG
ĠTP DN
Ġca d
l ana
Ġkh áº£i
ĠH Ã©
ĠI TC
tr á»įc
ĠRe c
ng á»įn
hÃ ¢m
ĠNg an
ĠAr g
ĠMil os
v Ã²i
Ġp lus
ĠH ano
ĠD ut
Ġ icon
ĠCarn egie
s is
x tin
Ġ19 17
do ck
E s
m ax
Ġ(? )
b ine
ĠH BB
en ig
carot ene
Ġh uyá»ħn
s pot
z burg
38 7
ĠV MS
m uá»ĳi
Seo ul
b á»Łi
n á»Ł
hÃ ´n
ĠÄĳ áº«n
ber s
ĠUP U
ĠGia dinh
ans om
th Ã¡i
34 8
ĠÃĲ oÃłn
ĠMina j
l ake
T ung
GD TX
ĠBart omeu
H Ã³c
ng Ãłn
th Ã¡o
ĠLav ie
7 47
ĠFri ends
ĠTh orn
ĠAd mir
ĠFig aro
Q A
lao dong
ĠL ex
ank ham
ĠBr io
X Ã¢m
chá» ¯
ĠSal butamol
ĠJohannes burg
L ogo
Ġ6 35
ĠKhu Ã´ng
ĠBrist ol
ngh iÃªn
3 26
Ã½ ch
nh áº§m
ĠV Æ¯ÆłNG
ĠAn elka
ĠThá» Ŀ
Ġw as
ĠSev er
ĠTM Z
aton in
X Ã´n
» ļt
á »ļt
ĠS old
ĠO F
ob or
3 34
Ġmá»į n
ĠSt op
ian ce
ĠIM AG
ĠV M
CL IP
Ġhat trick
tr Ã³i
ĠAl aba
ĠTh Ãłng
ĠPui gdemont
ĠK and
ĠÄĲ X
Ġt el
39 2
4 16
ĠS aga
ĠSt or
ĠCan xi
ĠNick i
ĠM evl
ĠL N
ĠZ uma
T ass
r ar
k ÃŃn
Giá» ıi
0 33
Ġ46 3
ĠP ont
ĠCarr ie
3 37
s áº¯c
Ġr et
ak is
ĠPatt aya
ĠÄĳá» ıng
Ġ44 9
ĠBol k
ĠBamb ang
ĠPag ani
Ġt ong
) "
tr Äĥm
Ġtá»§ m
SN SD
ĠPal u
Pal estine
5 85
B Æ°u
ĠSub oi
s tream
Ġ46 4
ĠCL MV
u tr
ĠC á»į
ĠClau de
ĠGand hi
Ġv Ã¹n
ĠCar ney
Ch Ã¡n
Ġf t
ĠBK AV
ĠM iá»ĩng
D X
f ran
ĠS eg
ĠÄĳá»ĭ u
8 55
as one
M Æ°á»Ŀng
P at
ĠTV QH
V Ã³c
ĠAnad olu
ĠL allana
áº º
ĠPr ius
F ab
ĠBel le
y ono
ĠM IL
lor amin
Ġ46 1
Su arez
Tom inay
Ġnh Ã´ng
ĠTá»ķ n
C F
EP S
las ma
ĠR ÃŃ
ĠRub en
78 9
ĠThib aut
ed d
ĠAn bar
Ä¨ A
ĠHu ay
L I
ĠTrav is
há»Ĺ n
ĠRho des
ĠN CS
5 23
ĠL ogan
er ald
ĠJ ew
ĠBr enn
az za
ĠMichel in
se in
Ġ39 7
33 1
p us
ĠRo th
UBCK NN
ĠDom inique
ÄĲ ÃŃch
ĠR enzi
ĠP TT
ĠIm age
Mil an
8 45
ĠH enn
ĠL ÃĿ
ĠTr ee
ĠMH z
ÄĲ Äĥk
ĠTH áºłCH
t Ã¡t
aw are
K ey
ĠK od
ĠJ oker
Kh Æ°Æ¡ng
Ġs ec
aty usha
ĠUp ton
och oi
Die go
ĠAm ata
ĠPle i
Â º
ĠE qu
Ġrock er
an z
Ġcon dotel
ĠK ut
Vinac onex
ĠS edan
ĠNem tsov
ĠMar iano
ĠSal a
67 8
ro ck
ĠKep a
ĠVN I
ĠArk ansas
5 47
ĠVin astas
to um
I BVCB
B or
ĠCP C
akespe are
qu Ã¡n
ĠMund o
ĠN iÃªm
S á»ķ
Ġb áº½n
ac on
ig l
ĠMallor ca
B áº¯p
ĠN aw
ĠS ov
34 2
Ġ47 7
ĠFly ing
ĠI JC
ĠRed knapp
9 75
ĠJack ie
V áº¯ng
X Æ°á»Łng
ĠCham berlain
ĠH id
ĠAg ain
es k
UYá» Ĩ
Ġo zone
t ed
ĠTh al
Ġ44 3
L N
C or
s hop
ĠLyn k
ĠcÃ ¹a
ĠSal is
ĠH OT
ĠKh uyáº¿t
ĠDen ver
Ġph Æ¡
In tel
3 14
ha w
Ġr á»ĳc
45 9
n it
ĠR FI
p atch
Ġ8 000
LÄĲ TT
chá» ¥c
ĠKans ai
T áº£i
c á»ı
05 6
ĠLuhan sk
uk o
ĠEd erson
n ight
ĠTR ONG
0 26
T ASS
Y C
ĠM F
B uá»Ļc
ħ nh
ĠL áº¯ng
ĠRai ola
ĠYel low
ol id
H elino
ĠSam ar
ĠÄĲB VN
ut ure
PC TT
aw ay
Ġ47 3
ĠDown ing
0 29
ĠL á»³
ĠA in
ĠIntellig ence
p at
O ppo
ĠSu le
,âĢ¦ )
sh are
ĠBL DS
ĠModern a
ĠLil ly
ĠVÃµ ng
ĠCl ay
ĠÄĲá» ĸ
ĠHK VN
ĠTorn ado
ĠDh aka
Ġ8 68
ĠMoz art
ĠP CB
h l
Ġ %,
ĠSa ak
5 22
ĠR Ã¡ng
ĠGer main
Ġ47 2
g t
s Ã³i
Ġ50 3
ĠEconom ic
Ġm Ãµ
ph áº¡m
ĠChi l
ĠHosp ital
ĠFran ck
Ġ áº¹p
Ġb Ã²ng
Ġ8 65
ĠNS W
áº¾ ch
th Äĥng
ĠEs cape
H appy
Ġcan o
CS IS
ĠAnalyt ica
ch am
on ium
ĠAl icia
ĠthÃ³ a
ĠSc reen
H al
Ġr ep
34 1
ĠPr atyusha
han om
g á»¡
30 6
ĠPen insula
l uigi
ĠR ashi
san ne
Rad ar
Ġtá»ī m
Amer ican
n áº¥m
Th uá»Ļc
09 6
app a
ang o
in ternet
Ġcor onavirus
h iá»ĥu
ĠC ÃģC
ĠD utch
ser ies
n ick
ĠB od
ĠPV FC
Ġvi olon
88 5
ĠLÄĲBÄĲ VN
W TI
Ġ á»įp
ĠVa j
ĠK ul
ĠBeyon cÃ©
há» ĵng
ĠO PCW
ĠRah ul
ĠAn andi
ĠO dys
apluat plus
0 38
ÄĲá» ĸ
Qu Ã£ng
35 4
ĠSJ S
Ġh ave
36 7
Ġs Ã¬
ĠTan aka
ĠMo Mo
ĠcÅ© n
36 4
nh Æ°á»Ŀng
ĠK ram
ĠW es
ĠBl as
Po int
ĠMis ter
ĠHar m
ĠBa chel
ĠGl enn
ĠAnn ie
ch on
SN A
46 2
EX O
ald um
ĠHann ah
Ġt Æ°á»£c
ĠA pr
Ġ48 6
ĠA us
ĠKh ab
om bie
km an
ĠHO ÃĢI
ph un
ĠTak eshi
t á»ĳng
D Ã¢u
ĠGi Ãłn
Phun utoday
ĠMari upol
ĠCh and
l áº§y
Ġ Æ°Æ¡n
Ġc ty
nghÃ ¨o
V áº¯c
ĠP ax
ĠG TN
37 9
M oham
Ġ48 2
ĠAle k
ĠTs onga
ĠN Ãªm
ĠMar x
ard t
ĠNa cho
ann on
t Æ°á»£ng
ĠÄĲá»ģ u
FS B
ĠHer m
5 44
ĠSom ali
Ġgi áº·m
ĠG Ã¬n
ĠRock er
ĠM ona
ĠChá» £t
Äĳ áº¿
ĠAd hanom
C á»Ĺ
art z
ĠD ier
Äĳ Ã´n
ĠKir in
ile aks
Ne ill
29 1
Mid u
Ġ45 1
ĠHos ni
m Æ¡
Ġph áº¥p
ĠBolk iah
Ġkh uyá»ĥn
Ġ50 6
ĠNH áº¤T
ĠPort smouth
n iá»ģm
u ang
Ġp pi
ĠW ho
Vol kswagen
T áº§n
h un
v ip
ĠN ever
ĠHel io
ĠRos Ã©
ĠKol arov
ĠFus ion
ĠSam i
7 88
Ġshort s
ĠThu á»Ł
. ",
ĠPort land
ĠMend y
Ġh áºŃp
Ġcá»¥ p
te Dance
y ou
ĠP Ãªnh
n ab
Ġ39 8
Bel arus
Z idane
ĠMidd lesbrough
J ung
08 2
aglia ri
c oi
ĠVe j
Ġkhá» ±ng
ĠLink ed
is tr
ez zi
e ur
Ġs tr
Ġsáº ©m
Äĳ eo
Ġc aro
w all
33 2
dr ado
ĠLov ren
b et
O B
v ang
ah ce
ĠField s
50 8
C Ãºc
H AN
ar ena
os o
ĠD ro
ĠVá» Ģ
r ess
Ġt Ã©c
BL HS
You T
ĠMevl ut
Tr áº¡ng
ab it
ĠKS V
ĠUP I
ĠInt imex
30 7
m á»ĳt
Ġ7 27
ĠSalis bury
ĠNaru hito
ĠPrinc eton
ĠCh ro
ĠEver y
an an
ĠAd dress
ĠPlay Station
ĠPhel ps
ĠB MC
es ar
ĠCor vette
ĠUBMTTQ VN
ĠphÃ ¨o
ĠJ eb
ĠCar ry
J ordan
h Æ°á»Łng
s al
Ġk ip
ann ing
38 4
South ampton
ĠD inamo
Ġ5 49
Cong ly
K Ãªu
t Ã©
ĠSh ear
ĠCl ick
ĠI PP
Ġ9 15
19 31
ĠIMAG ES
out i
ĠRoll ing
san to
LÄĲ BÄĲ
ĠD iet
Ġ19 34
áºª N
r Ã¹a
O K
D Ã¢m
Ġf ake
Lu is
l em
ĠZ ub
in dex
ter dam
to cin
IN ee
ĠDá» ©t
c lip
Ġol ive
ĠFon se
ĠTrail er
ĠR est
ĠCN ET
app hire
ĠÄĲá» ĺNG
ĠTP L
ĠL R
ĠD DR
ĠG á»ĵm
36 3
Ġxu Ãª
ĠC U
ĠK ry
34 9
l Ã©p
id is
60 5
Ġv Äĥc
x Ã´ng
x Ã¡ch
ĠDel uxe
in al
ĠThunder b
3 27
Ġtu Ã½t
Ġdiez el
Ġtr áº½n
ĠSal monella
ĠX áº¡
ass ic
ĠSB IC
ĠG oh
Ġrá» Ŀn
ĠPap er
s am
ĠSAO star
ad am
M á»Ļ
c áº¯n
Ġdes ktop
ĠJ SC
48 7
Ġv áº±ng
ĠRut te
M Ã¡
Ġ7 01
ĠVI áº¾T
ĠW ushu
CH DCND
ĠKien longbank
Ġp ol
0 77
ĠQ as
ĠPh ia
ĠMich eal
Ñ Ĥ
Ġ60 9
ĠM aha
35 8
05 3
ĠEng adget
5 24
ĠAl der
ĠSic ily
Ġch au
ĠV á»ĭt
19 51
Äĳá» ģn
fer ence
ĠRic ky
ĠFor lan
Th ang
Ġtá»ħ nh
Ġá»¨ c
m edia
ĠB CS
EC T
ÄĲ L
ĠO seni
k ir
ĠS MA
Ġ5 23
ĠLan cer
ĠVietnam plus
ĠTai wan
LÃªn in
3 29
Ġ44 4
ĠPol icy
ebr aska
Nh áº£y
ĠPV P
ĠHam mond
Ġ und
ĠCá»¥ t
ĠJos ep
oc yan
Ġac et
Ġsá»Ŀ n
b Ã¹a
ĠSon adezi
ĠShar on
ub b
37 2
ĠBank s
q iri
Ġ45 9
Ġson ar
ĠHer man
Ð ½
ĠB VN
ĠC un
ĠT TV
4 14
Ġ19 28
ĠTH áº¾
ĠÄĲ ai
ĠKhá» ī
ĠLlor ente
Ġtur bo
ĠWins ton
X o
g ow
es ca
berl ake
ĠAlej andro
s n
há» ¯u
tr Ã¢u
ĠMu á»Ļi
ĠhÃª rÃ´in
06 2
ĠV EAM
ĠTh áº¥p
ĠU ly
ĠChá» Ľ
Arn old
ĠH áº¥p
ĠInvestment s
19 56
Ġngo áº¡c
60 3
ĠPan y
?? ?
Ġnin ja
Ġng á»į
ĠQ LÄĲ
ĠSol omon
ĠL ik
ĠX ing
Ġcrop top
Ġt áº¹o
ĠS ÄĲT
evel op
ĠN Æ¡
ho d
ĠSc r
rad or
l ive
Ġchu Ã´i
ĠX Ã¡ng
Ġ47 9
ĠRub io
ĠSp art
thÃ ´i
d uy
fe ed
Ġdiez en
ĠCoen trao
St art
ĠJ PA
19 25
Ġ55 8
ĠACB S
ĠL iá»ħn
39 8
V á»īa
ab o
SK ÄĲS
há» ¥t
ĠAnastas ia
ĠF le
B oy
New castle
Ġrá»ĩ u
ĠErnest o
ĠL TT
ĠL ives
ĠSt ella
Ġm eo
ĠW C
Ġ54 3
ĠI con
Ġ7 49
ĠXi ang
ĠH Iá»ĢN
Ġgh iá»ģn
ĠDel aware
ĠM á»ĵ
ĠP hÃ´ng
ĠIvan ov
Cal ifornia
uz z
39 3
we ir
d own
ĠN oah
Ġ60 3
%) âĢ¦
L Ã£ng
ĠTr Æ°
ĠK esley
ff ic
ĠCH DC
Qu en
ĠVN CERT
ĠSte p
ĠHá» Ŀ
ĠCr es
ev e
di um
ĠSaak ashvili
r Æ°á»£u
57 6
Ġrem ix
ng Æ°á»£c
ĠZ ircon
ĠH áº¬U
ĠK G
onia c
06 3
ĠT eg
ĠOx fam
p or
Äĳ ua
r Ãło
v ien
ĠY ao
ĠWal sh
ĠTO W
ĠMaster Card
ĠCS M
ou f
ĠMel ia
Ġb as
ĠCar la
j c
am ar
Ġká» ģm
Ġ5 13
k Ã©p
Ġk ey
ĠR PG
ĠT ivi
Ġph áº¯t
ĠSa ad
Ġ55 3
ĠCap ita
ĠNÄĲT NN
ĠTim berlake
Ġ6 99
B á»¥i
ĠM ie
60 4
ĠSol utions
nh á»Ľ
ĠAn im
L P
ĠID ICO
Ġs Ã©m
5 88
ĠÄĲ NA
3 16
ĠQu Ãªn
t iti
ĠCrist ina
il ight
ĠA E
B ox
80 2
ade j
ĠShow biz
s Ã¢m
ĠWal ton
ĠArt uro
Ġtr áº£m
Ġb oot
et i
B Ã¡ch
N O
V áº£i
ĠN ieto
ĠWal k
ĠH Iá»ĨP
et r
ĠSw ee
07 9
ĠM áº¾N
ĠV Ã³c
ĠM iz
ĠTh ings
Ġ5 37
ĠAlm az
Ġv al
ĠPhÃ ©p
âĢ¦ âĢĿ-
ĠPay et
4 33
Ġ19 27
ĠVaz quez
R olls
Ġt er
L ago
c hÃ³ng
Hot girl
K Iá»ĢU
s han
K az
z hi
ph er
AD E
ĠNik on
ĠJis oo
ĠS is
ngh iá»ĩp
ad es
bor ough
ĠMa e
ĠScud etto
b as
N av
Ġng á»Ļp
ĠPau la
D ay
Ġl áº¡n
ĠKh iá»ĥn
TR A
N ik
ĠMau rizio
Ñ Ģ
Ġt Ã½p
lo h
49 7
ĠTr uman
), âĢ¦
Ġ48 9
ĠPh ot
TU áº¤N
ĠLU áº¬N
Ġb áº¥c
chá» įi
onex port
z in
ĠBÄĲ VN
77 6
Ġr áº¯t
Viet times
áºł O
ĠChurch ill
Ġ46 7
B QP
hÃ ²n
Ġ48 3
Ġ46 9
K en
ĠF ARC
ĠNob le
Ġc y
du ce
ĠHau te
Ġg lu
ĠGustav o
Ġ9 19
40 9
ĠJohn athan
L uyá»ĩn
m ich
áº¹ m
35 2
49 8
ĠShop ee
ĠR áº¯c
ĠSh inh
ĠPro perty
c ut
ĠP Æ°h
ĠBer trand
G as
Ġn aked
ĠAn onymous
4 37
7 95
Ġchá» ķ
ĠV accine
ĠHu á»ĵi
ĠAc tion
X PVPHC
he in
S F
Ġng Ã¡ng
id ium
ib outi
ess age
NT D
ĠIR NA
Ġchá» į
ĠL Ã¡o
Ġ43 9
ĠS Äĥn
s áº¯p
im oto
ĠKy ushu
O anh
t Ã¡o
gi am
Lou is
Ġ55 2
ĠR E
ĠQu at
TX T
ĠRy u
c ook
Ġs áºŃy
Ġtu áº¥n
ĠQu inn
ĠMb ps
ĠD RC
ĠchÃº i
Ġ49 7
ĠB att
ic z
lu or
by on
ĠVinaca fe
0 21
ĠPat ricia
ĠE gy
ĠSc ient
ĠGI Ãģ
Ġ56 7
obor onexport
Hung ary
Ġkh áº£nh
ĠN TT
ĠS ÃŃn
ĠPh áºŃn
Ġ over
ĠZag reb
Th ung
Ġ6 24
I r
x Æ¡
ĠÄĲ ao
ĠM AMA
ĠA MC
ĠCh Ã¡
B VN
N á»ĳt
J an
ĠG NA
Ġ65 5
ĠFonse ca
U FO
08 6
ĠLib ra
erb ahce
ĠT áº±ng
Ġng áº¡nh
ĠM ecca
ev adep
ĠNai robi
ant ile
td own
ĠEven ing
ĠAmb ani
ud in
âĢ¦ ",
Ġblo use
9 25
X oÃłi
Ġs áº¿u
ĠA IC
ĠBar nes
ĠTr á»¯
ĠMai ne
DL L
ĠCur tis
H áº¡m
Ġb Ãºng
Tru idense
ĠD iane
ore a
ĠD U
ĠLu á»ĵng
ry n
Ġnicot ine
Ng Ã¢m
ĠX Ã³t
68 6
ĠMet al
ĠPO W
ĠCamb odia
Ġkh Äĥm
ĠC AN
ĠG ag
Bong daplus
ĠN olan
ĠK us
Thá» į
L iá»ĩt
ĠM oan
tr á»©ng
ĠCh um
ĠGood ison
9 11
C are
Ġm ash
vn express
jaj iva
C á»§ng
ĠV et
ĠKim ber
ĠN X
ĠN ath
ĠLor enzo
ĠPh in
ĠE M
60 7
ut inho
ĠKhark ov
4 11
ĠN ung
ĠW I
Ġco un
ĠAless andra
45 1
5 35
od ie
lip op
ĠMc Master
Ġtom boy
ĠM Æ°Æ¡ng
ĠFol ey
Ġg uá»Ļc
ik ov
ĠPy i
ĠFre edom
Ġr eview
ĠInf antino
c ur
Ġ ~
ĠD á»ģn
le h
Ġd Ãµng
ĠX Ã¢m
n á»ĵi
L áº¥p
ĠN á»ĵng
man tec
Ġxá»ķ m
May bach
S Æ°Æ¡ng
ĠKH ÃģC
ĠMedic ine
ĠB CA
ĠHe ard
lec ano
h Ãłi
ĠR is
g Ã¡c
p ers
Ġ av
Ġdá» Ľp
Ġin stagram
ĠSil at
K u
ĠX N
ĠthÃº y
ĠPat rice
ĠManag er
Ġdec al
ĠPit ts
ĠWir eless
ĠS Ãºa
Ch áº·n
ĠTM S
ĠJ F
Ġxo áº¡c
05 8
R yan
N ap
Tr á»¥c
th on
ar ev
ĠL Ã©
ĠL Ã¨n
ĠJo int
ĠMc Tominay
ĠAmaz ing
ĠH uá»ĳng
ĠSer ver
D ep
Ġch amp
eo k
ĠGu iness
H ow
ĠA ly
Ġ56 2
ur in
Ġ69 1
ĠGerman wings
Ġnh áº¡nh
Ġdo ll
Ġfly cam
ĠOdys sey
Ġst ent
ĠDef oe
As us
ch áº·ng
Ġ9 17
ĠG TÄĲB
06 4
ov al
ox y
ĠFed Ex
Ġc rom
ĠSh akespeare
ĠCl ichy
Ġform aldehyde
t um
Ph iáº¿u
und i
Ġcur cumin
cas us
6 85
il son
ĠÃ´ liu
ĠZ aha
qu er
Ġtru áºŃt
ĠSapp hire
ĠMerc antile
áº¨ M
L O
S Ãºp
ĠÄĳá» Ľp
qu Ãł
ĠIll ustr
06 1
Ġx Ãº
Ġ /.
ĠH MD
ĠD áº¡ng
ĠGi za
ĠShi p
6 15
ĠC e
ĠA xit
Ġ6 22
ho e
T Ã¡n
t c
ĠK ill
ĠEV IPA
El ly
ĠÄĳ Ä©nh
Th y
ĠT á»ĭ
Äĳ Ã¢m
ĠChalle nger
ĠS ass
tron ic
Ġkil Ã´
ĠPom ina
01 01
eg y
H at
it our
Ġ49 2
b ol
ĠRub ella
q lo
ay o
y er
ĠNG Há»
W orks
ĠB Ã¬
ÄĲ SCT
S av
.. ...
Ġa er
7 15
tr an
and an
CC P
Ġse quin
V D
ĠTh au
ChÃ ¬a
8 15
ĠM omo
Äĳ u
ĠWi jn
Ġv aly
ch áºŃu
ĠRain sy
ĠShi r
Ġpro g
ĠNg oc
ĠSh ia
ĠSh adow
ĠH F
ĠD Ã¬n
ez o
ĠAdren o
E le
Äĥ t
Ġtá»Ń ng
Le on
chu á»ĵng
ĠRuss el
Äĳá» ©t
ĠN ebraska
ĠUn ic
44 2
H L
ĠHol iday
ĠRos en
r áº¯k
ers hip
ng ang
ĠC G
ĠUp date
ch Ã¡t
ĠS ushi
H iá»ĥn
ĠM ell
ĠAlexand ria
Yo ung
J am
Ġ19 25
ĠZ a
ĠGl ong
Ġl áº¥t
44 3
ĠG TC
ic ius
ĠTr á»ĳn
ĠBe ek
ng áº¡i
ĠN SDLÄĲ
ĠCap t
ĠFr aser
ch urch
0 47
TE S
ĠTh áº¯p
Ġ21 00
b á»Ļi
65 8
burg er
ĠL Æ¯U
ur r
ĠMits ui
ĠLer oy
d áº¿
ho yono
45 2
ĠJ T
ĠCS KV
49 6
ĠMin ne
u h
ĠAd nan
zh al
Ġ56 8
68 1
h áº¥p
ik tas
Ġso Ã³c
0 34
ĠKh ar
ff er
v re
Ġv am
ĠCBCC VC
ob el
l iá»ĩu
ĠPr otein
Vin atex
ck es
ĠBu ilding
Ġcan Ã´
ĠMar g
NS T
ĠP eg
ĠSer ge
ĠNg oisao
Ch oi
Ġláº¹ m
ĠBar ak
h Ã¡i
Ġs uper
ĠSá»ĳ p
ĠY es
ĠHum an
ĠD LG
26 43
Prem ier
tr ÃŃch
Ġ0 24
lá» £n
ĠYas uk
Ch Äĥn
ĠÃģ N
ĠSign al
Y PG
l t
or ial
6 11
ĠMon real
ĠSoth eby
eop atra
o fi
Ġx á»ĭch
ĠEn t
Ĺ ı
lo c
ĠNao to
ĠSch ul
TB T
Ġl ine
Ġ7 19
le en
ĠNH UNG
ram bler
d ez
x uki
ĠJ oyce
50 4
%) ...
W ork
39 7
N Y
ega ard
wij k
B K
Ġtr á»ĳi
Ġ( )
ĠAr ts
ĠRos ie
ĠNutr ition
07 2
ĠGam uda
Ġt Ã¨o
ĠB Ã¹ng
ĠS end
ĠTh atcher
ĠK ant
ĠPar am
Ġ55 6
0 49
ĠP ayne
ĠMau ro
ĠCua drado
ĠhÆ¡ p
b áº§y
ĠV oy
Ġ58 6
ĠKN TC
Ġm Æ°ng
ĠVin c
Ġl ist
L Ãºa
S UV
Ho ang
CA F
sh in
ĠX yri
ĠWijn aldum
r á»ĳi
ĠCH O
pet rotimes
N at
ra gh
J ul
bl azer
ĠESO P
ĠVej jajiva
ĠKan agawa
h on
ang er
ĠPin to
ĠE ibar
ĠBo ut
ĠRud d
ĠChá» ©a
ĠHam ad
Ġx um
ĠDeng ue
ĠRock et
fl ot
ĠS Ã¡c
Qu Ãªn
LC L
ĠV IDEO
ĠNat asha
57 8
TH ÃģI
c ell
Ġtrá» Ŀ
ĠRai der
ĠM á»³
ĠrÆ¡m oÃ³c
gor od
ĠUm titi
ĠGreg ory
M Hz
ĠX TTM
ĠYong byon
s á»Ľm
t áº¿
Ġin ter
ĠKam ala
Black Berry
ĠHis ham
A DIZ
ĠMar ouane
ts in
s á»©t
Ġqu Ã¨
hing ya
ĠSh eng
c á»ĳc
Ġmá» Ľn
ĠRot terdam
ĠÄĲ áº¡n
ĠP IN
ĠA is
ĠHo ffenheim
vez da
M Ã¡ch
g un
Ġ5 16
ĠTem er
4 17
ov ern
ÄĲ en
ĠPr att
ĠDig i
ĠP uma
Bo ost
Ġthu á»ĵng
ez h
eg ger
ĠVNA H
ĠAlex a
ĠS ave
4 38
Ġtr Ã¹n
Ġs apphire
ĠR Ã©
gi Ãłu
Ġ ./.
Ġ9 23
se ong
ĠLab s
ua tu
67 9
ĠO y
Ġtr Ä©nh
ĠEn s
ĠR ung
ĠÃĶ m
09 3
E CS
ĠN ing
u idi
ĠRad amel
ĠEaster n
ĠS Ã¡p
ĠFat ah
ĠWil bur
ĠTak ata
i ang
4 29
ĠHey n
4 28
ĠO NE
ĠS áº¯n
Os car
f all
Ġk ayak
ai de
ĠYud hoyono
Ġ78 9
w alt
r inh
ia tion
ĠChap man
ĠT áº©y
Tr Ã²n
58 6
ĠOsp ina
ng áº§u
ĠL MLM
ĠP ull
ĠA WD
ĠDra ghi
ĠTh Æ°á»£c
0 32
4 26
ĠU C
is try
ĠM áº§u
Ġhe ad
at ic
ĠGl azer
W in
Ġr Ã¹m
ĠSon ic
ĠNav arro
ĠTr ident
Ġdr iver
Fran k
ath ot
ĠDj ibouti
ĠDM Z
ĠLev y
ĠMAC D
X uá»ĳng
h and
ĠEl i
Ġd áº¡c
ĠK K
ann el
ovan ni
ĠH B
az ia
V áº½
Ġh ong
ĠVINAS AT
ou ard
ĠÃĲ iá»ģu
l Ä©nh
ĠPr ov
R F
le d
ĠCar t
ĠâĢ¦ .
ĠVa art
ig lycer
Ġp age
ĠCort ex
4 48
ĠBy teDance
ĠMinne apolis
Ġnhá» ħ
tu al
C á»§a
ĠRo hingya
! ...
ĠV im
at imes
40 8
6 28
Ġk ung
Ġ6 13
47 6
4 34
Y ang
ĠMc Queen
KhÃ³ c
b ard
ĠConf eder
ĠM ino
ĠX Ã¡m
Ġad min
Tr eo
ĠFA A
f ael
ĠR andy
ĠFore ign
50 2
Ġeuro zone
Rich ard
ÄĲ ÄĲ
9 65
co un
ĠMal ay
ĠCau casus
Ġph osph
ĠSe ed
ĠGot ze
Ġ49 3
ĠDynam ics
G irl
amin i
j ah
k et
4 36
B Æ¡i
K ang
RO M
ĠXM XT
ÃĶ N
ĠSai d
Ġ5 19
and ar
ĠDun can
1100 2643
t Æ°Æ¡i
d ang
x ing
ĠWal id
7 67
thÃ ºc
kel ey
ĠHyun A
O NE
ĠPic asso
11002643 148
ĠB Ã¡m
ish u
4 47
35 3
ĠLag er
k iá»ģu
ĠG BP
ĠSam rin
AR F
ĠLav ezzi
ĠCarr era
Ġt ip
ĠPhill ipp
ĠMan ulife
ens is
Ġqu eo
ĠTur an
tim ore
ansom ware
ĠB utt
ĠViet bank
5 13
ĠW ilk
ĠPr as
99 8
ĠBai ley
IP U
L ang
ĠChild ren
ĠV allad
ĠBei jing
X ong
esl av
ĠM izu
ĠTop ol
ĠRos icky
ĠXD CB
ĠLe andro
ĠVal lecano
ĠGoet he
E IC
ĠÄĲ áº¯p
Ġmel atonin
ĠQu oc
A rab
od era
if orm
ĠEll ison
ĠG ue
iv ing
V CSC
BV ÄĲK
br as
t Æ°á»Ľng
35 1
ĠBX L
H Ã£i
h ao
Ġ7 43
Ġ80 8
ĠT ÃĢI
8 95
m or
ĠR overs
ĠVer on
Ġ6 65
ĠS AG
05 7
,âĢ¦ .
ĠGeo ff
j as
ĠE BD
ĠLog o
N ig
z u
ĠM ish
âĢĿ, âĢ¦
d á»Ļi
er man
at ur
48 9
jic ic
6 22
ĠHo o
ĠAk bar
ĠAS IAN
ĠV err
ĠSor os
ĠQN CN
X á»ķ
ĠMon santo
Will iam
Ġb est
ĠRichard s
ĠP GD
Ġban d
Ġ5 88
46 7
b á»Ļt
Sh in
ĠSchneider lin
0 31
? -
R á»Ļ
ot hi
ĠYasuk uni
I EA
75 2
C TT
c tion
M ed
ĠKrug er
uk ovich
Ġviet nam
Ġnhá» ¥t
po und
ĠComp uter
R oy
or os
bu ild
ĠM akar
ĠS v
ĠCh ur
46 8
t áº¡
ĠS áº¡ch
h Ãłm
Ġl ife
ĠKovac ic
9 19
ĠK ÃŃp
ĠR á»¥c
ĠTop care
ĠTer min
ĠR Ã¨n
ĠB ebe
ĠCol eman
Ġ46 6
ĠAirb nb
Ġ8 01
tr Ã´ng
07 6
ĠYoo chun
S i
Ã Ĺ
ĠP Äĥh
ĠEn zo
Mat ic
ĠS Ã¡i
ĠT Y
ĠS Ã²
Ġ6 21
07 8
ÄĲT G
48 6
Ġjack pot
), ...
ĠGod in
Ġbáº½ o
ĠGIá» ľ
ĠK áº¹o
ĠTÆ¯ LÄĲTT
ĠN BB
ĠCH U
Ġ54 4
J oe
ĠCT XH
Sol skjaer
ĠDab aco
n av
Ġ49 8
r ill
48 2
Ġ54 2
h Æ°
ĠVu jicic
pt ion
ĠDil ma
Ġbá»Ŀ m
08 4
Geor ge
VN R
ĠXD NTM
ĠT Ã²
l Ã£ng
ĠF illon
57 9
T CM
V u
ĠGD VN
Ġ70 5
Ġs pot
60 2
ĠVal entina
Ġ5 32
Ġ9 000
ĠS CO
Ng áºŃp
46 6
oglob in
T á»¥c
ĠF OR
Ġ48 7
rop yl
H uÃ¢n
ĠS vet
ĠTh eron
TM V
ĠNott ingham
M Ã¬
ĠS Ãłnh
B iss
37 4
ĠK Ã´n
our t
m iá»ĩng
ĠMil ito
ĠCit i
Ġup date
c ore
ĠBel grade
ĠThink Pad
ĠBrid g
ĠBuff et
k iÃªn
ĠAd olf
ĠPG Bank
Ã «
ĠP im
ĠPred ator
b Ãºt
Ġph ang
ĠL DG
ĠRe ader
ĠDep ot
6 35
Ġr á»įt
Th Ãł
Ġtu k
ĠE ps
le ar
S Ã¢u
Ġb Ä©
ĠDN BH
ĠMich al
ĠVinashin lines
ĠL ich
ĠMey er
ĠFum io
8 12
assem ia
ĠHeath row
4 32
5 68
06 6
S oc
ĠH UYá»ĢN
ĠV á»«ng
ot ex
B ush
ĠÄĳ ung
ĠN oz
man ia
ĠRaj oy
ishi ng
ĠB Ãºa
08 3
ĠLib i
Vin acomin
ĠMusta fa
5 16
ĠN iz
ĠH áº°NG
ĠDow ney
Ġl Ã¨n
ĠPs aki
ĠDynam o
ĠW a
ĠW heel
ĠAr e
oss ible
Ġtra ding
Ġj udo
h el
ng Ãµ
am ing
** /
V accine
ĠBon n
ĠJai sh
T áº¯c
Ġ00 11002643148
Ġmel amine
ciel ago
Ġ60 2
ĠSc orp
ĠWorld wide
Ġchá» ķng
Ph u
ĠDo dge
8 65
ot ta
ĠLub itz
Ġv tv
ĠM assage
Lib ya
5 49
ĠAn ti
á»ŀ NG
ĠGS X
ĠC agliari
ĠmÆ¡ ÃŃ
Ġ48 4
ĠSed ona
ĠBent eke
ĠJoa quin
ĠVE TC
h áº§m
ĠMar ion
09 2
Ġk y
ĠÄĲ eo
ĠSel tos
t est
ĠX Ã´i
66 1
Ġkhá» ĥnh
ĠKh un
Ġtr ue
ch lor
ĠPhÃ ´
ĠSen s
ĠVH C
b áºŃc
Ġbu r
ĠSle ep
Ġr Ã³c
ĠG MC
07 3
47 3
ĠLig t
K CX
ĠNg uoiduatin
ĠCor rea
B ab
ĠT eng
ĠN ah
ĠAP S
ĠDav ao
Ġ49 6
ĠOpt ima
Ġqu Ä©
an na
ĠFl ight
O ÃĴO
ĠAm s
BS T
Ġ9 98
and om
Ġn iá»ģng
ĠFeder ica
ĠLeon id
b auer
Ġg áº±n
Ġ50 9
á¸ ħ
G iáº¿ng
ĠMal ibu
Show biz
Ġr áºŃn
ĠS áº¥m
ĠK wan
Ġ6 85
ĠSp icer
ond ers
ĠDra ke
Ġro ad
ĠStr ait
ĠKing dom
4 22
Ġt Ã©m
Ġn áº§m
45 4
Ġm ade
ĠF S
ac er
s martphone
il er
ĠTH ÃĬM
ĠNo ong
ĠMar a
ĠN eb
ĠG artner
Ġso p
Con n
ĠSH N
ĠB aku
ĠDung a
m ac
ĠMat uidi
ĠLLVT ND
Ġ6 88
Ġv áº£ng
55 1
phá» ķ
ĠM SI
ĠTáº» h
ĠF ey
ĠGÄĲ KT
9 85
50 6
ĠPVO IL
ĠS essions
Ġ5 21
ĠRam on
at aba
ĠLe c
MAT IC
r em
Ġb ida
our ces
ĠMin ut
R en
ĠPal mer
Ġca ve
AD MM
8 23
L ily
k ata
id ad
97 6
Champ ions
le cht
am ic
Ġto i
ĠBV CC
Ġ57 1
ĠV Ã²m
Ġ56 1
ran a
ĠGian ni
40 3
44 4
And re
B Äĥn
ĠÄĳÃ³ t
ank o
ĠPr enn
ĠTD P
ĠKey lor
B IC
ĠP yo
it te
od ar
ÄĲá»ģ u
ĠVan uatu
u co
ĠBrenn an
an ews
s ik
PhÃ ©p
ĠSha qiri
ĠCu omo
ĠChe ck
ĠBT L
ĠTrans erco
qu el
Ġ56 3
oc al
ĠFranc esco
ĠÄĲ OÃĢN
Ġrá»§ n
ĠWik ileaks
B Ã¹ng
M b
Ġmáº¹ t
ĠS PT
ĠG Q
ier re
ĠFor um
Ġt it
Ġg Ã¡
tha ek
ĠG F
ĠX áº£
m Ã¨o
ĠS ven
v áº¯t
ĠD HC
ĠR D
kh Ã¡m
ĠDer ek
ĠV IA
Ġ5 17
58 4
ĠYan ukovich
? '.
ĠHil ary
Ġp ep
ĠV GC
ĠhÃ´ á»ĭ
ĠLinked In
k W
ĠN Ã¢u
36 1
Ġ7 67
Khá» ķng
ĠVIC EM
ĠÄĲ TV
Th ao
ĠBal timore
ĠT ags
ĠIn te
ĠHá» ¢
ĠTr Ã´i
D iva
ĠBast ion
4 18
B á»ĳc
g áº¡
ĠH ÃĲ
Ġi Mac
N i
n Ãºp
Ġ6 16
Su Ã½t
d at
35 9
Em ma
M á»ķ
ĠPV L
0 42
Ġx ang
ĠC inc
ĠM Ã£nh
ĠSe ul
L oáº¡n
ĠBar ros
ĠUni qlo
d ai
eng e
Ġ48 1
H CT
ĠS AS
ĠDe h
ĠLad akh
Mar ia
D á»¥ng
Ġkil omet
Ġh as
ĠTh uÃ¢n
Ġ49 4
s á»©
ĠYam aguchi
ĠCh ak
L DP
l á»į
r ul
Ġm ore
S TT
Ġ7 15
at ov
ĠThi em
ĠHav ard
ĠC Ã´i
ĠFore ver
r est
ard in
68 9
mer ce
Tr Ãºng
ĠPass port
6 18
ĠNav er
M Ã£n
BS R
B ad
ĠJ TC
ĠHuay ra
y un
55 9
thÃ ¨m
ĠKey s
H ÄĲT
ĠT MT
40 7
n en
T Iáº¾N
tr Ãł
ĠTr Ã¡t
w ig
ĠBox ing
bel oa
v ice
ĠTH ÃĶNG
l áº¯c
w ai
ĠBar ron
TN CN
% âĢĿ
ipp le
T een
ĠT ir
ĠL ok
ĠRu á»ĵi
dong san
ong hen
cl iffe
th en
ĠHe avy
ĠPh Äĥng
Ng á»¯
6 67
Kh Ã¡ng
47 2
ĠMoz illa
ĠVor ach
ĠLe go
ĠAr sh
c á»Ļt
ĠCh es
ĠStr as
Ġ6 26
ĠH I
ĠS atra
9 15
áº ¨m
ĠB IM
98 9
ĠDis patch
ĠB ui
ĠP wC
ĠQ ing
Ġ5 24
ĠOn odera
ĠChrist church
Äĳ em
ĠHH HV
ĠRam i
ĠR Ã¬
re f
fl at
ĠL al
ĠCos m
ĠC áº¯m
Ġ5 14
Ġ47 8
ĠGl en
Ġjack et
Ġngh en
áº½ o
ak orn
ĠNhá» ©t
ĠNG ÃĢY
ĠP CM
ĠX DLL
05 1
es on
or ph
art ney
66 9
ĠPol o
5 36
Ġ19 18
ing a
ĠPriv ate
ĠL ippi
ĠY athot
ĠMur cielago
6 34
T witter
ĠF lo
ĠPhilipp in
C II
O z
ĠÄĲ ÃĢ
ĠP iet
6 26
7 41
Ġ8 21
ist el
k Ãª
R B
ĠBol lywood
ĠDP J
6 36
Ġ5 36
ĠAr iel
ĠQ W
ĠGi g
TRá» °C
P CTN
vert ible
0 39
â Ħ
ÄĲ Ã²n
tr om
65 3
ĠWall ace
ĠInfin iti
ĠKl um
eng en
s Ã¡ch
ĠL á»ģu
ĠKo ol
M otor
Ġ0 52
ĠOp eration
em in
se gg
ĠCh aroen
50 3
ĠTo b
/ **/
ĠDisney land
el ift
ĠBá» ĺ
ĠÄĲ iÃªn
ĠL ines
nh áº¥n
ĠC á»Ļp
Val encia
ig ital
ie f
og n
ĠMadd ox
Ġxo e
uly adej
R M
nh áº£
Ġ5 34
67 3
ĠBur j
k ook
ĠBro ther
ĠSÃª rÃª
Ġn ÃŃch
ĠAur ora
as an
re k
ĠTe er
ĠCOV AX
t áºŃu
55 6
K CB
g ari
all ero
Ġmá»§ i
ĠCommun ity
F eed
ĠP is
ĠTh er
99 6
ĠTHá»¦ Y
Ġtu á»ģnh
ver se
ĠTr Ãºng
ĠSport back
ĠLO AN
ĠBrug ge
ĠAr jen
Ġ75 5
ph Æ¡i
ĠIz umo
Ġd iÃªu
Ġ67 4
ĠFren ch
ĠHeyn ckes
m Ã¹i
Ġ iphone
it ano
h ur
ĠY ah
ĠCorn ell
J in
Ġ order
K evin
à ¸
ĠD áºŃt
ĠVic ky
ĠK ag
ĠAd ulyadej
r Ã³t
M áº£ng
ĠG azz
ĠKy u
G s
em ian
x Ã´
ĠGeorg ina
ĠT yr
ou g
ĠDra x
roo y
á»ĩ n
B ÃĮNH
ĠLol lipop
ĠT av
ĠM andal
uct ose
ĠO c
ĠNig el
ĠDH L
YouT ube
, ....
way ne
ĠD Ã¢m
og rad
45 3
obac ter
ĠV ega
eth oven
Ġ57 9
ĠBaghd adi
Wal ter
r á»ĳc
ĠYel tsin
ade ur
ĠPhn Ã´m
enig segg
lob an
06 7
ĠBever age
Ġno Ã£n
há» ©a
ĠRos oboronexport
h iáº¿n
ĠÄĳ áº©u
Ġb r
Ġ5 48
ĠPr i
4 49
chu á»Ļt
hi ma
ĠI bar
ĠE ui
Qu anh
Ġw in
ĠDe ath
ĠCl eopatra
un ion
ĠDN S
B Ã¹
b á»ıng
ua ge
19 40
ĠG ui
ĠX áº©m
Mil ey
ĠH uss
ĠR SI
ĠCommunic ations
ĠRashi d
R od
Ġlo ck
Ġnh Ã¹ng
Ġst icker
ĠDr ian
ĠL M
oy e
ĠABB ANK
GT GT
H az
ĠTr á»«ng
ĠHerm Ã¨s
Ġgi Ã¨m
Ġ6 67
Ġin d
Ń i
Ġto uch
Ġhu Ã½ch
ĠRob son
ĺ ħ
ĠS it
is io
dá»± ng
Ġ6 48
ĠS iv
x ung
ĠV WS
ĠCh Æ¡
ĠV Y
t Ã²a
Ġan ten
ĠJack man
ĠLov ato
Ġ6 68
90 5
ĠBark ley
iz ed
ĠHotel s
ĠSpot ify
ĠAdvent ure
Ġ8 12
ĠC TS
ĠB CG
chá» įc
ĠCle an
H Æ¡i
Ġ59 2
t axi
Ġ5 27
entin el
ĠG ap
ĠPier o
I oT
Ġ5 39
ĠLu ca
ĠSer gi
ĠT SN
ĠÄĳo m
ĠDr ew
Ġ6 29
up p
ĠAR A
Ġ58 9
ĠvÄĥc xin
istel rooy
D K
7 16
ĠthÆ¡ Ã¬
ĠCook ie
ĠHos sein
ĠTE PCO
j ani
ĠS EC
08 7
mers ant
4 13
TN TT
H iá»ĥm
giá» įt
47 7
09 7
Ġng áº¥u
Ho Ã£n
TH K
l Ãºa
ĠFen erbahce
9 26
MS T
b Ã¡u
Ġp ic
ĠColl agen
ĠMist ura
ĠBeck er
ĠSch umer
t own
ĠM IC
og y
ĠMon ter
ya ch
sw ana
08 9
Ġtv N
ĠTN R
Ġngu á»ĩch
R ah
ĠSel f
ĠH ib
FA A
ĠCas p
ĠSing er
ĠM TXT
ĠTs ar
' !
ĠE arn
ro gen
4 27
6 01
ĠSt all
ĠMah ar
k Ã¨m
ĠMem orial
ĠMick ey
ĠAsian a
chÃº a
Ġ8 85
um ar
id ge
ĠSal zburg
57 1
ĠPort man
ĠP ichai
sh ev
US S
.. ,
50 9
T á»ĵn
th ang
f lo
ĠL ens
ĠSar mat
Ġbe auty
ĠB E
38 1
ĠTH T
ĠSe ag
5 26
Ġ ĠĊ
ĠC Æ°á»Ľc
ĠIn tr
Ġngá»¥ a
ĠCho ang
A TVS
T áº¯t
ĠT hÃŃnh
Ġr á»ĭn
ĠMon itor
ĠPent axim
and elli
ank ovic
ĠCÄĲ VN
5 17
ĠVog t
Bong da
ĠCir cle
ĠYuk io
ĠY Ãªm
he ar
á»Ĳ I
l ie
ĠComp act
ĠcÃ ¹n
ĠV DC
o ung
ĠK áº¾
ĠG á»¥
... '
V M
q q
ĠN LD
ĠMar wijk
Gar eth
Tr áº£ng
47 1
â Ĺı
R á»§
h ack
» £n
á »£n
co cc
ĠMich ele
ĠMin ing
ĠPhom vi
ĠF attah
44 1
ĠH AR
ĠV ital
ĠY on
50 7
weir eld
ĠB ion
ĠVin fast
ĠBer jaya
ĠDá» ĬCH
g Ãµ
ĠR ott
X áº¿
ĠL á»ĳc
ĠâĢľ .
Ġ5 26
ĠI EA
ĠPitts burgh
ib aly
8 68
Ġ7 69
Ġ19 19
ph on
ev ac
ĠDV B
ĠL á»±
ĠSh ine
ĠSy mantec
D Æ¯ÆłNG
b áº¯c
ĠF ico
As ian
ĠGr oss
55 8
ĠBroad way
band oc
ĠEd ison
gio id
ĠP Ãª
ĠVert onghen
ĠTrium f
str om
4 24
Ġt iá»ĩp
Ġn ight
ĠL ara
Ġ5 22
ĠKh Æ¡i
Ġnghá»ĩ ch
J im
ĠGr um
ĠEco Boost
0 44
PV F
09 4
it ra
ig ale
ĠHar poon
97 9
ĠKat o
chinh phu
nh á»ĵi
ĠFant asy
Ġd ello
PM G
ĠkilÃ´ gam
ĠG amb
V SD
Ġph thal
ĠM oura
ĠS Ãł
45 7
Ġ55 7
V ÃĢO
ĠTCC T
ĠK IÃĬN
ĠKhá» ıi
khi Ãªm
r Æ°á»Ľc
ĠlÃł u
ev es
Tá» Ľ
Ġ80 5
ĠKov al
ay ga
ĠS PC
46 4
ĠCH UNG
ĠG á»£i
ew on
ĠAf ter
Ġ9 95
ph arm
88 6
enz a
Ġmal ware
M Ãºa
ĠV GA
ĠHo b
M bps
ĠDu k
ĠHel ix
Ġx Drive
or in
ĠBur ton
5 28
ĠP ran
Ġel ec
D en
Ġ14 40
ĠAl umin
ERT Y
ĠK ier
ĠSam urai
C ov
ist or
Je ff
ĠSW IFT
ĠVaj ir
K yl
v Ãµ
ĠE h
ĠDom en
ĠDef ender
X p
ĠS tylist
au se
Ġ9 49
ro y
ĠYam amoto
H TS
Ġh er
ĠWe ar
ĠHas an
ĠIn quirer
ĠBr aun
Ġpl ug
ĠAr beloa
omi uri
ĠN istelrooy
ĠDav ut
ara j
Ġser ie
ĠEk ater
ich ok
88 9
m Ã©o
v anh
ĠÄĲ Ã²i
ĠU DIC
cl ub
7 23
L iá»ģu
ch io
ĠGi ovanni
th Æ¡
lin an
ĠGian luigi
n á»Ļp
I CC
ĠF ile
s ters
u en
ien s
f ighter
x Æ°a
7 27
ĠAf rica
37 1
ett ing
Ġcal orie
ĠK vit
ĠGh en
ĠE ar
ĠMcC artney
ĠLyn n
g á»£i
ĠCh áº£o
Ġ10 20
ĠVan ity
Ġqu áº·t
ĠR uiz
ĠE z
ĠSoc iety
... @
Ġ9 35
ĠV iva
ĠDon na
ĠCab allero
Ġb eo
ĠA CT
ĠK E
ĠI CAO
is ong
ĠMah al
ĠIndustr ial
ĠFuj itsu
ĠKav kaz
4 19
ĠA PT
ĠâĢľ ...
9 32
b Ã¹
Ġm usic
Ġbot ox
Ġb ra
Ġ9 37
Sport s
ĠH meimim
ĠVP HC
47 4
Ġbus iness
ĠHTM L
Ġkh Ãł
ao li
ĠPen ang
Ġb oa
Ġp v
ĠV FS
Dá»± ng
b ung
x Ã¹
ĠPh Ã¡c
ĠX uá»ĳng
Ġ8 96
ĠNS LÄĲ
ĠM AN
ĠP encak
ph anh
ĠTT O
ĠTac loban
ond e
Äĳ áº£ng
ĠVietnam Net
Ġ49 1
ĠB ard
Ġbá» Ľp
ĠF agan
Ġ56 9
Ġc all
Ġtr áºŃp
ĠG ogh
vent ion
,... )
Ser gio
ĠGi jon
75 1
Khá» ī
aby te
ĠKhal ed
ĠHU á»²NH
tr ans
ot in
ĠVallad olid
ĠI f
Inf onet
ĠDmit ri
ĠFar go
ĠGriff ith
Ġgi o
ĠCI ENCO
ĠK ens
ĠSu gar
ĠChap o
Ġgiá» ±t
om ics
Ġho Ã¡c
ĠG b
ĠR ight
ĠZ i
fri end
Mob il
ĠN oh
19 42
ĠCu á»Ļi
ĠGÄĲ ÄĲH
U L
46 3
Ġvá» ¹
Ġtra ck
60 9
ngu á»Ļi
D y
ĠK Wh
80 5
ĠAud rey
B Ãºt
ĠG enn
ĠNV X
p ell
Ġt Ãºt
ĠRep orter
ĠAs o
ĠDavut oglu
Kh Æ¡i
ĠP ena
ĠG LS
ĠJ ob
B ul
Ġcon s
Ġban ner
ĠBan non
ĠViet tin
ĠV US
ĠW ings
ĠPay Pal
as ek
ĠN ÄĤM
ĠDal ey
ÄĲ eo
ĠX avier
F orm
ĠPV TM
ĠDirect ion
H ill
Ġâī ¥
ĠF ight
ĠN ed
th áºŃp
rah man
S XD
NH CR
C OV
UP CoM
ĠBut ler
j ia
ĠJ org
ĠChÃ ¬
y ot
ID IA
Ġcard igan
ĠTTC N
5 98
ĠP Ãº
ĠE cho
ĠFront ier
ĠCO D
Can el
ĠTrail blazer
ĠBu Ã´ng
Ġ57 6
66 2
ĠAr i
ĠLau n
ĠE B
Ġhu Ãª
oit re
ĠCand ice
ĠBer keley
ĠWell ington
Ġsá» ģ
te p
ĠMiss ion
ĠBrit ain
ĠP yong
ĠK A
Ġ9 21
ĠPyeong chang
s at
ĠV TB
x uyÃªn
ĠP áº£
Ġf ace
ĠLar son
ĠSh ev
tr Ã¹ng
ĠÃģ NH
7 92
s Ã¢u
Ġ overs
US GS
Ġsp am
ĠBo on
65 6
69 3
ĠCh eol
Ġac ry
ĠBes iktas
ĠSL S
ĠAtlant is
ĠKud low
ĠK ra
ĠCeb u
ĠH uyáº¿n
Gi áºŃn
Ġcho áº¡c
ĠKin zhal
upol ev
aba ab
ĠGrig or
Ġmu Ã´ng
ger ald
for mer
G á»ĳc
S top
uy t
CS U
ech an
ĠArab ica
ĠL uá»Ļc
ĠQu ds
ĠHal ep
VI E
ĠAero flot
ĠVajir alongkorn
ĠAM M
b uá»Ļc
Ġin vest
ĠPr ide
ĠCan yon
ĠLen ingrad
H Ã¡n
09 1
ĠHut ch
l Äĥn
C AR
Ġ5 11
khá» ıe
b uá»ĵn
ĠC IC
ĠAut ob
l is
st a
ĠBul lock
ĠShow room
Ġv ote
ĠV EPR
ĠS Ã³t
ĠQu ao
Ġk id
ĠNg Æ°ng
Ġf ood
ĠAdel aide
7 19
O CB
e an
Ġqu Ãłn
ĠHoff man
ĠS ank
ĠK ute
kh Äĥm
ĠVas ily
ng Ã¢m
vest ia
4 46
AM M
Thu á»Ł
5 18
ĠVil anova
ĠV ad
kh ung
ĠAg ni
Ġblu etooth
ĠN CL
07 1
gioid idong
m ash
ĠGis ele
ĠAlder weireld
V IN
Ġphá» ħu
ĠEl ton
ĠMe ad
ĠAless andro
F W
ĠT Ã©p
70 8
ThÃ ¹ng
6 13
ĠKas im
Ġfin tech
b á»¥i
Ġ(?! )
tr inh
ĠSe ine
Ġ6 28
Ġ7 12
G ab
ul ibaly
ĠNH A
ĠPan igale
ĠHal le
ĠUP S
( ?!
ad ole
kh azia
CO N
G O
ĠSau l
ĠMet hamphetamine
inn ati
85 8
John ny
ĠAnalyt ics
ĠY in
ĠCiv il
Ch iáº¿u
Ġtr Ã©o
ĠA edes
9 38
ĠH áº¿n
K i
Ġnh Ãµng
ĠPT DT
ĠClau dia
ĠSchwar zen
ĠZum walt
P HONG
H UD
Y S
ĠGyeong gi
ĠP ich
ĠDrop box
l it
ĠVer mont
ĠBent ayga
ng áº§m
ĠSteph an
Ð¾ Ð
d is
Ġx yl
d Ä©
Ġk aki
ĠE Q
ail break
58 1
vo ire
Ġtr iglycer
ĠO ur
Ġ9 68
ĠThom son
ĠRy ong
ĠAlv arez
d ad
ĠG ym
Ġ20 28
ĠBi el
ĠRag lai
ĠKep ler
ĠH ern
ĠO MO
77 8
thá» Ł
ĠDora emon
Ġm Ã¨n
ÄĲT VN
ĠAr un
op Mart
ĠV ary
ĠP iz
Ġ arab
adep t
ĠY uki
ĠSaf ety
ĠT OS
ĠN Ã©m
Ġleg ging
D Ã£
ĠSlav yansk
T oday
s treet
ĠT Ãį
ĠV ul
ĠIs s
69 4
ĠNat una
ĠS iss
Ġ7 35
iv ir
Do S
ĠYoshihi ko
ĠGlas gow
ID A
h art
ĠF is
ĠP ant
ĠTh in
Ġchá»ħ m
ĠSas ha
Ġráº» o
Luk aku
ĠVI NH
ah ara
ĠV áº¥t
ar el
ĠJ elly
ÃĤ n
Ġqu ota
ng Æ°
ĠVerr atti
ch art
19 11
H áº¾T
6 42
c á»Ń
ĠBr en
49 1
d á»«ng
ĠTá» ¥ng
ab elle
ĠPr andelli
88 2
ĠS ua
er io
S OM
ĠMog ad
ĠQW ERTY
it ung
ĠJoh or
ĠS áº¿n
ĠG W
ĠT DC
ĠGab on
C en
ĠE f
Ġáº¤ u
Ġ9 75
ĠPhá» ī
ĠAc id
Ġ7 95
ĠKh iáº¿n
ÄĲá» ¥ng
Ġsil at
ĠV ÄĲTG
ĠNh im
á»ı m
ĠJeff erson
Ġlá» ©c
ĠK á»²
48 3
r el
6 24
ĠS AI
ad os
9 45
ĠSch engen
ĠTHá» ĬNH
D á»ĩt
ĠK ick
ĠD Q
ot ech
or ah
ĠNai ng
han oi
ĠWilliam son
5 43
ĠK áº½m
uk h
Ġs Æ°á»£t
ĠOut look
7 13
D áº£i
ĠF EC
7 69
P ac
ĠM im
ĠGard ens
onn aise
g ard
46 1
ĠSim one
er c
GV X
khÃ ´
ĠLL TP
ĠL oki
ĠMau te
B TP
ĠBo eh
08 1
ib as
ĠHCM C
tr iá»ĥn
Ġdo p
m Ãºa
ĠL od
ĠAt tra
ors et
ĠN asser
ĠPh iá»ĩt
ĠSu h
Ġb ill
ĠV SH
Ad visor
5 27
ĠV os
Ġ8 75
ĠInter n
ĠCay man
Äĳ á»į
ĠEug ene
l áº·n
ĠK ook
ĠS iti
ĠA kin
Tr a
77 9
asc adeur
ĠAirb lade
ĠL DL
ã ģ
ĠSal ly
ĠBeaut iful
K rist
Ġ19 10
ĠP API
ĠAr leigh
Ġáº¢ o
Ġoxy tocin
Ġor gan
Ab adi
ĠKn ox
iy ah
ĠAllian ce
ĠCul linan
Ġl áº±ng
ĠL K
ĠB attle
ĠMn ang
ĠBarn ier
K á»ĭp
ĠS entinel
ĠPh áº¡
ĠMain z
p ac
ĠAnder lecht
Ġr Ã¡i
ĠG avin
39 1
ĠTrans formers
ĠTw ice
ĠChÃ ºt
ĠRem y
Ãĵ A
4 23
pp y
8 44
ĠNic ol
ĠFitz gerald
7 44
ĠCh h
les ton
il ey
ĠL áº·ng
f il
NH ÃĵM
ĠPetro bras
ĠS áº»
eo m
is mo
ĠBrand on
Ġh áº©m
W enger
ĠT CÄĲ
p ap
u es
Ġ7 75
ĠCP ÄĲT
U M
ĠC ilic
ĠSacom real
K DC
b iá»ĩn
Ġ6 18
ĠCon st
ÃĶ n
Ġsilic one
Ġh ighlight
ĠY ev
ĠVina xuki
ĠBall mer
ĠAlber ta
ĠIllustr ated
ĠnhÃŃ p
Ġhá» ın
ĠK TV
ĠD Ã£y
ĠLind sey
ĠEsc obar
Ġs Ã£i
ĠTem bin
ĠEvo que
Ġ5 29
ĠLor enz
s oo
ha j
56 1
iar ds
ĠBore i
ĠBud d
5 33
ĠNorth rop
T ia
ĠDT NN
5 11
ĠTr ack
ĠchÃ³ e
ĠKol kata
D Æ°á»¡ng
Ġs hot
Ġx yanua
ĠK ass
ĠPaul inho
79 1
ĠPun jab
Nap oli
E IA
Ġ19 11
Chá» Ł
ĠUl san
CP H
5 19
t al
ĠBlan ch
Ġb et
ĠA NA
Ġcon t
ic ent
il ac
[...]
