{"<s>":0,"<pad>":1,"</s>":2,"<unk>":3,"<mask>":4,"!":5,"\"":6,"#":7,"$":8,"%":9,"&":10,"'":11,"(":12,")":13,"*":14,"+":15,",":16,"-":17,".":18,"/":19,"0":20,"1":21,"2":22,"3":23,"4":24,"5":25,"6":26,"7":27,"8":28,"9":29,":":30,";":31,"<":32,"=":33,">":34,"?":35,"@":36,"A":37,"B":38,"C":39,"D":40,"E":41,"F":42,"G":43,"H":44,"I":45,"J":46,"K":47,"L":48,"M":49,"N":50,"O":51,"P":52,"Q":53,"R":54,"S":55,"T":56,"U":57,"V":58,"W":59,"X":60,"Y":61,"Z":62,"[":63,"\\":64,"]":65,"^":66,"_":67,"`":68,"a":69,"b":70,"c":71,"d":72,"e":73,"f":74,"g":75,"h":76,"i":77,"j":78,"k":79,"l":80,"m":81,"n":82,"o":83,"p":84,"q":85,"r":86,"s":87,"t":88,"u":89,"v":90,"w":91,"x":92,"y":93,"z":94,"{":95,"|":96,"}":97,"~":98,"¡":99,"¢":100,"£":101,"¤":102,"¥":103,"¦":104,"§":105,"¨":106,"©":107,"ª":108,"«":109,"¬":110,"®":111,"¯":112,"°":113,"±":114,"²":115,"³":116,"´":117,"µ":118,"¶":119,"·":120,"¸":121,"¹":122,"º":123,"»":124,"¼":125,"½":126,"¾":127,"¿":128,"À":129,"Á":130,"Â":131,"Ã":132,"Ä":133,"Å":134,"Æ":135,"Ç":136,"È":137,"É":138,"Ê":139,"Ë":140,"Ì":141,"Í":142,"Î":143,"Ï":144,"Ð":145,"Ñ":146,"Ò":147,"Ó":148,"Ô":149,"Õ":150,"Ö":151,"×":152,"Ø":153,"Ù":154,"Ú":155,"Û":156,"Ü":157,"Ý":158,"Þ":159,"ß":160,"à":161,"á":162,"â":163,"ã":164,"ä":165,"å":166,"æ":167,"ç":168,"è":169,"é":170,"ê":171,"ë":172,"ì":173,"í":174,"î":175,"ï":176,"ð":177,"ñ":178,"ò":179,"ó":180,"ô":181,"õ":182,"ö":183,"÷":184,"ø":185,"ù":186,"ú":187,"û":188,"ü":189,"ý":190,"þ":191,"ÿ":192,"Ā":193,"ā":194,"Ă":195,"ă":196,"Ą":197,"ą":198,"Ć":199,"ć":200,"Ĉ":201,"ĉ":202,"Ċ":203,"ċ":204,"Č":205,"č":206,"Ď":207,"ď":208,"Đ":209,"đ":210,"Ē":211,"ē":212,"Ĕ":213,"ĕ":214,"Ė":215,"ė":216,"Ę":217,"ę":218,"Ě":219,"ě":220,"Ĝ":221,"ĝ":222,"Ğ":223,"ğ":224,"Ġ":225,"ġ":226,"Ģ":227,"ģ":228,"Ĥ":229,"ĥ":230,"Ħ":231,"ħ":232,"Ĩ":233,"ĩ":234,"Ī":235,"ī":236,"Ĭ":237,"ĭ":238,"Į":239,"į":240,"İ":241,"ı":242,"Ĳ":243,"ĳ":244,"Ĵ":245,"ĵ":246,"Ķ":247,"ķ":248,"ĸ":249,"Ĺ":250,"ĺ":251,"Ļ":252,"ļ":253,"Ľ":254,"ľ":255,"Ŀ":256,"ŀ":257,"Ł":258,"ł":259,"Ń":260,"áº":261,"ng":262,"Ġt":263,"Ġc":264,"ĠÄ":265,"ĠÄĳ":266,"nh":267,"Ãł":268,"Æ°":269,"Ġv":270,"Ã¡":271,"há":272,"há»":273,"iá":274,"iá»":275,"Ġl":276,"Ġtr":277,"Ġk":278,"Ġb":279,"hÃ":280,"Æ°á":281,"Æ°á»":282,"Ġm":283,"Ġs":284,"áº¿":285,"Ġnh":286,"áº¡":287,"Ġn":288,"Ġth":289,"áº£":290,"ĠÄĳá":291,"ĠÄĳá»":292,"Ġh":293,"Ġg":294,"Ãª":295,"Ġng":296,"Ġd":297,"iá»ĩ":298,"Ġch":299,"Ġp":300,"ĠT":301,"áº¥":302,"ĠcÃ":303,"´ng":304,"Ġvá":305,"Ġvá»":306,"Ãªn":307,"Ã¡c":308,"»Ļ":309,"á»Ļ":310,"Ġtá":311,"Ġtá»":312,"Ã¢":313,"ĠvÃł":314,"Ġcá":315,"Ġcá»":316,"Ġkh":317,"Æ¡":318,"uy":319,"Ġq":320,"áºŃ":321,"Ġthá»":322,"Ġgi":323,"áº§":324,"ĠN":325,"ĠÄĳÃ":326,"Ġph":327,"Æ°á»Ŀ":328,"»ĳ":329,"á»ĳ":330,"iáº¿":331,"Ġx":332,"Ľi":333,"Äĥ":334,"Ġhá»":335,"Ġqu":336,"Ġcá»§":337,"Ġcá»§a":338,"Ġr":339,"áº¡i":340,"ĠlÃł":341,"Æ°á»£":342,"Ġchá»":343,"ĠC":344,"an":345,"ong":346,"Ã¬":347,"áº¥t":348,"ĠcÃ¡c":349,"ĠH":350,"ĠcÃ³":351,"iá»ģ":352,"hÃ´ng":353,"Ã¢n":354,"»±":355,"á»±":356,"ĠB":357,"Ãły":358,"iá»ĩn":359,"Æ°á»£c":360,"âĢ":361,"áº¯":362,"Æ°á»Ľ":363,"ĠV":364,"iÃªn":365,"Ã´":366,"»ĭ":367,"á»ĭ":368,"»Ł":369,"á»Ł":370,"ĠÄĳÆ°á»£c":371,"Ġcho":372,"Ġtrong":373,"inh":374,"ch":375,"ĠÄĲ":376,"Æ°á»Ŀi":377,"ĠÄĳÃ£":378,"Ġvá»Ľi":379,"iá»ĥ":380,"iá»ģu":381,"á»Ļt":382,"hÃŃ":383,"Ãłnh":384,"uyá":385,"uyá»":386,"Æ°á»Ŀng":387,"Æ°Æ¡":388,"Ġ1":389,"anh":390,"Ã¬nh":391,"Ġ2":392,"»¯":393,"á»¯":394,"Æ°Æ¡ng":395,"áº§n":396,"ĠngÆ°á»Ŀi":397,"ĠkhÃ´ng":398,"ay":399,"Ã³":400,"áº£i":401,"ai":402,"Ã´ng":403,"Æ°á»Ľc":404,"am":405,"ao":406,"ang":407,"©c":408,"©ng":409,"áº§u":410,"Ġmá»Ļt":411,"ĠM":412,"ĠÄĳá»Ļ":413,"áº·":414,"ĠL":415,"Ãłn":416,"Ġmá":417,"Ġmá»":418,"áºŃn":419,"ĵng":420,"ĠTr":421,"ÃŃ":422,"áº¿n":423,"Ġlá":424,"Ġlá»":425,"ung":426,"áº£n":427,"ĠnÄĥ":428,"áº¿t":429,"ĠhÃ":430,"ĠP":431,"Ãłng":432,"uá»ĳ":433,"Ã¡n":434,"Ġ(":435,"ĠcÃ´ng":436,"ĠS":437,"ĠnhÆ°":438,"Ã¢y":439,"ĠTh":440,"ĠNg":441,"Ã¡t":442,"ĠthÃ":443,"á»¯ng":444,"Ġnhá»¯ng":445,"iá»ĩt":446,"ĠÄĳá»ĥ":447,"Ãłi":448,"iáº¿n":449,"ĠÄĳá»ĭ":450,"Ã£":451,"ĠnÃły":452,"Ġngh":453,"Ŀi":454,"»ķ":455,"á»ķ":456,"on":457,"Ġtá»«":458,"Ã½":459,"ĠÄĳÃ³":460,"Ġho":461,"Ġvá»ģ":462,"Ã¡o":463,"Æ¡n":464,"eo":465,"Ġsá»ĳ":466,"Ġtáº¡i":467,"¹ng":468,"Ãº":469,"Ġkhi":470,"Ġra":471,"Ġgiá»":472,"Å©ng":473,"Ġá»Ł":474,"in":475,"±c":476,"ĠÄĳáº¿n":477,"au":478,"Ġsáº":479,"Ġphá»":480,"¥c":481,"ĠQ":482,"áºŃt":483,"iáº¿t":484,"ĠK":485,"ĠnÄĥm":486,"ĠphÃ":487,"00":488,"Ã´i":489,"áº¡n":490,"iá»ĩc":491,"Ġhá»į":492,"ĠA":493,"ĠvÃło":494,"Ġthu":495,"ĠâĢ":496,"áºŃp":497,"ĠtrÃªn":498,"ĠÄĳá»ĵng":499,"áº©":500,"Ġhiá»ĩn":501,"áº±":502,"Ġbá»ĭ":503,"Ġthá»ĥ":504,"Ġdá":505,"Ġdá»":506,"Ã¡ng":507,"Ġviá»ĩc":508,"ĠcÅ©ng":509,"ĠÄĳáº§u":510,"Ġnhiá»ģu":511,"Ġcáº£":512,"ĠD":513,"ĠchÃŃ":514,"Ã¡i":515,"Äĥng":516,"âĢĿ":517,"ĠnÆ°á»Ľc":518,"ĳi":519,"ĠÄĳá»Ļng":520,"Ġsáº½":521,"Äĥn":522,"iá»ĩu":523,"Ã²":524,"áº«":525,"Ãªu":526,"»ĵ":527,"á»ĵ":528,"ĠlÃłm":529,"ĠnhÃł":530,"ĠG":531,"Ġdo":532,"Æ°á»£ng":533,"Ġquan":534,"ĠngÃły":535,"ĠÄĳá»ĭnh":536,"»į":537,"á»į":538,"ĠchÃ":539,"á»Ļi":540,"ĠNam":541,"áº¡t":542,"Ġsá":543,"Ġsá»":544,"iá»ĥm":545,"Ġsá»±":546,"ħn":547,"áº¥p":548,"Æ°a":549,"Ã¡ch":550,"á»Ļc":551,"ĠâĢľ":552,"Ġchá»ī":553,"áº£ng":554,"ĠnhÃ¢n":555,"ÄĲ":556,"ĠthÃłnh":557,"Ġbá":558,"Ġbá»":559,"01":560,"Ġhá»Ļ":561,"áº£o":562,"Ġláº¡i":563,"áº¡o":564,"Ġdá»±":565,"Ä©":566,"ĠgiÃ¡":567,"áº¥n":568,"Ġ3":569,"ĠViá»ĩt":570,"áº¥y":571,"ĠhÃłng":572,"Ġ-":573,"Ġpháº£i":574,"uyÃªn":575,"¬nh":576,"Ġgia":577,"áº±ng":578,"ģn":579,"oÃłn":580,"iá»ĥn":581,"ĠÃ´ng":582,"ĠtrÆ°á»Ŀng":583,"ĠcÆ¡":584,"Æ°á»Ł":585,"Ã©":586,"ĠchÃŃnh":587,"áº«n":588,"Ġtiáº¿":589,"Æ°á»Łng":590,"áº¯c":591,"Ġquy":592,"Ãło":593,"Ã¡p":594,"Ã¢m":595,"ĠdÃ¢n":596,"á»±c":597,"ĳng":598,"iá»ĩp":599,"£p":600,"uá»ĳc":601,"Ġvá»¥":602,"Ġxe":603,"ĠtÃŃ":604,"Ã¡nh":605,"Ġthá»Ŀi":606,"Ġkho":607,"uyá»ĩ":608,"uáº¥t":609,"ĠhÆ¡n":610,"Ġthá»±c":611,"ĠthÃ´ng":612,"ĠNh":613,"ĠÄĳá»ģ":614,"Ġhá»£p":615,"ĠphÃ¡t":616,"Ġnháº¥t":617,"Ġhá»įc":618,"ĥn":619,"ĠÄĳiá»ģu":620,"ĠhÃłnh":621,"ĠThá»":622,"iá»ģn":623,"Ġnghá»":624,"Ã¹ng":625,"er":626,"²n":627,"ĠÄĳang":628,"Ġbiáº¿t":629,"Ġy":630,"áº¡nh":631,"áº·t":632,"¢n":633,"ĠcÃ²n":634,"Ġká":635,"Ġká»":636,"áº¯t":637,"ĠmÃł":638,"Ġtáº¿":639,"ia":640,"Ġhá»Ļi":641,"á»ĭch":642,"ĠviÃªn":643,"á»ķi":644,"áº·c":645,"uyá»ģn":646,"Ġmá»Ľi":647,"ĠÄĳi":648,"Ġtheo":649,"ĠPh":650,"Ġsau":651,"Ġchá»©c":652,"ĠnÃ³":653,"Ġsáº£n":654,"¥ng":655,"Ġcao":656,"ĠÄĳá»ĳi":657,"Ġtá»ķ":658,"Ġcon":659,"Ġsinh":660,"ĠnhÆ°ng":661,"ĠthÃ¬":662,"Ã¹":663,"uyá»ĩn":664,"ĠtÃ´i":665,"Ġqua":666,"ĠlÃ½":667,"en":668,"hÃ³":669,"ĠnháºŃn":670,"áº¹":671,"ĠQuá»ĳc":672,"Ġá":673,"Ġá»":674,"Ġnghiá»ĩp":675,"iá»ĩm":676,"Ġkhá»":677,"á»ĳc":678,"áº£m":679,"áº¡m":680,"áº¥u":681,"ĠtÄĥng":682,"uá»Ļc":683,"īnh":684,"oáº¡i":685,"Ġdá»¥ng":686,"ĠhÃ¬nh":687,"Ġxuáº¥t":688,"ĠU":689,"Ġbá»Ļ":690,"Ġlu":691,"ĠcÃ¹ng":692,"Ġtiáº¿p":693,"ĠtrÃ¬nh":694,"áº»":695,"ĩnh":696,"Ġtháº¿":697,"ar":698,"..":699,"ºng":700,"ĠtÃ¡c":701,"Ġtrá":702,"Ġtrá»":703,"ĠtÆ°":704,"áº¡ng":705,"Ġtin":706,"ĠlÆ°á»£ng":707,"Ġ201":708,"iÃªu":709,"ĠtrÆ°á»Ľc":710,"Æ¡i":711,"Ġráº¥t":712,"Ġcáº¥p":713,"ĠÃ¡n":714,"Ġ4":715,"Th":716,"ĠTrung":717,"Ġtu":718,"»¹":719,"á»¹":720,"Ġ5":721,"Ġtá»ĳ":722,"Ġlá»Ľ":723,"ĠÄĳiá»ĥm":724,"ĠlÃªn":725,"iá»ĥu":726,"ĠnÃªn":727,"»Ń":728,"á»Ń":729,"Ġan":730,"Æ°á»Ľng":731,"Ġkinh":732,"Ġthá»ĭ":733,"Ġ\"":734,"ĠÄĳÆ°á»Ŀng":735,"áº£nh":736,"Ġkáº¿t":737,"ĠCÃ´ng":738,"ĠbÃ¡o":739,"²ng":740,"ĠmÃ¬nh":741,"ĠQu":742,"Ã´n":743,"ĠtÃ¬nh":744,"Ġchá»§":745,"hi":746,"Ġtriá»ĥn":747,"Ã¡y":748,"ĠHÃł":749,"Tr":750,"áº¿u":751,"iá»ħn":752,"al":753,"Ġtá»īnh":754,"Ġcáº§u":755,"Ġlá»±c":756,"Ġdoanh":757,"Ġnay":758,"ĠnÄĥng":759,"Ġtá»Ľi":760,"Ġgiá»¯":761,"uyá»ħn":762,"Ġváº«n":763,"Ġanh":764,"Ġkhu":765,"oÃłi":766,"im":767,"³ng":768,"ĠxÃ£":769,"Ġgiáº£i":770,"«a":771,"áº©m":772,"em":773,"ĠtoÃłn":774,"ĠBá»Ļ":775,"ĠcÃ¡ch":776,"ĠvÃ¬":777,"Ġtiá»ģn":778,"áº¡ch":779,"ĠÄĳÃ¢y":780,"ĠthÃ¡ng":781,"ĠNguyá»ħn":782,"Ġbáº£o":783,"Ġcuá»Ļc":784,"Ġhai":785,"Ġquá»ĳc":786,"ua":787,"Ġthá»§":788,"Å©":789,"iÃª":790,"ĠnÃ³i":791,"ĠkhÃ¡c":792,"Ãºc":793,"Ġsá»Ń":794,"uyá»ĥn":795,"Ġlá»Ľn":796,"ĠÄĲá":797,"ĠÄĲá»":798,"Ġgiao":799,"ĠGi":800,"ĠMá»¹":801,"ĠtÃ¢m":802,"Ġgiá»Ľi":803,"áº¯ng":804,"Ġcá»©":805,"Ng":806,"Ġthá»ĳng":807,"á»įng":808,"ĠCh":809,"Ġbáº¡n":810,"Ġquáº£":811,"ĠÄĳá»ĭa":812,"Ġtra":813,"ĠphÃ²ng":814,"Ġquyáº¿t":815,"Ġtá»±":816,"Ġbá»ĩnh":817,"ĠphÆ°Æ¡ng":818,"ĠtÃłi":819,"ĠX":820,"Ġ6":821,"Ġvá»ĭ":822,"ĠR":823,"Ġná»¯":824,"Ġráº±ng":825,"á»ĳi":826,"ĠÄĳáº¡o":827,"Ġthi":828,"Ġgian":829,"ĠphÃ¡p":830,"ĠkhÃ³":831,"Ġmáº·t":832,"Äĥm":833,"£i":834,"ĠnhiÃªn":835,"ĠI":836,"Ġáº£nh":837,"Ġná":838,"Ġná»":839,"Ġtáº¡o":840,"Ġtá»¥c":841,"es":842,"Ã²ng":843,"Ġvá»±c":844,"Ġtriá»ĩu":845,"Ġpháº§n":846,"Ġcáº§n":847,"á»ĵi":848,"ĠÄĳá»ķ":849,"Ġdiá»ħn":850,"ĠNá»Ļi":851,"ĠchÆ°a":852,"Ġtháº¥y":853,"ĠthÆ°Æ¡ng":854,"ĠtiÃªu":855,"ĠÄĳáº¡i":856,"Ġdá»ĭch":857,"iáº¿u":858,"Ġláº§n":859,"ĠÃ½":860,"Ã¢u":861,"ĠÃ":862,"áº¯n":863,"ĠTP":864,"Ġtá»·":865,"ĠliÃªn":866,"Ġbáº£n":867,"ĠphÃŃ":868,"ĠbÃ¡n":869,"Ġtrá»įng":870,"á»Ļng":871,"Ġty":872,"ĠhÃ³":873,"ĠtrÆ°á»Łng":874,"ĠkhÃ¡ch":875,"Ġhá»ĩ":876,"Ġbáº±ng":877,"ĠhÃ³a":878,"Ġtrá»ĭ":879,"Ġhoáº¡t":880,"ĠtáºŃp":881,"ĠmÃ¡y":882,"ĠChá»":883,"¢u":884,"Ġdá»±ng":885,"or":886,"Ġmáº¡nh":887,"Ãµ":888,"Ġhiá»ĩu":889,"áº¡c":890,"Ĺi":891,"Ġchá»ĭ":892,"Ġkhai":893,"Ġso":894,"ĠthÆ°á»Ŀng":895,"Theo":896,"ĠÄĳÆ°a":897,"ĠcÃ´":898,"ĠtÃŃnh":899,"Ġvi":900,"Ġnhá":901,"Ġnhá»":902,"ĠChÃŃ":903,"Ã¡m":904,"Ġtuá»ķi":905,"Ġgiáº£m":906,"ĠyÃªu":907,"áº©n":908,"áºŃy":909,"ºc":910,"Ġcháº¥t":911,"ĠÄĳáº¥t":912,"ĠÄĳiá»ĩn":913,"000":914,"Ġthá»©c":915,"et":916,"Ġtham":917,"ıi":918,"ĠnÃło":919,"«ng":920,"201":921,"áº§m":922,"Ġsá»Ł":923,"ĠlÃ£":924,"á»ĵn":925,"Ġ7":926,"Æ°u":927,"ĠVÄĥn":928,"ĠHo":929,"ĠÄĳá»Ļi":930,"Ġtrá»Ł":931,"ĠxÃ¢y":932,"el":933,"Ġnhiá»ĩm":934,"áºŃu":935,"ĠchÃºng":936,"Ġhay":937,"Ġpháº©m":938,"ĠsÃ¡t":939,"Ġchiáº¿n":940,"Ġgáº§n":941,"Ġsá»ĳng":942,"á»ķng":943,"ĠquÃ¡":944,"Ġem":945,"áº³ng":946,"ĠAnh":947,"Ġngá":948,"Ġngá»":949,"),":950,"Ġtrung":951,"Æ°ng":952,"Ġkhoáº£ng":953,"Ġbá»ĳ":954,"ĠÄĳá»ķi":955,"Ġphá»ĳ":956,"Ġchiáº¿":957,"Ġmá»©c":958,"Ġcháº¿":959,"Ġ10":960,"Ġvá»«a":961,"ĠtÃŃch":962,"ĠKh":963,"áº¢":964,"Ġquyá»ģn":965,"Ġbáº¯t":966,"ĠÄĥn":967,"Ġbáº¥t":968,"ĠPhÃ":969,"Ġcá»Ń":970,"ĠcÃ¡o":971,"ĠbÃł":972,"ĠÄĳÃ¬nh":973,"Ġhá»ĵ":974,"ĠsÄ©":975,"Ã©t":976,"áº±m":977,"ĠÄĳÆ¡n":978,"uá»ĳng":979,"Ġ8":980,"uyáº¿n":981,"Ġkhiáº¿n":982,"uá»ĵn":983,"âĢĿ.":984,"Ġ20":985,"Ġbiá»ĩt":986,"Ġkiáº¿n":987,"Ġgiá»Ŀ":988,"ĠtÆ°á»£ng":989,"áº£y":990,"Ġmua":991,"Ã³ng":992,"áº¢nh":993,"Ġnghá»ĭ":994,"Ġchuyá»ĥn":995,"ĠgÃ¢y":996,"ĠÄĳÃ¡nh":997,"ĠngoÃłi":998,"Ġkiá»ĥm":999,"ĠY":1000,"Ġcáº£nh":1001,"Ġhuyá»ĩn":1002,"Ġcá»©u":1003,"Ġthá»©":1004,"Ġváº¥n":1005,"Ãºp":1006,"ĠÄĳo":1007,"Ġtá»ĳt":1008,"ND":1009,"Ġpháº¡m":1010,"uá»ĳn":1011,").":1012,"ĠF":1013,"Ġloáº¡i":1014,"ĠsÃ¡ch":1015,"âĢ¦":1016,"Ġtráº»":1017,"...":1018,"Ãłu":1019,"Ġ9":1020,"ĠhoÃłn":1021,"Ġká»³":1022,"ĠquÃ¢n":1023,"ĠBÃ¬nh":1024,"ĠÄĳá»ģu":1025,"Ġcáº£m":1026,"Ġthiáº¿t":1027,"ªm":1028,"Ġtá»ĭ":1029,"Ġtrang":1030,"ĠvÄĥn":1031,"ĠÄĳáº¥u":1032,"Ġta":1033,"Ġdiá»ĩn":1034,"Ġphá»§":1035,"Ġ19":1036,"ĠsÃ¡ng":1037,"Ã¬m":1038,"Ġxá»Ń":1039,"ĠváºŃy":1040,"Ġban":1041,"uá»ĳi":1042,"iÃªm":1043,"ĠláºŃp":1044,"Ġtá»ĭch":1045,"ĠbÃłn":1046,"ĠnháºŃp":1047,"ĠgiÃºp":1048,"Ä©nh":1049,"áº·p":1050,"Ġcá»ķ":1051,"Ġchu":1052,"Æ°á»Ľi":1053,"Ġá»©ng":1054,"ĠthÃªm":1055,"ĠÄĳoÃłn":1056,"ĠChÃŃnh":1057,"ºt":1058,"ĠThá»§":1059,"ĠdÃ¹ng":1060,"Ġdáº«n":1061,"Ġgiá»¯a":1062,"áº·ng":1063,"¯ng":1064,"ĠÄĳÃ´":1065,"ĠThanh":1066,"Ġsá»©c":1067,"Ġtrá»£":1068,"ĠbÃªn":1069,"ĠtÃ¬m":1070,"ĠtrÃŃ":1071,"ĠbÃ¬nh":1072,"Ġnghá»ĩ":1073,"Ġphá»¥c":1074,"ĠE":1075,"ĠthÃŃ":1076,"20":1077,"Ġlo":1078,"Ã²a":1079,"Ġbiá»ĥu":1080,"ĠÄĳáº·c":1081,"Ġmang":1082,"Ġtay":1083,"ĠgÃ¬":1084,"Ġquáº£n":1085,"Ġlá»£i":1086,"ĠhÃ´":1087,"Ġnhau":1088,"ĠÄĳáº¡t":1089,"Ġvá»ĩ":1090,"ĳn":1091,"ĠTá»ķng":1092,"ĠngÃłnh":1093,"Ġtiáº¿n":1094,"ĠcÃ¡":1095,"Ġtruyá»ģn":1096,"Ġrá":1097,"Ġrá»":1098,"Ġtá»«ng":1099,"ĠluáºŃt":1100,"ĠgÃ³":1101,"Ķng":1102,"ĠtÆ°á»Ľng":1103,"áº¹p":1104,"Ġkáº¿":1105,"ĠhÆ°á»Ľng":1106,"ĠnghÄ©":1107,"ĠnÆ¡i":1108,"ĠMinh":1109,"Ġhoáº·c":1110,"Ġchá»©ng":1111,"Ġbay":1112,"Ġbá»ı":1113,"áº¥m":1114,"ĠtÃªn":1115,"ĠAn":1116,"Ġthuá»Ļc":1117,"áº©u":1118,"Ġlá»Ŀi":1119,"Ġmuá»ĳn":1120,"Ġbiáº¿n":1121,"ĠÃŃ":1122,"SD":1123,"ĠnguyÃªn":1124,"ĠthÃ¢n":1125,"©p":1126,"Ġviá»ĩn":1127,"ĠtiÃªn":1128,"ĠkhÃŃ":1129,"as":1130,"ĠgiÃ¡o":1131,"ĠChá»§":1132,"Ġvá»ĳn":1133,"ĠTrong":1134,"ĠJ":1135,"Ġphá»¥":1136,"Ġlá»ĭch":1137,"ĠâĢĵ":1138,"á»įc":1139,"ĠchuyÃªn":1140,"Ġkiá»ĩn":1141,"Ġhoáº¡ch":1142,"Ġchiáº¿c":1143,"Ġháº¿t":1144,"áº§y":1145,"Ġmáº¡ng":1146,"Ġtá»ķng":1147,"Ġmáº¹":1148,"it":1149,"Ġtá»Ń":1150,"Ġtiáº¿ng":1151,"ĠxÃ¡c":1152,"Ġnáº¡n":1153,"Ã¡u":1154,"ĠThá»ĭ":1155,"om":1156,"Ġchung":1157,"Ġto":1158,"Ġca":1159,"áº¯m":1160,"áº¡y":1161,"Ã³m":1162,"áº¯p":1163,"Ġnáº¿u":1164,"Ġrá»ĵi":1165,"ĠTuy":1166,"ĠtráºŃn":1167,"il":1168,"Ġbao":1169,"at":1170,"Ġháº¡n":1171,"ĠrÃµ":1172,"Ġtranh":1173,"ic":1174,"ĠvÃ¹ng":1175,"áº½":1176,"Ġchi":1177,"Ġthanh":1178,"ĠUSD":1179,"ĠW":1180,"ĠÄĳáº£m":1181,"Ġkháº©u":1182,"ĠlÃºc":1183,"ĠHáº£i":1184,"Ġminh":1185,"âĢĿ,":1186,"Ġáº¢nh":1187,"Æ°á»£t":1188,"ĠdÃłi":1189,"Ġbiá»ĥn":1190,"is":1191,"Ġnguá»ĵn":1192,"Trong":1193,"Ġmá»į":1194,"Ġthay":1195,"ĠÄĳáº¹p":1196,"ĠváºŃt":1197,"Ġliá»ĩu":1198,"ĠÄĲáº¡i":1199,"Ġchia":1200,"Ġcá»ĳ":1201,"Ġná»Ļi":1202,"CM":1203,"ĠÄĳá»ĳ":1204,"įn":1205,"Ġgáº·p":1206,"ĠBáº¯c":1207,"Ġchuyá»ĩn":1208,"ol":1209,"ĠkÃ½":1210,"á»Łi":1211,"uÃ¢n":1212,"Ġxáº£y":1213,"Ġbu":1214,"ĠlÃ£nh":1215,"Ġchá»ĳng":1216,"Ġchá»ĵng":1217,"ĠNga":1218,"»ĵng":1219,"á»ĵng":1220,"ĠNhÃł":1221,"ĠÄĲÃ´ng":1222,"ĠthuáºŃt":1223,"us":1224,"Ġá»§":1225,"ĠvÃłng":1226,"ĠhÆ°á»Łng":1227,"ĠngÃ¢n":1228,"ĠbÃ³ng":1229,"iÃªng":1230,"Ġtrá»±c":1231,"Ġmá»įi":1232,"ĠváºŃn":1233,"ĠtÃłu":1234,"Ġmá»Ĺi":1235,"Ġhuy":1236,"Ġvá»£":1237,"ĠÄĳá»§":1238,"Ġmá»¥c":1239,"Ġgiáº£":1240,"Ġmáº¥t":1241,"Ġhá»Ĺ":1242,"ĠSÆ¡n":1243,"ĠÄĲá»©c":1244,"ĠphÃ¢n":1245,"»Ľi":1246,"á»Ľi":1247,"áºŃm":1248,"Ġcuá»ĳi":1249,"Ġnhá»ı":1250,"Ġtráº£":1251,"Ġsao":1252,"Ġtiáº¿t":1253,"Ġxem":1254,"áº«u":1255,"ĠxÃ©t":1256,"ĠBan":1257,"Ġchuáº©n":1258,"Nh":1259,"BND":1260,"ĠThÃłnh":1261,"Ġngay":1262,"Ã³c":1263,"Ġmá»Ł":1264,"ĠchÆ°Æ¡ng":1265,"ĠHá»Ļi":1266,"Ġdanh":1267,"Ġkháº£":1268,"Ġ12":1269,"id":1270,"ĠphÃŃa":1271,"ĠsÃ¢n":1272,"Ġchá»įn":1273,"ĠgÃ¡i":1274,"ĠthÆ°":1275,"ĠO":1276,"Ġdu":1277,"ĠkÃ©":1278,"ĠPhÃ³":1279,"Ġxuá»ĳng":1280,"há»¯ng":1281,"ur":1282,"á»įi":1283,"Ġcáº¡nh":1284,"Ġ15":1285,"Ġtráº¡ng":1286,"Ch":1287,"ad":1288,"ac":1289,"ĠHoÃłng":1290,"»³":1291,"á»³":1292,"ĠÄĳoáº¡n":1293,"Ġcá»Ńa":1294,"Ã¢ng":1295,"ĠluáºŃn":1296,"ĠÄĳáº·t":1297,"ĠluÃ´n":1298,"įng":1299,"Ġká»ĥ":1300,"ĠdÃ¹":1301,"Ġnghiá»ĩm":1302,"ĠcÃ¡i":1303,"©a":1304,"ĠnhÃ³m":1305,"ĠUBND":1306,"ĠbÃ©":1307,"ĠÄĳá»ĳc":1308,"ĠkhÄĥn":1309,"Ġyáº¿u":1310,"Ġlao":1311,"ĠÃ¡p":1312,"ĠTheo":1313,"Ġnháº±m":1314,"Ġsang":1315,"á»ĭp":1316,"ĠÄĳá»ĵ":1317,"Ãªm":1318,"ĠÃŃt":1319,"ĠthÃ´":1320,"ĠkÃŃ":1321,"Æ°á»¡":1322,"Ġ30":1323,"ĠÃ´":1324,"Ġná»¯a":1325,"ĠLÃª":1326,"ĠÄĳá»Ŀi":1327,"Ġmáº¯t":1328,"Ġ11":1329,"ĠÄĳÃºng":1330,"ĠChÃ":1331,"ĠkhÃ":1332,"áº©y":1333,"ĠTráº§n":1334,"á»ĵm":1335,"ĠmÃ¹":1336,"un":1337,"ĠgÃ³p":1338,"Ġnhanh":1339,"Ġláº¥y":1340,"Ġbá»Łi":1341,"ĠphÃ©p":1342,"ĠÄĳÃ³ng":1343,"ĠtÆ°Æ¡ng":1344,"Ġtáº¥n":1345,"ĠtrÃ²":1346,"ĠtrÃ¡ch":1347,"Ã¨":1348,"19":1349,"Ġsáº»":1350,"Ġcung":1351,"Ġná»ķi":1352,"TT":1353,"ĠnÃ´ng":1354,"Ġphim":1355,"ĠThÃ¡i":1356,"ĠthÃŃch":1357,"ĠháºŃu":1358,"Ġ200":1359,"ter":1360,"Ġcá»±c":1361,"Ġdá»¥c":1362,"ĠÄĲáº£ng":1363,"Ġgá»ĵm":1364,"iáº¿m":1365,"ĠvÃ´":1366,"Ġchiá»ģu":1367,"¢y":1368,"ĠTá":1369,"ĠTá»":1370,"le":1371,"ĠcÃ¡n":1372,"Ġsáº¯c":1373,"os":1374,"ıa":1375,"Ġtá»ĳi":1376,"ĠDÆ°Æ¡ng":1377,"Ġlá»ĩ":1378,"ĠÄĳÃ¡":1379,"\".":1380,"Ġphá»ĳi":1381,"ĠcÃ¢y":1382,"HCM":1383,"Ġgá»įi":1384,"Æ°á»¡ng":1385,"Ãºt":1386,"Ġtáº£i":1387,"Äĳ":1388,"ĠtrÃ¡i":1389,"Ġrá»Ļng":1390,"ĠchÆ¡i":1391,"Ġhá»ıi":1392,"ra":1393,"ĠcÃłng":1394,"ĠkhÃ¡":1395,"ĠlÆ°u":1396,"Ġhá»ĵi":1397,"ĠnÃ¢ng":1398,"ĠdÆ°á»Ľi":1399,"»¥":1400,"á»¥":1401,"ĠÄĳÃ¡ng":1402,"Ph":1403,"Ġtinh":1404,"Ġtuáº§n":1405,"Ġáº¥y":1406,"¯u":1407,"10":1408,"ĠbÃłi":1409,"Ġai":1410,"Ġtá»Ļi":1411,"Ġtáº¥t":1412,"Ġtuyá»ĥn":1413,"Ġcá»¥":1414,"ĠvÃ²ng":1415,"Ġkhoa":1416,"ĠgiÃ¡m":1417,"uáº¥n":1418,"ĠTÃ¢y":1419,"Thá»":1420,"ĠNgá»įc":1421,"ĠphiÃªn":1422,"ĠNháºŃt":1423,"ĠnghÃ":1424,"Ġghi":1425,"th":1426,"ĠquáºŃn":1427,"ĠHá»ĵ":1428,"Ġngoáº¡i":1429,"Ġmáº¡i":1430,"ĠSau":1431,"ĠÄĳÄĥng":1432,"ĠLong":1433,"ĠsÆ¡":1434,"Ġhá»¯u":1435,"tr":1436,"ĠchÃ¢n":1437,"ĠCÃ¡c":1438,"Ã£i":1439,"Ġnhu":1440,"âĢľ":1441,"ĠhÃ²":1442,"um":1443,"ing":1444,"ĠhÃ´m":1445,"VN":1446,"Ġtuyáº¿n":1447,"Ġ'":1448,"Ġdi":1449,"ĠÄĳáº©y":1450,"Ã²n":1451,"ĠXuÃ¢n":1452,"Ġthuá»ĳc":1453,"Ġtháº¯ng":1454,"Ġcháº¿t":1455,"Ġdung":1456,"Ġlá»Ļ":1457,"ĠcÄĥn":1458,"ĠÄĲá»ĵng":1459,"ĠcÃ¢u":1460,"ĠÄĳÃłn":1461,"ĠÄĳáº£o":1462,"ĠQuáº£ng":1463,"Ġká»¹":1464,"ĠNghá»":1465,"Ġtháº¥p":1466,"ĠÃģ":1467,"ĠlÄ©nh":1468,"ĠÄĳá»Ļc":1469,"ĠmÃ´":1470,"ÃĶng":1471,"Ġsuáº¥t":1472,"Ġnguy":1473,"ĠlÃ²ng":1474,"Ġcá»Ļng":1475,"Ġphong":1476,"Ġháº¡i":1477,"Ã¬n":1478,"ĠLan":1479,"Ãłm":1480,"ĠhÃ£":1481,"ĠriÃªng":1482,"Ġtháº§n":1483,"Ġhoa":1484,"»¥c":1485,"á»¥c":1486,"Ġ0":1487,"Ġmáº«u":1488,"ĠthuáºŃn":1489,"Ġchá»¯":1490,"ĠThu":1491,"Łi":1492,"ĠnghÄ©a":1493,"ĠtuyÃªn":1494,"oo":1495,"Ġpháº£n":1496,"Ġcháº¡y":1497,"Ġba":1498,"Ġlá»ħ":1499,"ĠmÃ´i":1500,"Ġthiáº¿u":1501,"Ãºng":1502,"uÃ´i":1503,"Ġvá»įng":1504,"ĠÄĳáº§y":1505,"Ġtho":1506,"Ġthuáº¿":1507,"ĠÄĳÃ´ng":1508,"Ġphiáº¿u":1509,"á»Ńi":1510,"iá»ħ":1511,"ĠsoÃ¡t":1512,"Ġkháº³ng":1513,"áº¡p":1514,"ot":1515,"ĠchÃ¢u":1516,"Ġtai":1517,"ĠÄĳÃªm":1518,"CÃ¡c":1519,"ĠchÃº":1520,"ĠTrÆ°á»Ŀng":1521,"ĠmÃłu":1522,"Ġkhá»ıi":1523,"ĠÄĳa":1524,"ui":1525,"ĠhÃ²a":1526,"Ġvai":1527,"Ġká»·":1528,"ĠcÆ°á»Ŀng":1529,"ĠHÃ²a":1530,"ag":1531,"ĠtháºŃt":1532,"ĠnhÃ¬n":1533,"Ġtrai":1534,"Ġkhoáº£n":1535,"ĠphÃ¡":1536,"Ġhiá»ĥu":1537,"ĠnghiÃªm":1538,"ĠSá»Ł":1539,"ĠÄĳá»©ng":1540,"Ġcháº¥p":1541,"Ġgá»Ńi":1542,"ĠmÆ°a":1543,"Ġthoáº¡i":1544,"Ġá»§y":1545,"ov":1546,"Ġdá»ħ":1547,"ĠnghiÃªn":1548,"ĠcÆ°":1549,"Ġá»ķ":1550,"Ġnáº±m":1551,"Ġchá»ĭu":1552,"ĠbÆ°á»Ľc":1553,"ĠÆ°Æ¡ng":1554,"ĠmÃ¹a":1555,"Ġná»ģn":1556,"Sau":1557,"Ńa":1558,"uyá»ĩt":1559,"áº¿p":1560,"12":1561,"Ġdáº§u":1562,"uyáº¿t":1563,"ıe":1564,"Ġhiá»ĥm":1565,"Ġpháº¡t":1566,"ĠtoÃ¡n":1567,"ĠIn":1568,"Ġgá":1569,"Ġgá»":1570,"ĠLiÃªn":1571,"11":1572,"iet":1573,"Ġnháº¡c":1574,"ĠLu":1575,"Ġngá»Ŀ":1576,"ĠGiang":1577,"ĠtÆ°á»Łng":1578,"Ġthiá»ĩn":1579,"Ġkhá»ıe":1580,"Ġbuá»ķi":1581,"ĠxÃºc":1582,"ĠBáº£n":1583,"ĠniÃªn":1584,"¦y":1585,"ĠtÃº":1586,"Ġ13":1587,"Ġ18":1588,"á»±a":1589,"iá»ģm":1590,"Ġ14":1591,"Ġnáº·ng":1592,"Ġlá»Ľp":1593,"ĠPhÃº":1594,"ĠthÃºc":1595,"įc":1596,"Ġ16":1597,"ĠvÆ°á»£t":1598,"ĠÃĶng":1599,"ĠtÃ´":1600,"ĠdÃłnh":1601,"Ġhá»įp":1602,"ĠvÃłi":1603,"Ġlá»Ńa":1604,"ĠtÃŃn":1605,"ed":1606,"Ġcáº£i":1607,"Ľm":1608,"Ġná»£":1609,"Má»Ļt":1610,"Ġkhá»Łi":1611,"Ġtrao":1612,"Ġnghá»ģ":1613,"ĠQuang":1614,"ĠkÃ©o":1615,"ĠbiÃªn":1616,"ho":1617,"Ġtháº£o":1618,"Ġá»¦y":1619,"Ġbá»ķ":1620,"ĠÄĳÃ´i":1621,"Ġtiá»ĩn":1622,"ip":1623,"ĠNhÆ°ng":1624,"NgÃły":1625,"Ġháº¡":1626,"ĠmÃ´n":1627,"Ġxa":1628,"ĠphÃºt":1629,"ĠvÅ©":1630,"©t":1631,"iá»ħm":1632,"\",":1633,"Ã£o":1634,"áº§ng":1635,"ĠnuÃ´i":1636,"Ġsá»Ľm":1637,"á»Ńa":1638,"ĠsÃ¢u":1639,"TrÆ°á»Ľc":1640,"ir":1641,"Ġá»ķn":1642,"ĠHoa":1643,"Ġnam":1644,"ĠHÃłn":1645,"Ġxin":1646,"Ġ25":1647,"ĠbÃ¡c":1648,"ĠKhi":1649,"one":1650,"ĠTÃ´i":1651,"Ã³n":1652,"ĠNinh":1653,"ĠphÃ¹":1654,"ĠphÃ³ng":1655,"ĠHu":1656,"oi":1657,"Ġninh":1658,"ĠPháº¡m":1659,"Ġtáº§ng":1660,"Ġ100":1661,"ĠGiÃ¡m":1662,"ĠÄĲÃ¢y":1663,"ĠÄĳÃło":1664,"ĠtrÃ¬":1665,"ĠphÆ°á»Ŀng":1666,"Ġvay":1667,"»ĩ":1668,"á»ĩ":1669,"ap":1670,"ĠhÃºt":1671,"ĠMá»Ļt":1672,"ĠPhÃ²ng":1673,"ĠchÃ¡u":1674,"Ġvui":1675,"ĠlÃ¢u":1676,"ĠNguyÃªn":1677,"ĠxuyÃªn":1678,"ĠthÃ´n":1679,"Ġduy":1680,"hÃ¢n":1681,"ĠquÃ½":1682,"ĠDo":1683,"ĠthÄĥm":1684,"ÄĲT":1685,"ĠÃ¡o":1686,"ĠÄĲiá»ģu":1687,"Ġchá»īnh":1688,"ĠBá":1689,"ĠBá»":1690,"ĠÄĲÃł":1691,"ĠVÅ©":1692,"áº·n":1693,"Ġ17":1694,"ĠTÃ¢n":1695,"and":1696,"Ġkiáº¿m":1697,"ro":1698,"ĠPhÆ°Æ¡ng":1699,"Ã³a":1700,"ĠngÃ´i":1701,"Ġchiáº¿m":1702,"ĠkÃª":1703,"Ġmiá»ģn":1704,"Ġnghá»ī":1705,"Ġtá»ĳc":1706,"ĠÃ¢m":1707,"ĠTiÃªn":1708,"áºµ":1709,"Ġthá»§y":1710,"Ġtháº©m":1711,"Chá»":1712,"ĠKim":1713,"Ġmong":1714,"ĠHá»ĵng":1715,"»ģ":1716,"á»ģ":1717,"ĠBÃŃ":1718,"Ġmáº¯c":1719,"eb":1720,"Ġgiai":1721,"Ġnhiá»ħm":1722,"ĠNáº¿u":1723,"Ġgiáº¥y":1724,"Ġbáº§u":1725,"Ġbiá»ĩn":1726,"ĠtÃ²a":1727,"Ġnghe":1728,"ĠTuáº¥n":1729,"ĠsÃ´ng":1730,"ew":1731,"ĠquÃ¡n":1732,"ĵn":1733,"á»ĭnh":1734,"Ġtá»©c":1735,"Ġsai":1736,"Ġtáº¡m":1737,"Ġbuá»Ļc":1738,"Ġuá»ĳng":1739,"áºµng":1740,"ak":1741,"ĠchÃ¡y":1742,"á»¯a":1743,"ĠDN":1744,"Ġnghi":1745,"Nhá»¯ng":1746,"ĠtÃ¹":1747,"ĠNhá»¯ng":1748,"ĠtrÃ¡nh":1749,"ĠPhÃ¡p":1750,"Ġgiá»ĳng":1751,"ĠKá»³":1752,"ĠsÆ°":1753,"Ġtá»ī":1754,"ĠLuáºŃt":1755,"Ġ50":1756,"Táº¡i":1757,"ĠÃĤ":1758,"ĠNáºµng":1759,"Ã£n":1760,"Ġchá»¯a":1761,"ĠMai":1762,"LV":1763,"Ġmá»ĳi":1764,"ĠLinh":1765,"ĠChÃ¢u":1766,"ĠtrÃº":1767,"Ġbá»©c":1768,"ĠphÃª":1769,"Ġda":1770,"ĠTáº¿t":1771,"Ġ24":1772,"Ġhá»įa":1773,"ĠhÃ¡t":1774,"ĠÄĳau":1775,"Tuy":1776,"Ġdáº¥u":1777,"ĠNgÆ°á»Ŀi":1778,"§ng":1779,"Ġtá»ı":1780,"Ġtháº¥t":1781,"á»įn":1782,"ĠdÃ²ng":1783,"¨o":1784,"ĠthÆ°á»Łng":1785,"ĠCá»¥c":1786,"ĠnÃ³ng":1787,"ĠÄĳÃ¡p":1788,"Ġchá»Ĺ":1789,"ĠTÃłi":1790,"¬n":1791,"Ġchuyáº¿n":1792,"ıng":1793,"Ġkháº¯c":1794,"ĠthuÃª":1795,"ĠKhÃ´ng":1796,"Ġcam":1797,"Ġcháº¯c":1798,"á»ĳng":1799,"up":1800,"Ġvong":1801,"ĠtÃ¡i":1802,"ĠkhÃ¡m":1803,"Ġthiá»ĩt":1804,"ĠlÃ£i":1805,"Ġ2018":1806,"ex":1807,"ut":1808,"ĠÆ°u":1809,"Ġviáº¿t":1810,"Ġmáº·c":1811,"ĠbÃły":1812,"ĠTH":1813,"ph":1814,"uá»ĳt":1815,"ĠkhÃ¡n":1816,"ĠdÆ°á»¡ng":1817,"ĠlÆ°Æ¡ng":1818,"PT":1819,"Ġquay":1820,"Ġma":1821,"Ġxanh":1822,"30":1823,"ĠDÅ©ng":1824,"»Ĺi":1825,"á»Ĺi":1826,"ĠNgÃ¢n":1827,"Ġnhiá»ĩt":1828,"Ġtrá»Ŀi":1829,"ĠchÄĥm":1830,"ĠkÃŃch":1831,"ĠÄĳá»ı":1832,"Ġká»ĭp":1833,"ĠmÃ¡u":1834,"Ġ22":1835,"ĠNghá»ĭ":1836,"AN":1837,"Ġháº¡ng":1838,"ĠthÃ¡i":1839,"ĠCÃ³":1840,"ĠBáº£o":1841,"Ġtá»Ļc":1842,"ÃŃnh":1843,"ĠVÃ¬":1844,"ĠhÃ£ng":1845,"ĠÄĳÃ³n":1846,"ÄĲá":1847,"ÄĲá»":1848,"Ġ21":1849,"ĠTá»«":1850,"ĠÄĳÃ¢u":1851,"Ġvá»¯ng":1852,"Ã¹i":1853,"ĠthÃ¡c":1854,"Ġnhá»Ŀ":1855,"TV":1856,"Ġcá»¥c":1857,"TC":1858,"ĠChi":1859,"Ġquanh":1860,"ĠsiÃªu":1861,"Ġkhá»ĳi":1862,"Ġxá":1863,"Ġxá»":1864,"ĠlÃ¡i":1865,"ĠTá»ķ":1866,"ĠTháº¿":1867,"iv":1868,"Ġloáº¡t":1869,"Ġnháº¥n":1870,"ĠÃĤu":1871,"Ġnhá»Ľ":1872,"ĠHÃ¹ng":1873,"ine":1874,"ig":1875,"ain":1876,"Ġphá»ķ":1877,"Ġxáº¿p":1878,"Gi":1879,"oa":1880,"Ġthá»Ń":1881,"Ãºi":1882,"Ġchá»Ŀ":1883,"ĠThÃ":1884,"ĠlÃłng":1885,"Ġ2016":1886,"Ġtháº³ng":1887,"Ġná»ĳi":1888,"ĠhÃ´n":1889,"Ġváº»":1890,"Tá":1891,"Tá»":1892,"ĠHLV":1893,"ĠTriá»ģu":1894,"Ġtrá»ĵng":1895,"Ġsáºµ":1896,"Ġnháº¹":1897,"TÃ´i":1898,"Ġsáºµn":1899,"Ġháº¡t":1900,"ĠNgoÃłi":1901,"Ġlá»±a":1902,"Ġ23":1903,"ĠcÃ¢n":1904,"ue":1905,"Ġkhá»§ng":1906,"¢m":1907,"Ġ2017":1908,"Hiá»ĩn":1909,"iáº¿p":1910,"Ġmay":1911,"Ġsung":1912,"ĠgiÃłnh":1913,"Ġsong":1914,"ĠHiá»ĩn":1915,"Ġniá»ĩm":1916,"ĠYÃªn":1917,"ĠBá»ĩnh":1918,"Ġsá»Ńa":1919,"Ġtáº·ng":1920,"ĠlÆ°á»£c":1921,"ĠChá»ī":1922,"XVN":1923,"Ġ2020":1924,"Ġgáº¯n":1925,"ĠnghÃ¨o":1926,"ĠVN":1927,"Bá»Ļ":1928,"Ġcháº·t":1929,"ĠViet":1930,"Ġcháº³ng":1931,"Ġcáº§m":1932,"NgÆ°á»Ŀi":1933,"á»³nh":1934,"ĠquÃª":1935,"Ġbáº£ng":1936,"Ġchá»©":1937,"ĠchÃ³ng":1938,"ĠÄĲÃ¬nh":1939,"Ġngá»ĵi":1940,"Ġ2015":1941,"ĠcáºŃp":1942,"Ġtáº§m":1943,"yr":1944,"Ġrá»«ng":1945,"NH":1946,"Ġquen":1947,"Ġluyá»ĩn":1948,"Ġcan":1949,"Ġcáº¥u":1950,"ĠThÆ°Æ¡ng":1951,"Ġly":1952,"ĠLe":1953,"ĠmÃłn":1954,"50":1955,"ton":1956,"Qu":1957,"Ġthá»ıa":1958,"ĠrÃºt":1959,"ĠcÃ¡nh":1960,"ĠHiá»ĩp":1961,"ĠÃŃch":1962,"ĠLá":1963,"ĠLá»":1964,"/.":1965,"Ġsuy":1966,"ĠKinh":1967,"Ġcáº¯t":1968,"ĠlÆ°á»£t":1969,"ĠcáºŃn":1970,"ĠKhÃ¡nh":1971,"¥p":1972,"ĠLÃ¢m":1973,"ĠVá»Ľi":1974,"ĠÄĳá»Ļt":1975,"ump":1976,"%.":1977,"Ġlá»ĩnh":1978,"ĠHÆ°ng":1979,"ent":1980,"ĠnÃªu":1981,"ĠHÆ°Æ¡ng":1982,"ĠRe":1983,"ĠTiáº¿n":1984,"ĠPhÃºc":1985,"ĠHÃ³a":1986,"ĠtháºŃm":1987,"ĠÆ°á»Ľc":1988,"Ġháº£i":1989,"ĠtÃºy":1990,"ĠngÄĥn":1991,"SN":1992,"ran":1993,"Ġbinh":1994,"ĠdÆ°":1995,"Ġtruy":1996,"ĠÃ¡nh":1997,"Ġquáº§n":1998,"Ġcoi":1999,"ĠphÃºc":2000,"ĠcÅ©":2001,"Ġáº¥n":2002,"Vá»Ľi":2003,"Ġ40":2004,"200":2005,"Ġtáº¯c":2006,"KhÃ´ng":2007,"ĠkhÃ³a":2008,"Ġná»Ĺ":2009,"nam":2010,"Ġngá»§":2011,"ĠTo":2012,"ĠÄĳÃŃ":2013,"Ġdá»ĭp":2014,"Ġdá»«ng":2015,"ĠtrÆ°Æ¡ng":2016,"ul":2017,"21":2018,"Ġchá»£":2019,"Ġngáº¡i":2020,"Ġkhá»ķ":2021,"Ġthá»«a":2022,"Ġtráº¯ng":2023,"ĠmÃ³n":2024,"av":2025,"OV":2026,"Ġliá»ĩt":2027,"Ġthá»ĭt":2028,"Ġláº¡c":2029,"Ġ2019":2030,"Ġkháº£o":2031,"ĠZ":2032,"Khi":2033,"²i":2034,"ĠbÃ£o":2035,"Ġtrá»¥":2036,"Ġtá»ĵn":2037,"Ġsáº¯p":2038,"Ġthá»¥":2039,"ab":2040,"ĠNhÃ¢n":2041,"oan":2042,"Ġsuá»ĳt":2043,"SE":2044,"ĠDá»±":2045,"Ġ27":2046,"Ġxáº¥u":2047,"Ġtá»Ŀ":2048,"Ġ26":2049,"ĠTrump":2050,"Ġ28":2051,"Ġná»ķ":2052,"Ġcha":2053,"ĠgiÃ³":2054,"Ãµi":2055,"yria":2056,"Ġá»§ng":2057,"ik":2058,"ĠÄĲoÃłn":2059,"ĠmáºŃt":2060,"ĠNgÃły":2061,"ĠNgh":2062,"ĠdÃ¢y":2063,"ĠthÃº":2064,"Ġdáº¡ng":2065,"Ġ199":2066,"Ġmá»Ļ":2067,"Ġdáº¡y":2068,"ĠQuÃ¢n":2069,"Ġláº½":2070,"áº¤":2071,"ĠThÃ´ng":2072,"uá»ķi":2073,"Ġsáº¡ch":2074,"ĠSyria":2075,"ĠNew":2076,"ĠkÃ©m":2077,"amp":2078,"ĠsÃłng":2079,"ĠGD":2080,"ĠTrÆ°á»Łng":2081,"ĠlÅ©":2082,"./.":2083,"ĠbÃ¡nh":2084,"ĠtáºŃn":2085,"ĠmÃ£":2086,"ĠtrÄĥm":2087,"ank":2088,"ĠthiÃªn":2089,"NgoÃłi":2090,"áº¹n":2091,"Ġtráº£i":2092,"Ġthao":2093,"Ġtháº§y":2094,"Ġbáº¡c":2095,"Ġchá»©a":2096,"ĠnghÃ¬n":2097,"ĠÄĳáº£ng":2098,"ĠgiÃ¡c":2099,"ie":2100,"ĠthoÃ¡t":2101,"ĠrÆ¡i":2102,"ob":2103,"ĠnÃºi":2104,"ĠCÆ¡":2105,"Ġgá»ĳc":2106,"te":2107,"Ġchá»Ł":2108,"ion":2109,"ĠsÃ³ng":2110,"ĠÄĳÆ°Æ¡ng":2111,"Ġsá»£":2112,"Ġlai":2113,"ĠÄĳÃŃch":2114,"ĠGia":2115,"ĠNgoáº¡i":2116,"£t":2117,"co":2118,"Ġsá»¹":2119,"ĠTáºŃp":2120,"Ġcháº¯n":2121,"Ġxung":2122,"ĠMar":2123,"ĠBÃł":2124,"á»Ļn":2125,"Ġlá»Ĺi":2126,"ĠPhong":2127,"Ġf":2128,"TP":2129,"23":2130,"ĠlÃ¡":2131,"CÃ´ng":2132,"Ġtiá»ĥu":2133,"Ġ29":2134,"ĠNÄĥm":2135,"ĠTrÆ°á»Ľc":2136,"ly":2137,"Ġdáº§n":2138,"Ġchá»¥c":2139,"Ġháº¥p":2140,"ĠLÃ½":2141,"á»ĳn":2142,"ĠThá»§y":2143,"ard":2144,"ĠÄĲá»Ļ":2145,"ĠBa":2146,"Ġtáº¡p":2147,"įa":2148,"ĠTáº¡i":2149,"ĠxÄĥng":2150,"Ġngáº¯n":2151,"Ġcáº¥m":2152,"Ġtá»ĩ":2153,"Æ°á»Ľp":2154,"ĠkhÃºc":2155,"Ġchá»¥p":2156,"ĠsÃ³c":2157,"ĠVÄ©nh":2158,"Ġ2014":2159,"Ġláº¡nh":2160,"ĠAl":2161,"ĠCáº£nh":2162,"ist":2163,"ID":2164,"Ãºa":2165,"ĠÄĲH":2166,"ĠkhÃ´":2167,"ĠHÄĲ":2168,"ĠvÃ©":2169,"ĠHá":2170,"ĠHá»":2171,"Ġtháº£i":2172,"ĠhÃłi":2173,"Ã©p":2174,"ĠPhÃ¡t":2175,"ĠNhiá»ģu":2176,"Ġin":2177,"á»Ļp":2178,"ĠAr":2179,"ook":2180,"Ġláº¡":2181,"ĠpháºŃn":2182,"Ġphi":2183,"Ġmá»«ng":2184,"Ġnáº¯m":2185,"Ġgiáº£n":2186,"ĠphÃ¡n":2187,"Ġkhuyáº¿n":2188,"ChÃ":2189,"ĠBÃ¡o":2190,"ĠcÃº":2191,"Ġi":2192,"ĠViá»ĩn":2193,"Kh":2194,"ĠVÃł":2195,"ĠThÆ°á»Ŀng":2196,"ĠthÆ¡":2197,"ĠÄĳen":2198,"Ġmá»Ŀi":2199,"ĠTrang":2200,"ĠsÃºng":2201,"ĠphÃ³":2202,"ĠBiÃªn":2203,"Ġniá»ģm":2204,"Ľt":2205,"ĠkhoÃ¡n":2206,"II":2207,"Ġkáº»":2208,"ĠPhan":2209,"ines":2210,"Ġcá»±":2211,"ĠCS":2212,"ĠbáºŃt":2213,"Ġlan":2214,"ĠVinh":2215,"Ä©a":2216,"net":2217,"Ġháº¡nh":2218,"ĠÄĳá»©a":2219,"ĠÄĳua":2220,"ĠdÃµi":2221,"ald":2222,"Ġtuyá»ĩt":2223,"¥t":2224,"Ġnháº¯c":2225,"ĠNghá»ĩ":2226,"ĠVÃ¢n":2227,"ĠÄĳÃ¡m":2228,"ĠViá»ĩc":2229,"ina":2230,"ĠbÃŃ":2231,"ĠÄĳÃłm":2232,"ĠPhá»":2233,"ub":2234,"ĠHuy":2235,"áº¤n":2236,"HÃł":2237,"Ġthiá»ĩu":2238,"ĠkÃªu":2239,"re":2240,"GT":2241,"Tá»ķng":2242,"Ġmáº¥y":2243,"Ġkim":2244,"Ġsáº¯t":2245,"Ġtháº§u":2246,"Ġcháº·n":2247,"TTXVN":2248,"á»Ļm":2249,"Ġdá»¯":2250,"ĠHai":2251,"Ġtim":2252,"Ġhy":2253,"Tá»«":2254,"ĠÄĲáº¿n":2255,"§y":2256,"Æ°Æ¡i":2257,"ĠÄĳá»£t":2258,"ĠThuáºŃn":2259,"se":2260,"ĠthÃ´i":2261,"Ġnguyá»ĩn":2262,"ty":2263,"ĠKhu":2264,"Ġxu":2265,"mar":2266,"ĠÄĳá»įc":2267,"Ġháº§u":2268,"Ġbáº¡i":2269,"Ġbá»ĳi":2270,"ill":2271,"ĠcháºŃm":2272,"ĠhÆ¡i":2273,"CÃ³":2274,"ĠcÃł":2275,"Ġsá»¯a":2276,"ib":2277,"%,":2278,"Ġmáº½":2279,"ĠcÆ°á»Ľi":2280,"Ġliá»ģn":2281,"Ġgh":2282,"don":2283,"Ġnáº¯ng":2284,"ĠÄĳÃ²i":2285,"ĠPar":2286,"ĠTT":2287,"ĠÄĳá»ĭch":2288,"Ã³t":2289,"iáº¿ng":2290,"Ġ60":2291,"ĠLa":2292,"ÄĲá»ĥ":2293,"Ġru":2294,"Æ°á»Ŀn":2295,"ĠhÆ°Æ¡ng":2296,"Ġbáº¯n":2297,"Vá»ģ":2298,"Ġlá»¥c":2299,"SEAN":2300,"Ġtuy":2301,"Ġ2013":2302,"Ġná»Ļp":2303,"Ġtráº¥n":2304,"ĠbÃ¨":2305,"Ġkháº©n":2306,"Ġquáº£ng":2307,"ĠChÃºng":2308,"ĠbÄĥng":2309,"kg":2310,"Æ°á»£u":2311,"ĠNhÆ°":2312,"lo":2313,"ĠhoÃłng":2314,"ĠbÃło":2315,"Ġgáº¯ng":2316,"ĠnháºŃt":2317,"ĠrÃłng":2318,"ĠÄĳá»¡":2319,"Ġ31":2320,"Ġ2012":2321,"pp":2322,"Ġngo":2323,"ĠCÃ²n":2324,"ĳt":2325,"ĠÄĲá»ĭnh":2326,"ĠtÃ´n":2327,"ÄĲÃ¢y":2328,"Ġáº¤n":2329,"Ã³i":2330,"ĠkÃ¨":2331,"ĠThiÃªn":2332,"ĠgiÃłu":2333,"ague":2334,"Ġthai":2335,"Ġká»ĭch":2336,"Ġrau":2337,"ce":2338,"Ġsá»©":2339,"ĠNha":2340,"Ġláº¯ng":2341,"ĠMan":2342,"ĠÄĲÃ³":2343,"ĠÄĲÃło":2344,"Ġbá»Ŀ":2345,"Ġxong":2346,"Ġ198":2347,"ĠsÃłn":2348,"ĠLÃło":2349,"ĠnhuáºŃn":2350,"ĠTháº¯ng":2351,"ĠTPHCM":2352,"ĠÄĳoÃ¡n":2353,"Ġthua":2354,"ĠASEAN":2355,"âĢĻ":2356,"ĠÄĳem":2357,"Ġmiá»ħn":2358,"ĠCÃ´":2359,"Náº¿u":2360,"XH":2361,"ĠgÆ°Æ¡ng":2362,"Ġbang":2363,"ah":2364,"¨n":2365,"ore":2366,"Æ¯":2367,"ĠCÆ°á»Ŀng":2368,"ĠrÃ¡c":2369,"á»įt":2370,"Ġkiá»ĥu":2371,"á»¯u":2372,"ĩt":2373,"ĠlÆ°á»Ľi":2374,"ĠmÃ¡i":2375,"ĠrÆ°á»£u":2376,"Nhiá»ģu":2377,"ģm":2378,"Ġcáº·p":2379,"Ġdá»©t":2380,"Ġrá»§":2381,"ĠTrá»įng":2382,"Ġrá»Ŀi":2383,"ĠcÆ¡n":2384,"ĠcÆ°á»Ŀi":2385,"»©c":2386,"á»©c":2387,"ck":2388,"Ġquá»¹":2389,"Ġ2011":2390,"Ã£y":2391,"ĠbÃ£i":2392,"onald":2393,"ĠngÆ°á»£c":2394,"Ġduyá»ĩt":2395,"Ġbá»ģn":2396,"od":2397,"ian":2398,"ĠcÆ°á»Ľp":2399,"vn":2400,"ĠquÃł":2401,"est":2402,"2018":2403,"Ġná»Ńa":2404,"qu":2405,"ĠCao":2406,"Ġdao":2407,"ĠthÃ¡ch":2408,"ĠkÃŃnh":2409,"ĠmÃª":2410,"Ġtáº¥m":2411,"Ġpha":2412,"ĠTÆ°":2413,"NN":2414,"ĠSÃłi":2415,"ĠPV":2416,"¹a":2417,"ĠDu":2418,"ĠtÃ¡":2419,"Anh":2420,"ĠhÃ£y":2421,"ĠTrÆ°Æ¡ng":2422,"ĠdÆ°Æ¡ng":2423,"Ġkhiá»ĥn":2424,"ĠDuy":2425,"ĠGiÃ¡o":2426,"ĠHá»¯u":2427,"ĠÄĲá»ĥ":2428,"25":2429,"ĠBÃªn":2430,"Ġbá»ĵi":2431,"CC":2432,"ĠBr":2433,"lip":2434,"ĠKhoa":2435,"com":2436,"Ġngá»«ng":2437,"Ġláº«n":2438,"ĠSa":2439,"ess":2440,"ĠHCM":2441,"Ġ500":2442,"Ġhiá»ĩp":2443,"Ġw":2444,"Ġhá»§y":2445,"ĠGÃ²n":2446,"įt":2447,"ĠhÃ¨":2448,"az":2449,"ĠDÃ¢n":2450,"Ġdá»įa":2451,"op":2452,"Ġdá»ĭ":2453,"ĠgÃ³i":2454,"ĠCup":2455,"BÃªn":2456,"ĠgiáºŃt":2457,"ĠÄĲiá»ĩn":2458,"ÃŃt":2459,"2020":2460,"ĠHá»į":2461,"Ġkháº¯p":2462,"ou":2463,"ĠÄĲáº§u":2464,"22":2465,"Ġthá»ķ":2466,"Ġlá»ĳi":2467,"NG":2468,"ĠdÃłng":2469,");":2470,"ĠmÅ©":2471,"Ġlinh":2472,"Ġngang":2473,"sia":2474,"Ġchiáº¿u":2475,"Ġkm":2476,"Ġgiáº¿t":2477,"Ġgá»¡":2478,"ĠThá»©":2479,"ĠtÃ³c":2480,"Ġláº¯m":2481,"ĠgÃł":2482,"Ġbuá»ĵn":2483,"Ġ2010":2484,"2017":2485,"ich":2486,"Ġcá»±u":2487,"ĠtÆ°Æ¡i":2488,"ĠPhÆ°á»Ľc":2489,"ĠcáºŃu":2490,"ĠQuáº£n":2491,"Ã´m":2492,"£n":2493,"2016":2494,"ld":2495,"ĠTHPT":2496,"Ġgáº¥p":2497,"ebook":2498,"ĠchÃłng":2499,"ĠMal":2500,"nÄĥm":2501,"ĠngÅ©":2502,"NÄĥm":2503,"Ġtri":2504,"Ġhuyáº¿t":2505,"ĠBÃ¹i":2506,"ĠNÃ´ng":2507,"LB":2508,"Ġung":2509,"Ġ70":2510,"Ġláº»":2511,"ChÃºng":2512,"CÅ©ng":2513,"ĠVÃµ":2514,"ĠPhi":2515,"Ġcuá»ĳn":2516,"ĠngÃ´n":2517,"ĠtráºŃt":2518,"¥y":2519,"ĠbuÃ´n":2520,"acebook":2521,"ĠngÃłn":2522,"Ġgáº¡o":2523,"Ġhoáº£ng":2524,"Ġphá»©c":2525,"ĠcÄĥng":2526,"ĠÄĳoáº¡t":2527,"ĠÄĳá»£i":2528,"Viá»ĩc":2529,"ĠchÃºt":2530,"Ġxáº¿":2531,"ĠHuáº¿":2532,"ĠtrÃło":2533,"Viet":2534,"ĠchÃło":2535,"Ġhuáº¥n":2536,"2015":2537,"Ġmá»¹":2538,"ĠBar":2539,"ĠInter":2540,"Ġtrá»Ļm":2541,"Ġtung":2542,"ĠQuyáº¿t":2543,"ĠLÆ°Æ¡ng":2544,"ĠÄĲáº·c":2545,"Ġtá»ıa":2546,"Ġsáº¡n":2547,"ĠÄĳá»īnh":2548,"ĠdÃ¡ng":2549,"Ġváº¿t":2550,"ĠTÄ©nh":2551,"Ġhá»ģ":2552,"Ġcháº¥m":2553,"Ġcháº¥n":2554,"Ġdá»±a":2555,"ĠtÃºi":2556,"ĠCáº§n":2557,"Ġvá»¡":2558,"Ġthuyá»ģn":2559,"how":2560,"ĠkhÃ¡ng":2561,"Ġo":2562,"ĠngáºŃp":2563,"ack":2564,"ĠÄĳe":2565,"ĠBiá»ĥn":2566,"kr":2567,"Ġthiá»ĥu":2568,"CP":2569,"ĠLá»Ļc":2570,"Phone":2571,"Ġro":2572,"gi":2573,"ĠXÃ¢y":2574,"Trung":2575,"ĠMy":2576,"2019":2577,"Ġtháº»":2578,"Ġtiá»ģm":2579,"ĠChÆ°Æ¡ng":2580,"Ġtrá»¯":2581,"Ġcháº½":2582,"if":2583,"ĠyÃªn":2584,"ĠkhÃŃch":2585,"áº¯k":2586,"ĠtháºŃn":2587,"ĠCá»Ļng":2588,"ĠTÃ¢m":2589,"ity":2590,"ÄĲáº¡i":2591,"ĠHÃłng":2592,"ax":2593,"ĠkÃªnh":2594,"ĠĊ":2595,"á»ĳt":2596,"15":2597,"ey":2598,"ĠGiao":2599,"Ã£ng":2600,"Ġkháº¥u":2601,"ĠBH":2602,"ĠIran":2603,"Ġcháº¡m":2604,"Thá»§":2605,"Ġtrá»«":2606,"ĠNH":2607,"ĠÆ¡n":2608,"ĠVÆ°Æ¡ng":2609,"ĠÃ©p":2610,"km":2611,"ĠSt":2612,"Ġgá»Ĺ":2613,"iáº¿c":2614,"ovid":2615,"ĠThe":2616,"ĠSh":2617,"Ġáº¥m":2618,"ev":2619,"ĠhÃło":2620,"ez":2621,"ĠtrÆ°ng":2622,"ĠÄĳÃ¨n":2623,"ĠThÆ°á»£ng":2624,"Ġtrá»ĳn":2625,"ĠkhuÃ´n":2626,"Ġthuyáº¿t":2627,"ĠTá»īnh":2628,"Ġmá»ģm":2629,"ĠÄĳuá»ķi":2630,"ĠThÆ¡":2631,"TS":2632,"Ġtráº¡m":2633,"ĠkÃ¨m":2634,"ĠÄĳáº¡n":2635,"ĠÄĳÃ¢m":2636,"ĠtháºŃp":2637,"ĠÄĲá»ĳi":2638,"Ġ35":2639,"Ġkiá»ĩm":2640,"ĠCovid":2641,"LÄĲ":2642,"ĠngÃ£":2643,"Ġmáº¯n":2644,"Ġmáº¡c":2645,"ĠrÃło":2646,"ĠmÆ¡":2647,"Ġháº¹n":2648,"Ġxá»©":2649,"Ġgiam":2650,"ĠNgÃ´":2651,"ĠCLB":2652,"ĠÄĲÃłi":2653,"ĠTNH":2654,"ĠtrÃ¹ng":2655,"Ġ300":2656,"áºŃc":2657,"ĠlÃ¢m":2658,"ĠmÆ°u":2659,"Ġmáº¡ch":2660,"ok":2661,"Ġ80":2662,"ĠtrÃºng":2663,"ĠTNHH":2664,"Ġcáº£ng":2665,"son":2666,"500":2667,"oh":2668,"st":2669,"ĠghÃ":2670,"ÄĲáº¿n":2671,"ĠtÃ¡n":2672,"ĠCon":2673,"ĠhÃ¢m":2674,"Do":2675,"ĠtrÃºc":2676,"krain":2677,"ort":2678,"Ġná»Ĺi":2679,"Ġpháº¥n":2680,"2014":2681,"Ġtang":2682,"ĠGiá»":2683,"uch":2684,"ĠbáºŃc":2685,"ĠÄĲá»Ļi":2686,"Ġlá»Ĺ":2687,"da":2688,"ĠHy":2689,"OVID":2690,"Ġ36":2691,"PhÃ¡t":2692,"ĠÄĲá»Ĺ":2693,"SÃ¡ng":2694,"ĠÄĳáº³ng":2695,"ĠNghÄ©a":2696,"ĠCOVID":2697,"áº³":2698,"Ġá»ŀ":2699,"ĠbÃ¹":2700,"Ġngá»¯":2701,"ĠgiÃł":2702,"ord":2703,"ĠtrÃŃch":2704,"ĠPhil":2705,"alia":2706,"ĠvÆ°á»Ŀn":2707,"ĠThá»Ŀi":2708,"ĠrÃł":2709,"Ġáº©n":2710,"CN":2711,"era":2712,"ĠMáº¡nh":2713,"Ġlá»£n":2714,"Nguá»ĵn":2715,"Ġbom":2716,"ĠgÃ³c":2717,"ĠÄĳáºŃp":2718,"Ġkhen":2719,"ÄĲá»ĳi":2720,"ĠUkrain":2721,"ĠbÃ²":2722,"ĠnÃ©t":2723,"ry":2724,"Ġkia":2725,"AND":2726,"aysia":2727,"Ġmai":2728,"ĠlÃºa":2729,"Ġláº¯p":2730,"ĠxÃ³m":2731,"Ġrá»ĳi":2732,"TVT":2733,"Ġsá»ĳt":2734,"Chá»§":2735,"ĠTáº¥n":2736,"ĠTháº£o":2737,"io":2738,"ÄĲÆ°á»£c":2739,"Ġkhung":2740,"BÃł":2741,"Ġmu":2742,"iz":2743,"deo":2744,"ĠTiá»ģn":2745,"Ġchá»ĳt":2746,"ĠmÃ£i":2747,"ĠiPhone":2748,"Ġvideo":2749,"Ġbáº¡o":2750,"Ġtá»¥":2751,"Ġloáº¡n":2752,"Ġlá»«a":2753,"Ġgháº¿":2754,"Ġ197":2755,"Ġhuá»ĳng":2756,"ipp":2757,"ama":2758,"ĠTÃ¹ng":2759,"Ġrá»§i":2760,"Ġcháº£y":2761,"ĠVá»¥":2762,"ĠtrÃ´ng":2763,"ĠthÃ¹":2764,"ĠviÃªm":2765,"ĠSing":2766,"Ġngáº§m":2767,"Ġ90":2768,"ĠCP":2769,"ĠChiáº¿n":2770,"ĠxÃ¢m":2771,"ĠchÃ³":2772,"ĠQuá»³nh":2773,"ĠlÃłnh":2774,"ĠÄĲa":2775,"ĠLai":2776,"ell":2777,"ĠcÆ¡m":2778,"ha":2779,"ĠdÃ¢m":2780,"ĠnÃłng":2781,"ĠquÃªn":2782,"2013":2783,"ĠThá»į":2784,"ĠdáºŃy":2785,"esia":2786,"áº³n":2787,"ÄĲá»ĵng":2788,"ĠEm":2789,"ĠÄĲáº·ng":2790,"ĠToÃłn":2791,"Ġxo":2792,"Ġxinh":2793,"ĠÄĳÃ¡o":2794,"ĠNai":2795,"ĠthÃ¡o":2796,"Ġngá»įt":2797,"PhÃ³":2798,"ĠngoÃ¡i":2799,"ĠbÃ³":2800,"apore":2801,"donesia":2802,"Ġráº»":2803,"ĠLao":2804,"orld":2805,"ĠKiá»ĥm":2806,"ĠÄĳÃłi":2807,"ĠMalaysia":2808,"Ġtráº¡i":2809,"40":2810,"ĠtÃºc":2811,"ĠngÆ°":2812,"ĠHáº¡":2813,"ĠnhÅ©ng":2814,"ĠlÃłn":2815,"ĠVin":2816,"ĠtiÃªm":2817,"og":2818,"Ġgiáº£ng":2819,"Ġngá»¥":2820,"ĠhÃ¹ng":2821,"ĠDÃ¹":2822,"ĠAF":2823,"ĠSá»±":2824,"ĠkhÃ³c":2825,"ĠEU":2826,"ĠkiÃªn":2827,"ĠBá»Łi":2828,"Ġhiáº¿m":2829,"ĠLoan":2830,"ĠGTVT":2831,"Ngay":2832,"Ġbá»¯a":2833,"45":2834,"Dá»±":2835,"CS":2836,"iá»ĩng":2837,"ĠHáºŃu":2838,"ĠUkraine":2839,"Ġcáº£n":2840,"our":2841,"ow":2842,"»ŀ":2843,"á»ŀ":2844,"ĠIs":2845,"Ġtháº£m":2846,"ĠchÃºc":2847,"ud":2848,"ĠdÃły":2849,"Cá»¥":2850,"ĠCamp":2851,"ĠPr":2852,"Ġbáº¡ch":2853,"Ġdá»¥":2854,"Ġhá»©ng":2855,"Ġhá»ĵng":2856,"Ġháº³n":2857,"ĠthÃ©p":2858,"ĠQuy":2859,"18":2860,"ĠchÃ¬":2861,"lÆ°á»£ng":2862,"ĠCá»¥":2863,"ĠÄĲinh":2864,"Ġhoang":2865,"KS":2866,"ĠFacebook":2867,"ters":2868,"Ġngon":2869,"ĠCáº§u":2870,"Ġbá»¥ng":2871,"Ġá»ĳng":2872,"ashi":2873,"sen":2874,"ĠLeague":2875,"Ġthá»Ł":2876,"ĠÄĲT":2877,"ĠHuá»³nh":2878,"Ġmiá»ĩng":2879,"ĠloÃłi":2880,"Ġpháº«u":2881,"ĠÄĳai":2882,"ĠPhilipp":2883,"Ġtá»ķn":2884,"Ġhá»ıa":2885,"Chiá»ģu":2886,"á»ĭa":2887,"ĠphÃº":2888,"ĠAir":2889,"ĠniÃªm":2890,"16":2891,"áº«y":2892,"ĠNgay":2893,"ĠthÆ°á»£ng":2894,"ĠSingapore":2895,"ĠIndonesia":2896,"ĠÄĳá»ĵn":2897,"NhÃł":2898,"24":2899,"ĠHáº±ng":2900,"Ġclip":2901,"ĠkÃŃn":2902,"ĠKáº¿t":2903,"Vietnam":2904,"Ġnháº£y":2905,"ĠÄĳÃ£i":2906,"ĠÄĳá»©c":2907,"ĠbÃ¢y":2908,"ĠdÃ¡m":2909,"rus":2910,"ĠtrÃłn":2911,"ber":2912,"ĠWorld":2913,"pple":2914,"Ġsá»ķ":2915,"ĠnÃ©":2916,"ĠKho":2917,"Ġnon":2918,"Ġthang":2919,"tÃ´":2920,"ThÃ´ng":2921,"ĠThÃº":2922,"Ã£nh":2923,"Ġ45":2924,"Ġhiáº¿n":2925,"CÃ¹ng":2926,"ĠtáºŃt":2927,"ĠtÃ¹y":2928,"ĠchÄĥn":2929,"Ġhá»Ļp":2930,"Ġgiá»įng":2931,"ĠphÃ¡o":2932,"ĠnhiÃªu":2933,"ĠCity":2934,"Ġuy":2935,"Ġhá»ıng":2936,"Ġnháº¯n":2937,"Ġtiáº¿c":2938,"Hai":2939,"Ġruá»Ļt":2940,"uchia":2941,"ĠKáº¿":2942,"Ġrá»Ńa":2943,"Ľp":2944,"ĠThá»ķ":2945,"ĠÄĳá»ĳt":2946,"TrÃªn":2947,"ĠÄĳáºŃu":2948,"Ġgiá»ıi":2949,"ĠbÃª":2950,"Ġga":2951,"uters":2952,"ĠlÃ£m":2953,"ĠNháº¥t":2954,"ĠPhilippines":2955,"ĠmÅ©i":2956,"ĠGiáº£i":2957,"ĠCan":2958,"ĠngÆ°á»¡ng":2959,"ĠNhÄ©":2960,"ĠHiáº¿u":2961,"17":2962,"Ġcá»Ļt":2963,"ĠlÃ¢y":2964,"Ġhuynh":2965,"ff":2966,"35":2967,"Ġweb":2968,"Ġchá»ĳi":2969,"ĠHá»£p":2970,"ĠSp":2971,"ĠHá»ĵi":2972,"ĠPark":2973,"Ġe":2974,"ĠchÃ©":2975,"ĠHoÃłi":2976,"ĠNhÃ":2977,"bank":2978,"ĠhÆ°":2979,"Ġ2009":2980,"Má»¹":2981,"ĠSam":2982,"ĠTrÃł":2983,"ers":2984,"14":2985,"ĠMáº·t":2986,"áº¥c":2987,"Ġbáº¿n":2988,"ĠThá»±c":2989,"ĠTS":2990,"ĠdÃ¢u":2991,"ĠlÃ´":2992,"ec":2993,"ri":2994,"uro":2995,"ĠKiÃªn":2996,"ico":2997,"ÄĲiá»ģu":2998,"Ġvinh":2999,"60":3000,"ĵi":3001,"Ġsu":3002,"ĠÄĳá»ģn":3003,"ĠBáº¡n":3004,"CB":3005,"ĠnÃ£o":3006,"ĠHoÃłn":3007,"ĠCá»ķ":3008,"ĠcÃ£i":3009,"ĠPhÆ°á»£ng":3010,"2012":3011,"ĠQuÃ½":3012,"uk":3013,"Ġáº©m":3014,"ĠtÃ´ng":3015,"ĠLá»ħ":3016,"Thanh":3017,"ĠCÅ©ng":3018,"Ġnáº¥u":3019,"Ġha":3020,"Vá»¥":3021,"ĠBáº±ng":3022,"ĠCÄĲ":3023,"ĠCampuchia":3024,"ªnh":3025,"»£":3026,"ĠÃ´m":3027,"á»£":3028,"ĠtÆ°á»Ŀng":3029,"ĠCSGT":3030,"Ġláº¡m":3031,"Thá»Ŀi":3032,"ta":3033,"Ġtrá»©ng":3034,"ĠBV":3035,"Ġvirus":3036,"ĠmÃ¡t":3037,"ĠÄĳiá»ĥn":3038,"ĠTÃº":3039,"ĠÄĲÆ°á»Ŀng":3040,"Sá»±":3041,"ĠsÃºt":3042,"han":3043,"ĠTrÃªn":3044,"ustr":3045,"ĠApple":3046,"ĠInternet":3047,"»·":3048,"á»·":3049,"ĠxÆ°a":3050,"ĠVá»ģ":3051,"Ġvá»ı":3052,"ĠmÃ¹i":3053,"ĠLÃºc":3054,"+)":3055,"ĠchÃ¹a":3056,"xi":3057,"ĠnhÆ°á»£ng":3058,"Ġcá»Ŀ":3059,"ĠReuters":3060,"DÃ¹":3061,"Ġmá»ĩnh":3062,"ĠxÆ°Æ¡ng":3063,"NhÆ°":3064,"2011":3065,"Ġtreo":3066,"Ã½t":3067,"Ġtráº§n":3068,"Ġshow":3069,"ĠTuyÃªn":3070,"ĠTÃłu":3071,"ĠdÃ´ng":3072,"Ġmá»±c":3073,"ĠvÃŃ":3074,"Ġthuáº«n":3075,"ĠLÆ°u":3076,"ĠThÄĥng":3077,"Ġthá»Ŀ":3078,"ĠthÄĥng":3079,"man":3080,"AT":3081,"sea":3082,"ÃŃch":3083,"Ġtrá»¥c":3084,"Ġla":3085,"Ho":3086,"ĠCá":3087,"ĠCá»":3088,"ĠtÃłng":3089,"Ġyáº¿t":3090,"ĠcÆ°Æ¡ng":3091,"Ġhá»©a":3092,"Ġngá»«a":3093,"Ġkhoe":3094,"NT":3095,"Ġgiáº¥u":3096,"ĠChÃ¡nh":3097,"ona":3098,"hÃŃnh":3099,"ĠtÃ´m":3100,"ĠBÃ¡c":3101,"ĠVietnam":3102,"ĠChá»ĭ":3103,"ames":3104,"Ġsáº¯m":3105,"Ġchá»§ng":3106,"ĠnhÃ¡nh":3107,"line":3108,"GiÃ¡":3109,"Ġ,":3110,"eg":3111,"ĠTáº¥t":3112,"ĠMá»Ĺi":3113,"Ġbá»Ļt":3114,"all":3115,"Ġtráº§m":3116,"ĠlÃ£ng":3117,"ĠGiÃ¡":3118,"Ġdinh":3119,"ĠIS":3120,"Ġbá»ĳn":3121,"ĠCar":3122,"ĠReal":3123,"Ġ32":3124,"ĠTÃ²a":3125,"ĠThá»¥y":3126,"hoáº£ng":3127,"Ġcá»©ng":3128,"SC":3129,"ĠHá»įc":3130,"istan":3131,"ork":3132,"ĠChung":3133,"ĠtrÆ°a":3134,"ĠThÃºy":3135,"Ġthan":3136,"Ġgá»£i":3137,"rid":3138,"ĠÄĳá»«ng":3139,"ĠnhÃ£n":3140,"ĠHiá»ģn":3141,"VÃ¬":3142,"Ġchuá»Ĺi":3143,"ĠCA":3144,"ĠláºŃu":3145,"ĠcÃ¡t":3146,"»ĥ":3147,"ĠHuyá»ģn":3148,"á»ĥ":3149,"Ġdiá»ĩt":3150,"Ġtriá»ĩt":3151,"ne":3152,"ail":3153,"ĠBÄĲ":3154,"ĠsÃ´i":3155,"Ġal":3156,"Ġtáº£ng":3157,"ĠNhá»":3158,"chá»":3159,"VOV":3160,"ier":3161,"ĠCN":3162,"ĠSu":3163,"ca":3164,"Ġbia":3165,"ĠSong":3166,"ĠxÃ³a":3167,"BÃ¡o":3168,"und":3169,"Ġcanh":3170,"ĠÄĳáºŃm":3171,"ĠÄĳiá»ĩu":3172,"Ġbá»ĳc":3173,"ĠHÄĲND":3174,"ĠthÃ³":3175,"ĠlÆ°ng":3176,"ĠNhi":3177,"elsea":3178,"ĠtÃ¢y":3179,"ep":3180,"tá":3181,"tá»":3182,"ustralia":3183,"ĠMad":3184,"ĠTÃ¬nh":3185,"ĠÄĳáº¥y":3186,"lin":3187,"ĠAs":3188,"Ġhá»ĳi":3189,"BC":3190,"Ġ.":3191,"ĠTAND":3192,"ĠSá»ĳ":3193,"Ġlá»Ł":3194,"Ġnhi":3195,"Ġche":3196,"ĠvÆ°á»Ľng":3197,"Ã¹m":3198,"ĠÄĳáº¯t":3199,"70":3200,"Ġven":3201,"13":3202,"Ġháº§m":3203,"Ġtáº¯m":3204,"¥i":3205,"Ġmá»ĩt":3206,"ĠDung":3207,"Ġkhuáº©n":3208,"ĠmÃ¢y":3209,"ĠCty":3210,"ky":3211,"ada":3212,"Ġbáº¯c":3213,"ĠCÃ¹ng":3214,"Ġlá»įc":3215,"Ġfan":3216,"»Ŀi":3217,"á»Ŀi":3218,"80":3219,"ĠThá»ĳng":3220,"amin":3221,"Ã¹a":3222,"ern":3223,"In":3224,"Ġtá»ĳn":3225,"ĠgiÃ¡p":3226,"CÃ²n":3227,"ĠMáº·c":3228,"ei":3229,"EC":3230,"2010":3231,"Káº¿t":3232,"ĠUn":3233,"ĠKhÃ":3234,"ĠTN":3235,"CÃ´":3236,"ĠDonald":3237,"Ġphá»ıng":3238,"ĠxuÃ¢n":3239,"Ġcá»ķng":3240,"ngÆ°á»Ŀi":3241,"Ġ&":3242,"ĠAnd":3243,"ĠDi":3244,"Ġláº§m":3245,"áº¹t":3246,"ĠbÃ¹ng":3247,"ChÃŃnh":3248,"ĠChu":3249,"Ġcáº¥t":3250,"Ġhung":3251,"ĠOb":3252,"oy":3253,"ĠTrá»ĭnh":3254,"rael":3255,"Ġtáº£":3256,"Ġ33":3257,"LiÃªn":3258,"Ġxá»©ng":3259,"ashing":3260,"Ġquang":3261,"ĠTruyá»ģn":3262,"Ġbáº¿p":3263,"ashington":3264,"Ġxáº£":3265,"ĠQua":3266,"Ġcáº¯p":3267,"ĠNhiá»ĩt":3268,"Máº·c":3269,"ĠBl":3270,"Ġcá»ĳt":3271,"Ġcamera":3272,"Nam":3273,"ĠTiá»ĥu":3274,"Ġlá»ĩch":3275,">>":3276,"ĠTrinh":3277,"ĠTrá»ĭ":3278,"Ĺng":3279,"Ġ400":3280,"ĠbÃ¡m":3281,"ass":3282,"ĠdÆ°á»£c":3283,"mart":3284,"Ġgá»įn":3285,"Ġmá»ıi":3286,"ĠNews":3287,"Æ°Æ¡n":3288,"ĠNgÃ£i":3289,"ĠTam":3290,"ĠAustralia":3291,"Thá»±c":3292,"ĠÃ´tÃ´":3293,"Nguyá»ħn":3294,"aw":3295,"90":3296,"Ġváº¯ng":3297,"Ġhá»ĵn":3298,"Chá»ī":3299,"ĠvÃ¡y":3300,"Ġmá»ĳc":3301,"GS":3302,"NhÆ°ng":3303,"Ġtan":3304,"Thá»©":3305,"ĠCai":3306,"ĠÄĳiá»ĩp":3307,"ĠThÆ°":3308,"Ġsa":3309,"ĠÄĳáº¡p":3310,"khÃ´ng":3311,"ĠtÃ¢n":3312,"hÃ³m":3313,"Ġva":3314,"Ã¨o":3315,"ĠÄĲáº¯k":3316,"26":3317,"Ġ2008":3318,"ĠWashington":3319,"ĠdÆ°á»Ŀng":3320,"Ġmáº£nh":3321,"¹y":3322,"ĠÄĳÃł":3323,"Ġ37":3324,"ĠÄĳá»Ĺ":3325,"Ġngá»±c":3326,"ĠAm":3327,"ĠAP":3328,"Ġngáº¡ch":3329,"ek":3330,"ĠtrÃ´i":3331,"Ġmá»ķ":3332,"con":3333,"ĠAb":3334,"Giá»":3335,"Ġmá»ı":3336,"ĠCáº£":3337,"ĠIsrael":3338,"ĠÄĲá»ģ":3339,"Ġ34":3340,"ĠdÃłn":3341,"ĠHáº¡nh":3342,"ite":3343,"Æ¡m":3344,"ĠSan":3345,"Ġ38":3346,"ĠChelsea":3347,"Ġtháº£":3348,"CT":3349,"iver":3350,"Ġláº·ng":3351,"ngÃły":3352,"Ġ150":3353,"Ġvá»Ŀi":3354,"ĠAi":3355,"Ġkg":3356,"ĠtÃ¡o":3357,"ĠtuÃ¢n":3358,"ĠLá»£i":3359,"thá»":3360,"Ġ2021":3361,"PhÃ":3362,"Ġgam":3363,"ĠvÄ©":3364,"ĠCÃ¡ch":3365,"Viá»ĩt":3366,"Ġkhá»ĳng":3367,"ĠÄĲÆ°á»£c":3368,"ĠObama":3369,"Ġtáº¯t":3370,"Ġmiáº¿ng":3371,"ĠHar":3372,"ĠBra":3373,"zil":3374,"po":3375,"ini":3376,"mp":3377,"Ġchá»«ng":3378,"ĠQuá»¹":3379,"ĠmÃ¢u":3380,"Ġbá»Ľt":3381,"ĠGiáº¥y":3382,"Ġviá»ħn":3383,"ĠÄĲÄĥng":3384,"Ġlang":3385,"tel":3386,"utin":3387,"ĠBáº¿n":3388,"ĠtrÃ²n":3389,"Ġthiá»ĩp":3390,"Ġmuá»ĳi":3391,"Ġlá»ĵ":3392,"27":3393,"ĠII":3394,"Le":3395,"ĠIt":3396,"Ġdá»įc":3397,"Ġnhá»±a":3398,"VÃło":3399,"ĠXÃ£":3400,"Ġráº¯n":3401,"Ġhá»ķ":3402,"ĠÄĳeo":3403,"Ġtrá»«ng":3404,"ĠThá»ĭnh":3405,"ĠPl":3406,"ĠhÃłm":3407,"Ġkhiáº¿u":3408,"»«a":3409,"á»«a":3410,"oog":3411,"ĠYáº¿n":3412,"iss":3413,"ĠSinh":3414,"ĠYork":3415,"ĠCuá»Ļc":3416,"ĠduyÃªn":3417,"ĠchÃŃn":3418,"Ġgan":3419,"ĠtrÃł":3420,"ick":3421,"sung":3422,"TM":3423,"ĠVáºŃy":3424,"ĠbÃ©o":3425,"oogle":3426,"ĠsÃ³t":3427,"ĠCam":3428,"ÃŃn":3429,"ĠTTXVN":3430,"ĠMi":3431,"ĠTim":3432,"ĠgiÆ°á»Ŀng":3433,"ĠBáº¡ch":3434,"ĠgiÃ¢y":3435,"phone":3436,"Con":3437,"senal":3438,"ĠJoh":3439,"tin":3440,"ĠTrÃŃ":3441,"Ġkhá»ķng":3442,"EA":3443,"ĠKhá»":3444,"ĠKiá»ģu":3445,"ĠBÃłi":3446,"Cuá»Ļc":3447,"ĠThá»ĥ":3448,"ĠThá»«a":3449,"ĠCho":3450,"thÃ¡ng":3451,"ĠHÆ¡n":3452,"ĠMos":3453,"Ļi":3454,"ĠthÃ¹ng":3455,"ĠPutin":3456,"Ġthoáº£i":3457,"ĠchÃ¬m":3458,"ĠBHXH":3459,"ĠhÆ°u":3460,"Æ°á»£n":3461,"Qua":3462,"Ġtiá»ħn":3463,"ĠthÃ³i":3464,"ester":3465,"Ġngá»Ļ":3466,"Ġtáº¿t":3467,"Ľn":3468,"iá»ħu":3469,"QT":3470,"ash":3471,"giá»":3472,"ĠkhÃ¢u":3473,"AG":3474,"Ġkhuyáº¿t":3475,"ĠkhuyÃªn":3476,"ĠGu":3477,"Ġháº£o":3478,"Ġchuyá»ģn":3479,"Ã©o":3480,"ĠrÄĥng":3481,"ĠNghi":3482,"ood":3483,"Ġná»ģ":3484,"Ġtrá»į":3485,"ĠTháºŃm":3486,"ĠphÃ¡i":3487,"ĠDiá»ħn":3488,"IV":3489,"%/":3490,"ĠsÄĥn":3491,"Ã¹n":3492,"28":3493,"Ġhoan":3494,"ĠLam":3495,"Ġáº£o":3496,"Bank":3497,"ĠmÃ³c":3498,"ĠMÃ´i":3499,"ĠNguá»ĵn":3500,"rab":3501,"Ġlá»įt":3502,"ĠMau":3503,"enn":3504,"ĠthoÃ¡i":3505,"ge":3506,"99":3507,"ĠCÃ¡t":3508,"Ġcá»§ng":3509,"xÃ£":3510,"ĠgiÃły":3511,"ĠSo":3512,"sk":3513,"ĠÄĲB":3514,"ĠCÃ¡i":3515,"ĠCáº©m":3516,"Chá»ĭ":3517,"raq":3518,"AR":3519,"Má»Ľi":3520,"ĠSÃ¡ng":3521,"ĠthÆ¡m":3522,"Ġsáº¡t":3523,"Ġnghiá»ĩn":3524,"ĠThÃ¹y":3525,"QÄĲ":3526,"Ġ196":3527,"ĠLá»±c":3528,"ĠlÃŃnh":3529,"ĠAFP":3530,"dex":3531,"Ġdáº¡":3532,"ĠCÃł":3533,"ya":3534,"CÆ¡":3535,"Ġtrá»ĳng":3536,"ast":3537,"ĠthÆ°á»Ľc":3538,"ĠmÃ©t":3539,"Ġdáº¯t":3540,"á»±u":3541,"ĠTu":3542,"±ng":3543,"ĠrÃ©t":3544,"ĠQuan":3545,"CÃ¡ch":3546,"ions":3547,"ĠÃ¡c":3548,"Ġvua":3549,"Ġsay":3550,"eng":3551,"ĠkhÃ¡t":3552,"ĠÄĳáº¿":3553,"Ġcá»ı":3554,"Ġcá»¡":3555,"ĠtÃłn":3556,"ĠTháº¡ch":3557,"29":3558,"ÄĲáº·c":3559,"Ġbá»ıng":3560,"ĠPháºŃt":3561,"AM":3562,"Ġháº±ng":3563,"ĠNÃ³":3564,"onaldo":3565,"Ġtaxi":3566,"):":3567,"Nghá»":3568,"ind":3569,"Ġháº¹p":3570,"ĠbuÃ½t":3571,"ĠMadrid":3572,"ĠJohn":3573,"Ġheo":3574,"ĠdáºŃp":3575,"Ġnhá»ĭp":3576,"100":3577,"ĠbÃ¡":3578,"Ġthá»±":3579,"Ġtá»§":3580,"75":3581,"Ġmáº§m":3582,"Ġtiá»ĩc":3583,"ĠBrazil":3584,"ĠÃļ":3585,"ĠDoanh":3586,"TN":3587,"Ġgiáº¥c":3588,"ĠGoogle":3589,"ĠmÃ£n":3590,"ĠCr":3591,"ĠIraq":3592,"Ġváº½":3593,"igh":3594,"Ġáº¥p":3595,"ĠdÃŃnh":3596,"cel":3597,"ĠvÃµ":3598,"Ġcá»ĳng":3599,"lymp":3600,"Minh":3601,"hÃŃa":3602,"ĠLiÃªm":3603,"ĠThiá»ĩn":3604,"ĠXII":3605,"ĠKH":3606,"ara":3607,"ĠÄĳam":3608,"Ġsá»ĳc":3609,"Ġbá»ģ":3610,"Ġváº£":3611,"īa":3612,"Ġ55":3613,"ĠGr":3614,"PV":3615,"ĠMa":3616,"Ġchua":3617,"ĠSer":3618,"Ġmáº¡o":3619,"ĠÃģnh":3620,"ĠsÃ¡nh":3621,"ĠHuá»ĩ":3622,"ĠlÃ²":3623,"HoÃłng":3624,"Ġleo":3625,"ĠbÆ¡i":3626,"to":3627,"ideo":3628,"land":3629,"ĠÄĳá»±ng":3630,"ĠnÃ©m":3631,"Ġco":3632,"ĠtÄ©nh":3633,"ĠArsenal":3634,"ĠTin":3635,"ĠÄĳáº»":3636,"ĠghÃ©p":3637,"ĠCH":3638,"ĠÄĲÃ´":3639,"IC":3640,"ĠRiÃªng":3641,"ĠVÅ©ng":3642,"Há»Ļi":3643,"ate":3644,"á»Ńu":3645,"ero":3646,"ĠSamsung":3647,"ĠThi":3648,"BÃ¬nh":3649,"ĠgÃ¡nh":3650,"ĠQL":3651,"end":3652,"huyá»ĩn":3653,"Tin":3654,"ma":3655,"Ġná»ĵng":3656,"ĠvÆ°Æ¡n":3657,"ĠgiáºŃn":3658,"ĠOlymp":3659,"ĠkhoÃ¡ng":3660,"Ġbá»įn":3661,"ĠUy":3662,"ani":3663,"ĠÃ¡i":3664,"Ġná»Ł":3665,"Ġvá»Ļi":3666,"ĠGal":3667,"tain":3668,"ĠLÄĲ":3669,"ĠVÃłng":3670,"HÃ¬nh":3671,"ĠVi":3672,"ĠnhÃ©":3673,"Lá":3674,"Lá»":3675,"FF":3676,"NÄĲ":3677,"ĠNá»¯":3678,"Ġkhá»Ľp":3679,"ĠtÃ¡ch":3680,"ĠHÃłnh":3681,"Ġcáº©n":3682,"Ġráº¡ng":3683,"Ġu":3684,"Trao":3685,"Bá":3686,"Bá»":3687,"Co":3688,"Ġ48":3689,"martphone":3690,"Ġcá»¥m":3691,"ĠÄĳÃ³i":3692,"Ġngá»įn":3693,"orn":3694,"Ġváº¹n":3695,"Ã¨n":3696,".âĢĿ":3697,"ĠgÃ¬n":3698,"Ãģ":3699,"--":3700,"ĠCanada":3701,"Ġmuá»Ļn":3702,"ĠTháº¡nh":3703,"NguyÃªn":3704,"ĠLy":3705,"Ġváº¥t":3706,"ĠdÃ£":3707,"Gia":3708,"pool":3709,"kh":3710,"ĠAle":3711,"Báº¡n":3712,"300":3713,"ĠCTC":3714,"Ġ01":3715,"ĠEl":3716,"ĠHÄĲQT":3717,"Ġtrinh":3718,"YT":3719,"2009":3720,"ĠCo":3721,"ĠYo":3722,"inho":3723,"Ġláº¥n":3724,"ĠTiáº¿p":3725,"HÃ´m":3726,"ĠLá»ĩ":3727,"36":3728,"´n":3729,"ĠnhÃłng":3730,"ĠSeo":3731,"ĠCSÄĲT":3732,"ĠÄĲáº¡t":3733,"ĠnÃºt":3734,"ĠDáº§u":3735,"quáºŃn":3736,"Ġ39":3737,"á»ĳm":3738,"League":3739,"ech":3740,"ThÃ":3741,"ĠcÆ°á»¡ng":3742,"áº±n":3743,"iverpool":3744,"AS":3745,"Index":3746,"ela":3747,"ĠvÆ°Æ¡ng":3748,"ĠkÃ¬":3749,"ĠTÃŃnh":3750,"Ġvit":3751,"ation":3752,"ĠChamp":3753,"Em":3754,"ĠAng":3755,"ĠMC":3756,"ĠHÃ¬nh":3757,"Ġgame":3758,"Ġ:":3759,"Ġváº£i":3760,"Ġngáº¡c":3761,"Âł":3762,"400":3763,".\"":3764,"ĠngÃµ":3765,"__":3766,"Ġvitamin":3767,"Ġtrá»Ļn":3768,"ĠchiÃªu":3769,"art":3770,"Ġtrá»įn":3771,"ĠgiÃ£n":3772,"ĠsÆ¡n":3773,"Ġ600":3774,"ĠVáºŃn":3775,"ĠchÃªnh":3776,"Ġphá»ķi":3777,"ĠTriá»ĩu":3778,"Ġlá»ıng":3779,"37":3780,"ĠBÃ¡":3781,"ĠbáºŃn":3782,"ĠthÃ¢m":3783,"Ġtuá»ĩ":3784,"DI":3785,"ĠÄĳá»Ľi":3786,"ĠkiÃªm":3787,"ĠDe":3788,"ĠÄĲáº¥t":3789,"ĠNN":3790,"ost":3791,"Ġtá»©":3792,"Ġsoáº¡n":3793,"ĠâĢĺ":3794,"TrÆ°á»Ŀng":3795,"ĠLH":3796,"MT":3797,"onda":3798,"Ã²i":3799,"Ġbá»¥i":3800,"ĠkhÆ¡i":3801,"ĠDanh":3802,"ĠXuyÃªn":3803,"ota":3804,"ĠTá»Ń":3805,"ĠbÃ¬":3806,"anmar":3807,"ĠHS":3808,"Ná»¯":3809,"ĠkhÃ³i":3810,"ÄĲÃ³":3811,"ĠBÃŃch":3812,"ĠTráº¯ng":3813,"Ġpin":3814,"ĠGDP":3815,"ĠRo":3816,"Ġsmartphone":3817,"Æ°á»Ľt":3818,"ĠÃ¹n":3819,"ĠCol":3820,"Ġnháº¡y":3821,"ley":3822,"ĠÄĳáº¯p":3823,"ÃĢ":3824,"ĠhÃ´i":3825,"theo":3826,"ĠÃ¡m":3827,"ĠRonaldo":3828,"Ġdá»įn":3829,"Ġchim":3830,"Ġcu":3831,"ĠchÃ©m":3832,"ĠPet":3833,"%;":3834,"ĠNS":3835,"aly":3836,"essi":3837,"ĠlÃ¹i":3838,"Ġláº¥p":3839,"ĠkhÃ´i":3840,"Ġ75":3841,"Ġnhan":3842,"tor":3843,"Ġthá»£":3844,"ĠNHNN":3845,"Ġchai":3846,"Ġmá»¡":3847,"ĠlÃ´ng":3848,"ĠdÃ¢ng":3849,"Ġthuáº§n":3850,"ĠBe":3851,"ĠSÃ´ng":3852,"Ġ65":3853,"áº«m":3854,"ĠHÃ£y":3855,"NhÃ¢n":3856,"ĠrÃ£i":3857,"ĠxÆ°á»Łng":3858,"Ġmáº·n":3859,"HÃłng":3860,"GD":3861,"ft":3862,"ĠOlympic":3863,"ĠÃĿ":3864,"Ġhá»Ĺn":3865,"ĠDav":3866,"ix":3867,"ĠsáºŃp":3868,"ĠGames":3869,"ĠThÃ¡p":3870,"ĠÄĲá»Ļng":3871,"ĠTÃ´":3872,"Ġsá»¥t":3873,"Tháº¿":3874,"Ġxá»ī":3875,"©o":3876,"Ġvang":3877,"Ġdá»Ŀi":3878,"ĠMil":3879,"Quáº£ng":3880,"Ġmá»ĵ":3881,"la":3882,"ĠLÃ£nh":3883,"eal":3884,"Khu":3885,"ĠdÃ²":3886,"ĠSang":3887,"ĠPhá»¥":3888,"ba":3889,"Ġráº£i":3890,"ĠBu":3891,"ĠThiáº¿u":3892,"Ġhá»¥t":3893,"Cáº£nh":3894,"va":3895,"ver":3896,"Ġnáº¡i":3897,"Tiáº¿p":3898,"ThÃłnh":3899,"ĠTÄĥng":3900,"ĠPháº§n":3901,"Ġhiáº¿p":3902,"Ġtiá»ĩm":3903,"ĠChampions":3904,"ĠmÆ°á»£n":3905,"cÃ³":3906,"34":3907,"Ġtop":3908,"ĠrÅ©":3909,"Háº£i":3910,"ram":3911,"ĠMyanmar":3912,"ĠBo":3913,"ĠnÃ¡t":3914,"Ġlá»ģ":3915,"ĠBKS":3916,"ĠJong":3917,"Ġruá»Ļng":3918,"Ãºn":3919,"ĠGiÃ³":3920,"ĠquÃ©t":3921,"Ġ120":3922,"Chiáº¿c":3923,"Ġbáº¿":3924,"ĠTÆ°á»Ŀng":3925,"Æ°á»¡i":3926,"Ġxoay":3927,"Ġliá»ģu":3928,"ĠbÃ¡t":3929,"ĠHAG":3930,"UBND":3931,"lor":3932,"IA":3933,"38":3934,"Ġháº¯n":3935,"Ġdá»Ļi":3936,"ĠTÃŃn":3937,"Ġrá»¡":3938,"ĠMer":3939,"ĠvÃ¢y":3940,"giá»Ŀ":3941,"ĠGS":3942,"Bá»ĭ":3943,"ĠThÃ¡ng":3944,"Ġdá»¡":3945,"Ġá»ĳc":3946,"NháºŃn":3947,"ke":3948,"Ġbá»įc":3949,"KT":3950,"ĠxÃ¡ch":3951,"Ġnháº§m":3952,"axy":3953,"ĠLiverpool":3954,"ĠMay":3955,"2021":3956,"ĠbÃ´ng":3957,"ĠĠ":3958,"ĠVÃło":3959,"ĠlÃ£o":3960,"46":3961,"Khoáº£ng":3962,"Ġnáº£y":3963,"age":3964,"á»ĳp":3965,"Ġvá»īa":3966,"Ġeuro":3967,"ĳc":3968,"ĠhoÃ£n":3969,"ice":3970,"ĠÃ¢n":3971,"'.":3972,"ondon":3973,"TB":3974,"ĠHá»ĩ":3975,"PL":3976,"ĠRob":3977,"Ġnháº«n":3978,"Ġtá»±u":3979,"ĠTHCS":3980,"OT":3981,"JC":3982,"ans":3983,"PTNT":3984,"Thu":3985,"ĠmÃ¬":3986,"ĠmÃºa":3987,"Ġ46":3988,"LÃł":3989,"55":3990,"Ban":3991,"ĠbÃ³n":3992,"TÃ¬nh":3993,"USD":3994,"ĠParis":3995,"Ġá»©c":3996,"go":3997,"ĠÄĳÃ¡n":3998,"ĠHang":3999,"ĠbÆ¡m":4000,"ĠPhÃ¹ng":4001,"Ġtháº¯t":4002,"ĠlÃŃ":4003,"47":4004,"ĠMU":4005,"Ġquyáº¿n":4006,"ary":4007,"ĠSEA":4008,"Å©i":4009,"ĠNhung":4010,"ĠPal":4011,"Ġmáº¡n":4012,"mm":4013,"Ġ43":4014,"Ġchuá»Ļt":4015,"Ġngáº¯m":4016,"BS":4017,"Ġkáº¹t":4018,"Ġkhoan":4019,"ĠHong":4020,"ĠTá»±":4021,"ĠAd":4022,"lad":4023,"QH":4024,"ote":4025,"ĠÄĲÃłm":4026,"Ġngá»£i":4027,"Ġlá»¥t":4028,"ĠHiáº¿n":4029,"TTQ":4030,"Æ°á»Łi":4031,"ĠtrÃ¹m":4032,"¯a":4033,"Lá»±c":4034,"ĠláºŃt":4035,"ĠSÃ³c":4036,"Ġof":4037,"FA":4038,"95":4039,"ĠKiáº¿n":4040,"Ãºy":4041,"NháºŃt":4042,"Ġmáº£ng":4043,"á»ĭn":4044,"ited":4045,"ĠlÃŃt":4046,"ott":4047,"ĠLee":4048,"ĠLondon":4049,"LÃºc":4050,"áº¹o":4051,"ola":4052,"ham":4053,"Ġdá»ĳc":4054,"ThÃ¡i":4055,"ox":4056,"ĠBá»ĵ":4057,"OS":4058,"Ġbá»ķng":4059,"sinh":4060,"ĠNa":4061,"Ġbá»Ĺng":4062,"Ġmáº¿n":4063,"XX":4064,"Ġ2007":4065,"ĠBÄĲS":4066,"Ġlá»ĵng":4067,"ĠHiá»ĩu":4068,"GP":4069,"Hoa":4070,"ATO":4071,"Ġ42":4072,"lines":4073,"ĠÄĳÄ©a":4074,"Ġdá»ĵn":4075,"ĠHN":4076,"ros":4077,"´i":4078,"Ġkhá»©":4079,"tainer":4080,"Ġgom":4081,"ĠMá»Ľi":4082,"ĠsÃ¡u":4083,"Xe":4084,"ĠNhÆ¡n":4085,"ĠEx":4086,"di":4087,"site":4088,"ĠLáº¯k":4089,"Ġmá»ıng":4090,"ĠÄĲiá»ĥn":4091,"ĠCháº¥p":4092,"ĠNghiÃªn":4093,"exico":4094,"CV":4095,"Ġluá»ĵng":4096,"Ġtá»įa":4097,"ĠÃļc":4098,"TX":4099,"Ġxáº¡":4100,"ĠMessi":4101,"ug":4102,"ace":4103,"Sá»ĳ":4104,"entina":4105,"PhÆ°Æ¡ng":4106,"ĠDá»ĭch":4107,"Sá»Ł":4108,"TA":4109,"HÆ¡n":4110,"ert":4111,"UY":4112,"ĠVFF":4113,"ĠÄĳá»ĵi":4114,"ĠMich":4115,"do":4116,"ĠCáº£ng":4117,"ĠDai":4118,"Ġgáº¯t":4119,"33":4120,"ĠCáºŃp":4121,"VÃł":4122,"ĠkhÃ©o":4123,"ĠXÃ´":4124,"Ġtha":4125,"Ġtruyá»ĩn":4126,"Ġcháº©n":4127,"ĠMV":4128,"tá»«":4129,"ĠGalaxy":4130,"CÄĲ":4131,"ĠBHYT":4132,"he":4133,"An":4134,"VÄĥn":4135,"ĠMÃ£":4136,"ĠKr":4137,"ĠmÃŃ":4138,"ĠPC":4139,"ino":4140,"ĠkhoÃ¡c":4141,"roup":4142,"ĠBarca":4143,"Ġ250":4144,"ĠHonda":4145,"Xem":4146,"ĠcÃºng":4147,"ĠHAGL":4148,"ĠKong":4149,"ĠngÃło":4150,"ĠÆ°a":4151,"Ġlá»©a":4152,"CoV":4153,"ĠlÃ´i":4154,"ĠÄĳáº¯c":4155,"Ġ47":4156,"Ġnhá»Ł":4157,"ĠSá»¹":4158,"ĠSte":4159,"TH":4160,"ien":4161,"ĠAirlines":4162,"ight":4163,"ĠgiÃ¡n":4164,"ĠÃºy":4165,"Ġsá»£i":4166,"ĠMat":4167,"ĠVI":4168,"Ġcontainer":4169,"má»Ļt":4170,"Video":4171,"ĠLáº¡t":4172,"acc":4173,"ĠÄĲá»ĭa":4174,"een":4175,"31":4176,"ĠLáº¡c":4177,"',":4178,"ĠNÆ°á»Ľc":4179,"Ġ800":4180,"na":4181,"ea":4182,"ThÃ¡ng":4183,"ĠÄĳá»ĩ":4184,"Má»Ĺi":4185,"ĠláºŃn":4186,"ĠSao":4187,"BÃłi":4188,"88":4189,"ĠDuyÃªn":4190,"ED":4191,"CH":4192,"ĠPrem":4193,"ĠrÃ¨n":4194,"Ġnáº¥m":4195,"thÃ":4196,"oun":4197,"biz":4198,"Ġ49":4199,"ĠSc":4200,"ĠgÃ£y":4201,"Ġ44":4202,"NÃ³i":4203,"TÃŃnh":4204,"ĠmÄĥng":4205,")-":4206,"Ġlá»Ļn":4207,"ĠCal":4208,"ĠcáºŃy":4209,"Ġrá»±c":4210,"EO":4211,"CCC":4212,"LÃª":4213,"ĠÄĲan":4214,"ĠBang":4215,"ĠMexico":4216,"ĠÄĲáº¡o":4217,"DC":4218,"ĠVKS":4219,"Ġlá»ĳc":4220,"ĠÄĳÃłnh":4221,"BÆ°á»Ľc":4222,"ica":4223,"ĠtrÃ¢u":4224,"Ġxao":4225,"Giáº£i":4226,"CK":4227,"ĠTÃ´n":4228,"Ġlong":4229,"ĠBáº¡c":4230,"Ġ41":4231,"ĠFran":4232,"cow":4233,"ose":4234,"Ġvá»Ł":4235,"ĠcÃºm":4236,"ourinho":4237,"ĠMáº¹":4238,"ĠOn":4239,"let":4240,"ĠVÄĲ":4241,"ĠTrÄĥng":4242,"ĠAf":4243,"ÄĲá»Ļi":4244,"ĠSen":4245,"ĠBS":4246,"ĠÄĳÃª":4247,"Ngá»įc":4248,"ĠÄĳáº§m":4249,"ĠTrÃ¡i":4250,"%)":4251,"ĠSJC":4252,"Ġtá»¥ng":4253,"ĠChá»©ng":4254,"ĠchÃ¡n":4255,"uba":4256,"ĠLáº¡ng":4257,"ĠVTV":4258,"ĠdÆ°a":4259,"Ġim":4260,"Ġcáº¯m":4261,"Ġná»¥":4262,"Ġphun":4263,"39":4264,"Bá»ĩnh":4265,"TÄĲ":4266,"ee":4267,"gentina":4268,"ĠGiá»Ŀ":4269,"ĠSÆ°":4270,"Ġkem":4271,"Ġkhoáº£nh":4272,"ĠThiáº¿t":4273,"ĠnháºŃu":4274,"Ġgáº¡ch":4275,"Ġ51":4276,"ĠtrÆ°á»£t":4277,"Ġong":4278,"ĠTop":4279,"ĠViÃªn":4280,"Ġvá»£t":4281,"DA":4282,"Ġthe":4283,"ĠTuyáº¿t":4284,"ĠBÃ¡i":4285,"ĠtrÃ¡ng":4286,"ĠJu":4287,"ant":4288,"ĠmÃły":4289,"ĠSH":4290,"ĠOs":4291,"%),":4292,"ĠsÆ°u":4293,"Cho":4294,"ĠCa":4295,"ĠdÄ©":4296,"Ġgay":4297,"ĠLá»ĭch":4298,"600":4299,"IS":4300,"»©":4301,"á»©":4302,"ĠcÆ°á»Ľc":4303,"ĠthoÃ¡ng":4304,"Ġmá»Ŀ":4305,"ark":4306,"ĠKhÃª":4307,"Ġhot":4308,"ĠNhÆ°á»¡ng":4309,"ĠtÃŃm":4310,"iá»ģng":4311,"ĠHiá»ĥn":4312,"ĠcÃ³c":4313,"ĠrÃ²ng":4314,"ĠÄĲiá»ĥm":4315,"Ġhá»Ł":4316,"Ġdá»ĭu":4317,"ĠChÆ°a":4318,"Ġ700":4319,"ĠAlex":4320,"ĠToÃ¡n":4321,"berg":4322,"ĠLib":4323,"ĠBen":4324,"Ġbi":4325,"Ġváº¯c":4326,"32":4327,"ĠxÃ´":4328,"ĠÄĳÃ¡y":4329,"65":4330,"ĠtrÃ¢n":4331,"Ġon":4332,"ĠÄĲá»ĵn":4333,"ĠAg":4334,"05":4335,"ĠnÆ°á»Ľng":4336,"ĠÄĳuÃ´i":4337,"ĠNhÃ³m":4338,"ĠÄĳá»©t":4339,"ĠJo":4340,"ĠMTTQ":4341,"ĠUnited":4342,"Ġhoáº¡i":4343,"48":4344,"Ġwebsite":4345,"khá»":4346,"ĠBOT":4347,"ĠMon":4348,"ĠMá»įi":4349,"Ġnáº¿p":4350,"ĠlÆ°á»Ŀng":4351,"pr":4352,"ĠmÃ³ng":4353,"ĠLáºŃp":4354,"ĠAT":4355,"ĠMoscow":4356,"Thá»ĭ":4357,"ĠNÃ³i":4358,"ĠÄĲÃ£":4359,"ĠSon":4360,"ĠLÃł":4361,"ĠChá»£":4362,"ĠAt":4363,"Ġchinh":4364,"ĠKhoáº£ng":4365,"Ġkiá»ģu":4366,"ĠSAR":4367,"PC":4368,"Ġdá»ĩt":4369,"ĠNhá»Ŀ":4370,"Ġvu":4371,"HLV":4372,"ĠThuáº¿":4373,"ĠRáº¥t":4374,"uc":4375,"ĠÄĳá»Ľn":4376,"ĠToy":4377,"ĠDavid":4378,"ĠUS":4379,"49":4380,"ĠMo":4381,"ÄĲoÃłn":4382,"otte":4383,"Ġtráº¯c":4384,"ĠPCCC":4385,"ĠVH":4386,"ĠQuyá»ģn":4387,"Ġbáº©n":4388,"Ġphu":4389,"ĠbÃºt":4390,"ĠnhÃŃ":4391,"ĠPGS":4392,"ĠchÃºa":4393,"Ġcay":4394,"ike":4395,"ĠLiÃªu":4396,"Ġdá»Ł":4397,"phÃ":4398,"ĠCl":4399,"ĠPro":4400,"ĠRá»ĭa":4401,"Ġgá»ĳi":4402,"bum":4403,"ube":4404,"ĠIII":4405,"celona":4406,"Ġhang":4407,"ĠRa":4408,"ĠngÆ¡i":4409,"ĠgÃ£":4410,"ĠPhá»§":4411,"trong":4412,"ĠCÃ¢u":4413,"Ġmá»įc":4414,"Ġtriá»ģu":4415,"ĠViettel":4416,"ĠArgentina":4417,"ĠRom":4418,"eria":4419,"ĠNATO":4420,"gon":4421,"800":4422,"old":4423,"Ġhuyá»ģn":4424,"NhÃ":4425,"ĠBay":4426,"ĠÄĳÃ¹a":4427,"Ġpháº¿":4428,"ĠTw":4429,"ĠthÃ¡p":4430,"ĠKiáº¿m":4431,"accine":4432,"ĠsÆ°Æ¡ng":4433,"ĠMc":4434,"ÄĲÃł":4435,"ĠBal":4436,"ĠTá»ĳi":4437,"ĠCáº¥p":4438,"Ġvoi":4439,"ĠÄĲiá»ģn":4440,"Ġ56":4441,"ĠPháº£i":4442,"Ġsan":4443,"ĠcÃ¡p":4444,"Ġphiáº¿n":4445,".,":4446,"ĠngÃ³n":4447,"ĠHÄĲXX":4448,"ĠFor":4449,"Ġngá»±a":4450,"ĠTiáº¿ng":4451,"ĠPremier":4452,"ĠVy":4453,"ĠEd":4454,"aul":4455,"ĠSÄ©":4456,"ĠCuá»ĳi":4457,"Ġmáº»":4458,"ĠGiÃ¡p":4459,"Tá»ĳi":4460,"Ġphe":4461,"ĠmÃłng":4462,"ÃĤ":4463,"Cáº§n":4464,"ĠHuyá»ĩn":4465,"ternet":4466,"HO":4467,"ĠToyota":4468,"ĠOanh":4469,"combank":4470,"ĠMin":4471,"ĠHÃ´m":4472,"Ġphanh":4473,"Ġsuá»ĳi":4474,"ĠTham":4475,"Báº£o":4476,"ĠMourinho":4477,"Ġ2006":4478,"ĠCuba":4479,"ĠDaily":4480,"ĠkhÃ©p":4481,"ÃĬ":4482,"omp":4483,"ĠÄĲÃ¡ng":4484,"Ġ+":4485,"ae":4486,"ĠsÃ¡p":4487,"lÃŃt":4488,"ĠHol":4489,"85":4490,"ath":4491,"ane":4492,"Ġtrá»Ļi":4493,"Nga":4494,"Ġtáº©y":4495,"ĠItaly":4496,"ĠLÃłm":4497,"roid":4498,"ĠCháº³ng":4499,"QG":4500,"khoáº£ng":4501,"NA":4502,"ĠEr":4503,"Ġlá»¡":4504,"him":4505,"Ġngá»Ļt":4506,"Ġoan":4507,"ĠxÃ´ng":4508,"Ġthá»ķi":4509,"yl":4510,"Quang":4511,"Ġhiáº¿u":4512,"oáº¡n":4513,"Ġchá»Ń":4514,"Ġcháº·ng":4515,"ĠnÃ£":4516,"ĠHIV":4517,"Ġ195":4518,"ĠchÃ¢m":4519,"ĠSáº£n":4520,"Nghá»ĩ":4521,"Ġcai":4522,"Ġrá»Ļn":4523,"ĠlÄĥng":4524,"ÄĲáº§u":4525,"ĠKon":4526,"cm":4527,"Ġ>>":4528,"ĠSe":4529,"Gáº§n":4530,"ĠvÃ³c":4531,"ĠChiá»ģu":4532,"Ġrá»ĥ":4533,"ĠMac":4534,"Æ¯á":4535,"Æ¯á»":4536,"Chia":4537,"Ġvaccine":4538,"»§":4539,"á»§":4540,"Ġ95":4541,"ĠhÃ£i":4542,"ĠlÃ¢n":4543,"Ġcáº¡n":4544,"Ġnháº¯m":4545,"ĠChiáº¿c":4546,"Cáº£":4547,"Ġbá»ĥ":4548,"Ġmen":4549,"ĠLáº¡p":4550,"ĠVen":4551,",âĢ¦":4552,"ĠFDI":4553,"ana":4554,"ive":4555,"Ġinch":4556,"xin":4557,"Ġmanh":4558,"ĠTrÃ¬":4559,"Ġshowbiz":4560,"ĠCÆ°Æ¡ng":4561,"bia":4562,"Ġ2000":4563,"ĠlÄĥn":4564,"Ã©n":4565,"Ġá»ĵn":4566,"ka":4567,"Ġbáº£y":4568,"Lu":4569,"DL":4570,"ies":4571,"Ġ54":4572,"Ġhi":4573,"ĠÄĲÆ¡n":4574,"Cuá»ĳi":4575,"LÃłm":4576,"Ġtháº¯n":4577,"ĠÆ¡i":4578,"Ġxi":4579,"ile":4580,"ĠTháº¥y":4581,"ĠchÄĥng":4582,"Ġ85":4583,"ĠlÆ°á»¡ng":4584,"ĠPer":4585,"ĠSun":4586,"ĠKháº¯c":4587,"ĠSch":4588,"ĠgiÃłn":4589,"ĠÄĳá»įng":4590,"ghan":4591,"Ġnháº¡t":4592,"ĠBáº¥t":4593,"ĠBer":4594,"ael":4595,"ĠBá»ī":4596,"arl":4597,"77":4598,"SG":4599,"ĠNhu":4600,"Ġkiá»ģm":4601,"Ġngá»±":4602,"ĠPak":4603,"06":4604,"ĠChr":4605,"ĠBarcelona":4606,"ĠsÃ©t":4607,"Ġtháº§m":4608,"ĠcÃłi":4609,"%).":4610,"Ġbáº¯p":4611,"eh":4612,"IM":4613,"NhÃ³m":4614,"ĠVÄĲV":4615,"Phá»":4616,"08":4617,"ĠlÅ©y":4618,"ĠArab":4619,"ĠngÃ¢m":4620,"700":4621,"Ġinternet":4622,"ĠTrÆ°ng":4623,"ko":4624,",...":4625,"ĠchÃ´n":4626,"ghanistan":4627,"Ġchanh":4628,"ĠTM":4629,"Ġchuá»ĳi":4630,"98":4631,"EU":4632,"Ġ64":4633,"ĠKá»¹":4634,"Ġká»ģ":4635,"ĠAndroid":4636,"ĠdÃ¡n":4637,"ĠCTCP":4638,"ĠchÃ¨":4639,"Ġmáº¯m":4640,"oc":4641,"ĠgÅ©i":4642,"ĠmÃ²":4643,"ounce":4644,"ÄĲá»©c":4645,"ler":4646,"xy":4647,"itter":4648,"ĠÃĶ":4649,"pe":4650,"Ġghen":4651,"Ġthá»į":4652,"ĠXe":4653,"Ġtháº¥u":4654,"ĠchÃª":4655,"ĠQuáºŃn":4656,"ĠTráº¡m":4657,"¥n":4658,"ney":4659,"ĠhoÃłnh":4660,"Ġgá»¥c":4661,"ĠTimes":4662,"ĠSARS":4663,"ĠSal":4664,"ĠTV":4665,"Ġchá»Ńi":4666,"PP":4667,"LÃ£nh":4668,"ĠxÃ´n":4669,"»Ĺ":4670,"á»Ĺ":4671,"ĠTre":4672,"Net":4673,"ĠNhÃ£":4674,"ÄĲá»ģ":4675,"ĠCá»Ńu":4676,"ano":4677,"ĠVá»ĭnh":4678,"ĠAfghanistan":4679,"ĠVan":4680,"Ġphiá»ģn":4681,"ĠBá»ĭ":4682,"ChÆ°Æ¡ng":4683,"02":4684,"ĠkhÃ¡nh":4685,"Ġkhe":4686,"Ġdá»«a":4687,"Ġbá»Ļi":4688,"ĠQuyÃªn":4689,"Ġá»ĳm":4690,"ĠxÆ¡":4691,"oft":4692,"ĠCá»Ńa":4693,"ĠLáº§n":4694,"Ġná»ĵi":4695,"Ġváº¡n":4696,"Ġchuá»Ļng":4697,"ĠÄĳÃ²n":4698,"Ġcá»ĵn":4699,"áº»o":4700,"ĠThay":4701,"ĠToky":4702,"ĠMÃ´n":4703,"Ġ52":4704,"Ġkhoai":4705,"ĠhÃ¡i":4706,"Ġsex":4707,"ĠquÃ£ng":4708,"ĠVÃŃ":4709,"ĠQuáº¿":4710,"Ġthoáº£ng":4711,"68":4712,"ĠBÃ¡ch":4713,"Ġdá»ĳi":4714,"ĠBÄĥng":4715,"bao":4716,"Æł":4717,"gh":4718,"ĠTokyo":4719,"chester":4720,"DN":4721,"44":4722,"Ġ63":4723,"oll":4724,"Tiá»ģn":4725,"Táº¥t":4726,"Ġ02":4727,"ÄĲiá»ĥm":4728,"ĠxÃł":4729,"ĠxÆ°ng":4730,"ĠlÃ¹ng":4731,"Khá»":4732,"ĠVal":4733,"ĠKhang":4734,"Nhá»":4735,"ĠNhÃ¬n":4736,"ĠMic":4737,"67":4738,"Ġ58":4739,"Ġláº·n":4740,"ĠgÃ¡c":4741,"ĠTum":4742,"ĠCÄĲV":4743,"Tráº§n":4744,"ĠdÅ©ng":4745,"Ġá»Ľt":4746,"ĠTráº¡ch":4747,"ĠNG":4748,"ĠÄĲá»ĳng":4749,"ĠMark":4750,"ives":4751,"ĠtÃª":4752,"tre":4753,"Ġ2005":4754,"HS":4755,"Ġhiá»ģn":4756,"Ġ57":4757,"ĠEVN":4758,"Ġná»©t":4759,"NhÃ¬n":4760,"ĠÃło":4761,"Há»ĵ":4762,"TÃłu":4763,"ĠMÆ°á»Ŀng":4764,"Ġháº¡m":4765,"ens":4766,"ĠHD":4767,"ĠKy":4768,"ĠSá»©c":4769,"ĠMá»©c":4770,"ĠEn":4771,"ĠLHQ":4772,"ĠBank":4773,"ĠMiss":4774,"ÄĲÃ£":4775,"ĠthÆ°a":4776,"ToÃłn":4777,"ĠCá»©":4778,"DÃ¢n":4779,"ĠbÃłng":4780,"ĠSÃ¡u":4781,"ĠUyÃªn":4782,"ĠGáº§n":4783,"Ġao":4784,"ĠCor":4785,"Ba":4786,"ĠVP":4787,"»«ng":4788,"á»«ng":4789,"Tráº£":4790,"bur":4791,"Ġalbum":4792,"ĠKháº£i":4793,"ĠKhanh":4794,"ĠÄĳuá»ĳi":4795,"2008":4796,"ĠÄĳá»¥ng":4797,"Ġcua":4798,"ĠViáº¿t":4799,"ĠThÃŃ":4800,"ĠcÃ´n":4801,"Ġkiá»ĩt":4802,"ĠnghiÃªng":4803,"ĠMob":4804,"ĠxÃ¡":4805,"ĠTwitter":4806,"ĠNguyá»ĩt":4807,"ari":4808,"ĠVND":4809,"NE":4810,"ĠÃ´n":4811,"ĠEuro":4812,"Ġlá»Ļi":4813,"ĠngÃ´":4814,"ĠÄĳÃºc":4815,"Ġmm":4816,"olf":4817,"Ġngoan":4818,"ĠkhoÄĥn":4819,"TTg":4820,"ĠnÃ´n":4821,"rl":4822,"Ġ98":4823,"ĠId":4824,"ĠPakistan":4825,"Há»į":4826,"Ġláº¯c":4827,"ÃĶ":4828,"ĠKÃ´ng":4829,"Ġonline":4830,"tÆ°Æ¡ng":4831,"ĠBTC":4832,"ĠbuÃ´ng":4833,"09":4834,"vent":4835,"ti":4836,"Ġtháº¥m":4837,"ĠquÃ¡i":4838,"ĠchÃ©p":4839,"ĠDiá»ĩu":4840,"ĠhoÃłi":4841,"tá»ķng":4842,"ĠvÃłnh":4843,"á»ĭt":4844,"Hu":4845,"Ġráº¡p":4846,"ĠKá»·":4847,"07":4848,"PA":4849,"ĠJack":4850,"ish":4851,"ĠlÃµi":4852,"me":4853,"':":4854,"Báº£n":4855,"ĠHTX":4856,"Ġáº¢":4857,"ĠVic":4858,"ve":4859,"Ġráº½":4860,"Ġtháº¯c":4861,"Ġmá»Ļng":4862,"¹m":4863,"ĠTriá»ĥn":4864,"rosoft":4865,"ics":4866,"etty":4867,"iden":4868,"ink":4869,"Ġrá»ī":4870,"LÃ½":4871,"ĠViá»ħn":4872,"Ġdáº£i":4873,"ĠÄĳoan":4874,"HN":4875,"ĠbÃ¡ch":4876,"ĠHam":4877,"Ġtuyáº¿t":4878,"Ġ67":4879,"ĠháºŃn":4880,"Ġbáº¥m":4881,"ĠCB":4882,"ĠNiÃªn":4883,"Ġdáº¡o":4884,"ĠTR":4885,"ĠQH":4886,"ena":4887,"tá»īnh":4888,"ĠUB":4889,"are":4890,"ĠMor":4891,"ĠxÃŃch":4892,"ĠnhÃ¬":4893,"ĠXin":4894,"ĠHÃ£ng":4895,"Ġ2030":4896,"ura":4897,"ĠbÄĥn":4898,"Ġgas":4899,"Ġcáº¯n":4900,"Ġ53":4901,"ull":4902,"ChÆ°a":4903,"66":4904,"ĠhÆ°á»Ľc":4905,"Ġtáº§n":4906,"GB":4907,"Ġdáº¡i":4908,"....":4909,"Ġcá»ĳc":4910,"ÄĲÃ¡ng":4911,"Ġhoáº¡n":4912,"ovic":4913,"ĠMod":4914,"ĠDiá»ħm":4915,"ĠÄĳáº¯n":4916,"ford":4917,"ĠHNX":4918,"ĠrÃ¡p":4919,"ĠXIII":4920,"»ı":4921,"á»ı":4922,"ĠKhai":4923,"ĠphÆ¡i":4924,"Ġnho":4925,"Ġcá»Łi":4926,"BÃ¡c":4927,"ĠHe":4928,"erry":4929,"Báº¯t":4930,"che":4931,"ĠKiá»ĩt":4932,"ĠHuÃ¢n":4933,"Chiáº¿n":4934,"uz":4935,"43":4936,"ĠHCV":4937,"ĠKCN":4938,"Ġbá»Ļc":4939,"Ġ72":4940,"ĠnhÃ¡t":4941,"ĠGl":4942,"ĠGroup":4943,"Ġcong":4944,"»µ":4945,"á»µ":4946,"ĠVlad":4947,"ÄĤ":4948,"TCK":4949,"ĠNÃªn":4950,"03":4951,"ĠcháºŃt":4952,"ĠOnline":4953,"HÃłnh":4954,"Ġsoi":4955,"Há»įc":4956,"outh":4957,"Tá»ķ":4958,"ĠMá»¥c":4959,"ĠSaudi":4960,"ĠsÃºc":4961,"ond":4962,"Ġvá»Ľt":4963,"nham":4964,"fi":4965,"Ġhiá»ĥn":4966,"tu":4967,"ĠThÃ¢n":4968,"ĠkhÃ´n":4969,"ĠÄĳáº±ng":4970,"ĠvÃ£":4971,"Ġtá»ĵi":4972,"arao":4973,"Ġ1990":4974,"CO":4975,"itco":4976,"ĠthÃ¡nh":4977,"Ġhá»ĳ":4978,"ron":4979,"Ġman":4980,"TáºŃp":4981,"ĠVTC":4982,"Ġloa":4983,"IDV":4984,"Ġ09":4985,"ĠMas":4986,"Ġ68":4987,"CA":4988,"ĠRá»ĵi":4989,"ĠÄĳiÃªn":4990,"eth":4991,"ĠÃĲ":4992,"etro":4993,"¨ng":4994,"ĠcÃºp":4995,"ĠPlus":4996,"Ġnháº·t":4997,"ner":4998,"ĠManchester":4999,"Lá»ħ":5000,"iu":5001,"ĠtÃºng":5002,"BP":5003,"CÃ¢u":5004,"Ġtrá»ħ":5005,"Ġmá»¥n":5006,"ĠKhá»ĳi":5007,"ĠngÆ°ng":5008,"ĠlÆ°á»¡i":5009,"ĠmÃ¡":5010,"Ġtá»±a":5011,"ĠBáº£y":5012,"Ġgiáº¿":5013,"ĠAngel":5014,"ĠVáº¡n":5015,"Ġvá»ĭt":5016,"ĠXuáº¥t":5017,"42":5018,"Trang":5019,"ĠSN":5020,"Tham":5021,"ĠWal":5022,"Ġná»Ľi":5023,"Ãªnh":5024,"ĠBá»ĳ":5025,"ĠlÃ¡t":5026,"TÄĥng":5027,"ĠlÃ¡ng":5028,"Ġrung":5029,"ĠZing":5030,"ĠMilan":5031,"ĠAPEC":5032,"wood":5033,"áº¾":5034,"ĠHáº§u":5035,"Ġ99":5036,"ala":5037,"Ġnáº¡p":5038,"err":5039,"ĠCNTT":5040,"ide":5041,"Ġtour":5042,"VTC":5043,"MW":5044,"ova":5045,"Ġrao":5046,"ĠAFF":5047,"ĠClin":5048,"âĢĿ-":5049,"onet":5050,"tá»©c":5051,"Ġbar":5052,"phÆ°á»Ŀng":5053,"52":5054,"ĠÄĳáº¯ng":5055,"BÃŃ":5056,"indow":5057,"Ġngáº¥t":5058,"ĠTá»·":5059,"Ġdáº¹p":5060,"ĠTuáº§n":5061,"Ġ110":5062,"ottenham":5063,"ĠPhÃŃa":5064,"¹i":5065,"ĠHO":5066,"ĠHÃ¢n":5067,"Ġtáº·c":5068,"iga":5069,"ĠTÆ°Æ¡ng":5070,"ĠLibya":5071,"LuáºŃt":5072,"ĠAN":5073,"Ġsáº¡c":5074,"KH":5075,"Ġ62":5076,"Ġthá»ĭnh":5077,"Ġcháº£":5078,"ĠVá»ĭ":5079,"The":5080,"ĠDÆ°á»£c":5081,"Ġráº¯c":5082,"Thay":5083,"ĠTrÃºc":5084,"41":5085,"ĠmÃŃa":5086,"oz":5087,"ilk":5088,"tt":5089,"Ġsá»¥p":5090,"Ġcuá»ĵng":5091,"ĠxÃ³t":5092,"Ġngu":5093,"ĠKhÃ¡ch":5094,"car":5095,"ĠFPT":5096,"ĠÄĳáº¡m":5097,"edia":5098,"uela":5099,"mer":5100,"Ġ59":5101,"ĠhÃł":5102,"ĠYou":5103,"ĠtÃ¡ng":5104,"ĠNÄĥng":5105,"Ġranh":5106,"ĠXanh":5107,"que":5108,"Ġkhuy":5109,"ĠthiÃªng":5110,"ĠBus":5111,"ĠluÃ¢n":5112,"Ġchip":5113,"ĠChuyÃªn":5114,"ade":5115,"Ġrá»Ļ":5116,"ĠhÃ²n":5117,"imir":5118,"ĠTháº§n":5119,"ĠBlack":5120,"ith":5121,"Quá»ĳc":5122,"ĠCung":5123,"araoke":5124,"?âĢĿ.":5125,"ĠPH":5126,"ĠThÃªm":5127,"ĠChinh":5128,"HÃ£ng":5129,"Chi":5130,"Pháº¡m":5131,"ĠQuÃ¡":5132,"khá»§ng":5133,"ĠHay":5134,"ĠGiá»Ľi":5135,"Ġtháº±ng":5136,"CÄĥn":5137,"ĠMicrosoft":5138,"ĠÄĲÃłn":5139,"ww":5140,"Cá»¥c":5141,"ĠmÃ¨o":5142,"ĠATGT":5143,"Ġdá»ĵi":5144,"NgÃ¢n":5145,"andal":5146,"ezuela":5147,"ny":5148,"oney":5149,"Ġrá»ĵng":5150,"ĠPa":5151,"ĠLá»¥c":5152,"ĠTiÃªu":5153,"ĠthiÃªu":5154,"ĠtÃ¹ng":5155,"ÄĲÆ°á»Ŀng":5156,"Ġax":5157,"NLÄĲ":5158,"sh":5159,"Ġtáº¡ng":5160,"ĠGeo":5161,"ĠlÃ©o":5162,"ĠmÃ²n":5163,"cá»ķ":5164,"ĠJe":5165,"Ġthá»ģm":5166,"ial":5167,"ĠnghÃªnh":5168,"Diá»ħn":5169,"PhÃŃa":5170,"ata":5171,"ĠGiÃ¡ng":5172,"GiÃ¡m":5173,"ĠUA":5174,"Ġvá»©t":5175,"ĠKhÆ°Æ¡ng":5176,"ĠtrÄĥng":5177,"ĠÄĳá»ĳng":5178,"Ġkáº¹o":5179,"Ġpr":5180,"Ġláº·p":5181,"ĠlÆ¡":5182,"mua":5183,"ĠdÃ£y":5184,"Ġthá»§ng":5185,"Ġviáº¿ng":5186,"press":5187,"ĠXI":5188,"ĠAS":5189,"Ġtá»ĳng":5190,"Ca":5191,"Æ¯T":5192,"ĠGÃ²":5193,"Ġtháº¡ch":5194,"MÃ¡y":5195,"Ġnhá»įn":5196,"ĠChÃº":5197,"ĠVladimir":5198,"ĠHÃ¡n":5199,"atar":5200,"ock":5201,"ĠTÃ¡m":5202,"Ġeo":5203,"ĠCáºŃn":5204,"ĠQuÃ¡n":5205,"Ġ2025":5206,"wei":5207,"AP":5208,"Æ°Æ¡m":5209,"Ġgiá»įt":5210,"iano":5211,"Ġham":5212,"ania":5213,"ĠTuá»ķi":5214,"ĠHÆ°á»Ľng":5215,"ĠSiÃªu":5216,"lÃłm":5217,"ĠÄĳáº¡c":5218,"ĠGetty":5219,"Ġbuá»ĵng":5220,"Chuyá»ĩn":5221,"ĠClinton":5222,"ĠkhÃ¡i":5223,"LC":5224,"ĠTráº¥n":5225,"ĠBayern":5226,"Kim":5227,"SCL":5228,"ĠFC":5229,"ĠTráº»":5230,"ĠHua":5231,"indows":5232,"HÃ£y":5233,"ĠbÃ¹n":5234,"ĠCEO":5235,"Ġcá»įc":5236,"Ġde":5237,"oto":5238,"----":5239,"ĠWill":5240,"Ġmá»ĵi":5241,"ĠVáº¥n":5242,"Quan":5243,"04":5244,"enz":5245,"VÅ©":5246,"Ġtá»ıi":5247,"Ġngá»¡":5248,"dar":5249,"áºł":5250,"69":5251,"abe":5252,"ĠVKSND":5253,"ĠkÃ©p":5254,"Ġbá»ĵn":5255,"illa":5256,"DÆ°á»Ľi":5257,"iforn":5258,"ĠSeoul":5259,"Ġson":5260,"GÄĲ":5261,"Vá»£":5262,"Ġhá»įng":5263,"ifornia":5264,"lu":5265,"ews":5266,"Ġkhá»ĳc":5267,"Ġ05":5268,"thuá»Ļc":5269,"ĠCT":5270,"ĠHan":5271,"ĠInf":5272,"KhÃ¡nh":5273,"ĠTháºŃt":5274,"ĠxÃŃ":5275,"ĠMTV":5276,"ĠBÆ°á»Ľc":5277,"Ġvá»ĭnh":5278,"ĠnhÆ°á»Ŀng":5279,"ĠIr":5280,"ĠVenezuela":5281,"ced":5282,"ĠCÄĥn":5283,"Ġvá»įt":5284,"Ġ2004":5285,"ĠGa":5286,"ĠSport":5287,"ational":5288,"ĠmÃ¹ng":5289,"900":5290,"Ġsen":5291,"Ġkhoang":5292,"'s":5293,"ĠSV":5294,"ĠFord":5295,"Ġ61":5296,"Ġbáº¥y":5297,"ĠghÃ©":5298,"ĠsÆ°á»Ľng":5299,"ĠItalia":5300,"ts":5301,"ĠBlo":5302,"Ġmá»Ļc":5303,"Ã©c":5304,"Vá»«a":5305,"ure":5306,"ĠThá»©c":5307,"Ġgiá»ģng":5308,"Nhiá»ĩt":5309,"ĠCap":5310,"57":5311,"RiÃªng":5312,"ANTÄĲ":5313,"TÃłi":5314,"Máº¹":5315,"Ġkhiáº¿p":5316,"Há»ĩ":5317,"MC":5318,"Ġgiáº¿ng":5319,"Ġkáº½":5320,"áº·m":5321,"Ġsc":5322,"nik":5323,"Kho":5324,"Ġmi":5325,"ĠTuyáº¿n":5326,"ĠhÃłn":5327,"ĠxÄĥm":5328,"tÄĥng":5329,"Å©a":5330,"Ká»ĥ":5331,"Ġsiáº¿t":5332,"Ġchay":5333,"ĠxÃ¡t":5334,"ĠxÃ´i":5335,"ĠDel":5336,"Báº¥t":5337,"ĠLÄĥng":5338,"ĠVGP":5339,"ĠÄĳÃ¨":5340,"iam":5341,"ach":5342,"Pad":5343,"ĠTottenham":5344,"ĠFed":5345,"ĠIV":5346,"ĠkÄ©":5347,"Ġkhá»Ń":5348,"Ġ2003":5349,"ĠtÃ³m":5350,"Song":5351,"Ġ78":5352,"Ġkaraoke":5353,"ĠtÆ°á»Ľc":5354,"ĠMÃ¡y":5355,"Doanh":5356,"ĠCalifornia":5357,"Tiáº¿n":5358,"ĠLÄĲLÄĲ":5359,"Ġcm":5360,"Ġfacebook":5361,"ĠWindows":5362,"Ráº¥t":5363,"Ġ130":5364,"Há":5365,"Há»":5366,"arb":5367,"Ngh":5368,"Ġdá»Ĺ":5369,"63":5370,"Ġváº·t":5371,"¨m":5372,"Ġgiang":5373,"Ġa":5374,"Ġoxy":5375,"Ġtre":5376,"PhÃ²ng":5377,"ĠKhÃŃ":5378,"ĠMÃ´ng":5379,"QuÃ¡":5380,"ĠBiden":5381,"ĠFI":5382,"ĠBIDV":5383,"ĠPan":5384,"ake":5385,"97":5386,"ealand":5387,"Pháº§n":5388,"ĠnÆ°Æ¡ng":5389,"ĠSup":5390,"Ġnghiá»ĩt":5391,"Láº§n":5392,"ĠDiá»ĩp":5393,"ins":5394,"ĠvuÃ´ng":5395,"ĠTáº¡":5396,"ĠMichael":5397,"ĠCNN":5398,"alo":5399,"akh":5400,"Ġngáº§n":5401,"itcoin":5402,"Cáº§u":5403,"ĠvÃº":5404,"Há»ĵng":5405,"92":5406,"ĠNháºŃn":5407,"ĠVá»«a":5408,"ĠMá»Ļc":5409,"Há»ĵi":5410,"Ġlui":5411,"Ġ03":5412,"ĠJames":5413,"over":5414,"yd":5415,"ÄĲÃ¡nh":5416,"Ġnhiáº¿p":5417,"ĠSÃ¢n":5418,"Ġemail":5419,"ĠBi":5420,"thÃ¹ng":5421,"!!":5422,"TÃ¢y":5423,"ventus":5424,"Ġgáº§m":5425,"BN":5426,"Má»įi":5427,"Ġst":5428,"ĠZealand":5429,"ĠLuÃ¢n":5430,"ĠOr":5431,"ĠKá»ĥ":5432,"ĠtrÄĥn":5433,"we":5434,"Ġngá»įc":5435,"ĠCAND":5436,"Máº·t":5437,"Ġ66":5438,"ĠTp":5439,"TW":5440,"Ġháº¡ch":5441,"bo":5442,"Ġ1992":5443,"ĠÄĳáº¿m":5444,"ĠNT":5445,"Ġlau":5446,"ĠkhiÃªu":5447,"ĠMÆ°á»Ŀi":5448,"ĠSai":5449,"phu":5450,"cÃ´ng":5451,"ĠBÃłn":5452,"TÆ°Æ¡ng":5453,"chÃ":5454,"ĠÄĲi":5455,"ĠTrá»Ŀi":5456,"ĠGre":5457,"Ġrá»ĩt":5458,"ĠrÃ¡o":5459,"Ġlives":5460,"Ġváº¡ch":5461,"ĠGuard":5462,"ĠHÃłm":5463,"ĠcháºŃu":5464,"Ġ04":5465,"Ġgirl":5466,"Ġand":5467,"Ġ180":5468,"ĠVina":5469,"ĠtÃ²":5470,"ĠtÆ°á»Ľi":5471,"Ġdáº·n":5472,"Ġnghá»ĭch":5473,"ĠnÃ©n":5474,"ĠWe":5475,"NÆ°á»Ľc":5476,"ĠÄĳÃ´n":5477,"ĠRam":5478,"ĠbÆ°á»Łi":5479,"ĠTal":5480,"ĠKur":5481,"ĠVietin":5482,",âĢĿ":5483,"Giá»Ľi":5484,"Ġxen":5485,"NQ":5486,"by":5487,"INH":5488,"Ġ350":5489,"Quy":5490,"ĠVÃ¹ng":5491,"Ġbá»ĵ":5492,"aco":5493,"ĠcÃ²i":5494,"Ġdáº¡n":5495,"ĠÃª":5496,"54":5497,"Ġ88":5498,"Ġvan":5499,"Ġkhuáº¥t":5500,"ĠquÃ¡t":5501,"ĠNLÄĲ":5502,"ward":5503,"AD":5504,"ĠTri":5505,"Clip":5506,"ĠcÃłnh":5507,"ĠNV":5508,"ĠvÆ°á»£ng":5509,"ĠTay":5510,"ĠBÄĲBP":5511,"ĠKhuÃª":5512,"ĠBol":5513,"ER":5514,"cedes":5515,"Ġngáº·t":5516,"ĠVictor":5517,"ĠGP":5518,"ĠRos":5519,"ibank":5520,"sa":5521,"Ġbáº«y":5522,"Ġ92":5523,"port":5524,"ÃĬN":5525,"ĠChÃ¢n":5526,"ĠnÃ¢u":5527,"ĠQuáº£":5528,"ĠmÆ°á»Ŀi":5529,"rol":5530,"ĠchÃ©o":5531,"td":5532,"ĠHuawei":5533,"ĠÄĲáº£o":5534,"SA":5535,"ĠMÃ¹a":5536,"ĠÄĲÃªm":5537,"ĠKhoáº£n":5538,"ĠMus":5539,"ĠPhiÃªn":5540,"ĠMu":5541,"Ľc":5542,"ĠÃģo":5543,"ĠGeor":5544,"ĠÄĲBSCL":5545,"ĠTom":5546,"ĠthÃ¡m":5547,"ja":5548,"VáºŃy":5549,"Ġ900":5550,"ĠGen":5551,"ĠVá»£":5552,"ĠVietcombank":5553,"ĠGrab":5554,"ĠTel":5555,"app":5556,"Ġ/":5557,"ĠthÃ¬a":5558,"ĠChuyá»ĩn":5559,"ĠHolly":5560,"ĠNo":5561,"hÃ³a":5562,"72":5563,"Ġtháº¯p":5564,"acom":5565,"TÃ¢n":5566,"Ġneo":5567,"58":5568,"ĠdÃ©p":5569,"ĠPhÃ¹":5570,"ĠCháº¥t":5571,"ĠkÃŃp":5572,"âĢĿ;":5573,"ĠNghe":5574,"!âĢĿ.":5575,"ĠSá»Ń":5576,"HÃłn":5577,"Ġj":5578,"Ġaxit":5579,"yan":5580,"ĠMail":5581,"ĠlÃ³t":5582,"ates":5583,"ON":5584,"Thiáº¿u":5585,"ĠTrÃ¢m":5586,"ĠMÃł":5587,"78":5588,"cho":5589,"ĠSL":5590,"ĠNÄĲT":5591,"XuÃ¢n":5592,"ĠBuÃ´n":5593,"Ġáº¿":5594,"ĠLÆ°á»£ng":5595,"Ġ69":5596,"eing":5597,"ÄĲÃªm":5598,"eld":5599,"ĠBarack":5600,"kok":5601,"ĠATM":5602,"atch":5603,"tá»±":5604,"ĠMun":5605,"ĠÄĳá»ĩm":5606,"ĠrÃ²":5607,"ĠMÃ¬nh":5608,"____":5609,"estine":5610,"Ġlá»Ļc":5611,"ĠmÃ¢m":5612,"ĠTQ":5613,"ali":5614,"62":5615,"ĠlÃª":5616,"ĠÄĳÃŃnh":5617,"ĠDÆ°á»Ľi":5618,"ĠJose":5619,"ĠSG":5620,"men":5621,"âĢĵ":5622,"any":5623,"ĠBÃ³ng":5624,"Ġmá»ĭn":5625,"ĠPhá»ķ":5626,"ĠSol":5627,"ĠÄĲBQH":5628,"ĠbÃ³p":5629,"wn":5630,"ĠCas":5631,"áº»m":5632,"ors":5633,"QuÃ¢n":5634,"ĠMÃª":5635,"Tu":5636,"ĠvÄĥng":5637,"ĠInst":5638,"ren":5639,"ĠWest":5640,"ĠÄĲá»Ŀi":5641,"ThÆ°Æ¡ng":5642,"Tuá»ķi":5643,"ĠArabia":5644,"ĠSl":5645,"Iá":5646,"Iá»":5647,"ĠÃĤm":5648,"Ġlá»Ļt":5649,"//":5650,"ĠTá»©":5651,"ĠGT":5652,"ĠSw":5653,"ĠÄĲÃºng":5654,"hop":5655,"ĠBig":5656,"ĠLÄ©nh":5657,"ĠAc":5658,"Ġkhao":5659,"obot":5660,"ÄĲi":5661,"ĠnÃłn":5662,"Ká»³":5663,"ĠNgÃ´i":5664,"ĠCá»§":5665,"li":5666,"top":5667,"Ġmá»ī":5668,"Vá»ĭ":5669,"Äĳáº¡i":5670,"att":5671,"NgÃ´i":5672,"aza":5673,"otein":5674,"ĠmÃ¡c":5675,"ĠÄĲá»«ng":5676,"Pháº£i":5677,"ĠÄĳÅ©a":5678,"TráºŃn":5679,"ji":5680,"Ġradar":5681,"ĠShi":5682,"ĠÄĳáº·n":5683,"ĠVn":5684,"agram":5685,"its":5686,"NamNet":5687,"ĠJon":5688,"ĠSil":5689,"ĠsÆ°á»Ŀn":5690,"ĠBÃ©":5691,"ÄĳÃ£":5692,"ĠHill":5693,"ĠAss":5694,"Ġhao":5695,"náº¿u":5696,"okia":5697,"Ġ77":5698,"ĠÄĳiÃªu":5699,"ĠbÆ°u":5700,"ĠAv":5701,"Ġká»ī":5702,"ĠhÃ©t":5703,"ps":5704,"trÃ¡i":5705,"log":5706,"ĠmÃ¬n":5707,"Ġná»ĳt":5708,"ĠHÃło":5709,"Ġxáº»":5710,"TNO":5711,"ĠJuventus":5712,"Ġnhá»©c":5713,"ThÃŃ":5714,"ĠPhá»ĳ":5715,"Ġchui":5716,"ĠPalestine":5717,"Ná»Ļi":5718,"ĠTech":5719,"Huáº¿":5720,"ĠchuÃ´ng":5721,"ĠVá»ĩ":5722,"ĠVáºŃt":5723,"ĠtÃ¡m":5724,"mi":5725,"oC":5726,"ĠáºŃp":5727,"SCO":5728,"ings":5729,"enc":5730,"Ġquá»µ":5731,"://":5732,"Ġ1982":5733,"bÃ¡n":5734,"Ġscandal":5735,"ĠLáº¡i":5736,"ĠGrand":5737,"Ġtá»¥t":5738,"Ġgiáº·t":5739,"TO":5740,"Ġno":5741,"ĠÄĲá»ı":5742,"Quyáº¿t":5743,"Ġ71":5744,"Ġquáº§y":5745,"ChuyÃªn":5746,"chÆ°a":5747,"ĠGo":5748,"64":5749,"undai":5750,"ĠquyÃªn":5751,"Ġthá»Ńa":5752,"ĠND":5753,"Ġ1995":5754,"Ġáº¡":5755,"ĠPaul":5756,"way":5757,"bi":5758,"ĠThÃ¡nh":5759,"ĠMB":5760,"ĠiPad":5761,"ĠACB":5762,"ĠSouth":5763,"Tháº¥y":5764,"ĠFIFA":5765,"Ġlá»ĳp":5766,"ĠCTCK":5767,"ĠTNGT":5768,"ĠTTCK":5769,"ĠMáº¡ch":5770,"Ġnáº¯p":5771,"ĠÄĳÃ¹i":5772,"MB":5773,"sá»ĳ":5774,"PhiÃªn":5775,"»¦y":5776,"á»¦y":5777,"Sao":5778,"Äĳá":5779,"Äĳá»":5780,"Äĥk":5781,"ĠvÄ©nh":5782,"SI":5783,"ĠChan":5784,"ĠbÃ¡u":5785,"ĠThan":5786,"OC":5787,"UYá":5788,"UYá»":5789,"Ġthá»ĳi":5790,"ĠCATP":5791,"ony":5792,"ĠBangkok":5793,"ĠghÃ©t":5794,"ĠÄĳáº¯m":5795,"Ġchuá»ĵng":5796,"2007":5797,"ĠnÃ²ng":5798,"burg":5799,"ĠchÃ¬a":5800,"ĠtrÃ¡n":5801,"59":5802,"ĠBÃ¢y":5803,"ĠxÃ¬":5804,"Danh":5805,"ĠBÆ°u":5806,"ĠdÃło":5807,"Mai":5808,"IN":5809,"ĠCÃºp":5810,"ĠbÃ³c":5811,"ĠÄĳÃ¨o":5812,"ĠXK":5813,"HC":5814,"ment":5815,"ĠtrÃłng":5816,"įi":5817,"Ġnan":5818,"ĠkhiÃªm":5819,"ĠHollywood":5820,"BÄĲ":5821,"Báº¯c":5822,"ĠdÆ°ng":5823,"ĠVNPT":5824,"iev":5825,"Cá»±u":5826,"Ġnáº¡":5827,"ĠBel":5828,"ital":5829,"aya":5830,"ĠbÃ´i":5831,"QL":5832,"Ġ1993":5833,"ĠâĢ¦":5834,"ĠÃºt":5835,"Ġcáº¥y":5836,"Ġ79":5837,"âĢ¢":5838,"ĠRod":5839,"ĠhÃŃ":5840,"Ġ73":5841,"use":5842,"ander":5843,"ĠCá»ĳ":5844,"Ar":5845,"Ġ2002":5846,"ĠxÃ¡m":5847,"ĠMáº«u":5848,"ĠÄĲáº¯c":5849,"ĠÃĤn":5850,"Ġ08":5851,"fe":5852,"ĠEs":5853,"Ġ76":5854,"amilk":5855,"ĠMercedes":5856,"ĠQatar":5857,"Ai":5858,"ĠlÃ¡nh":5859,"eymar":5860,"ĠxuÃ´i":5861,"Ġ86":5862,"ThiÃªn":5863,"Chinh":5864,"ĠBoeing":5865,"Ġtáº©u":5866,"Ġrong":5867,"ĠsÆ°ng":5868,"Ġ81":5869,"ĠLo":5870,"erg":5871,"áº¿m":5872,"Ġkhuya":5873,"ĠbÆ¡":5874,"ĠtrÆ¡n":5875,"Ġváº¥p":5876,"ĠPhim":5877,"ĠNSÆ¯T":5878,"enko":5879,"ĠKm":5880,"ĠTÃ¡o":5881,"ĠthÃ¨m":5882,"táº¥n":5883,"Ġcáº©u":5884,"Ġnuá»ĳi":5885,"ĠcÆ°ng":5886,"ĠBur":5887,"¥a":5888,"ĠÄĳiá»ģn":5889,"FTA":5890,"Ġluá»Ļc":5891,"ĠKar":5892,"ĠLÃ²":5893,"NS":5894,"ĠCÃ¡":5895,"ĠPhÃ³ng":5896,"ĠxoÃ¡y":5897,"Xuáº¥t":5898,"ĠxÃło":5899,"uss":5900,"ĠNÃºi":5901,"ĠVÄ©":5902,"ene":5903,"my":5904,"ĠvÃ¢n":5905,"ĠhÃ©":5906,"ĠquáºŃt":5907,"ĠPhá»¥ng":5908,"ĠphÃ¬":5909,"Ġtáº¡":5910,"ĠÆ°á»Ľt":5911,"ĠNgÃłnh":5912,"ect":5913,"Nghá»ĭ":5914,"Ġ74":5915,"ĠMot":5916,"Ġchá»ĳn":5917,"ĠKhÃ´i":5918,"ĠÄĲÃ´i":5919,"ĠcÃ¡m":5920,"Ġgá»«ng":5921,"stan":5922,"ĠchiÃªn":5923,"ĠWar":5924,"eon":5925,"ĠVÆ°á»£ng":5926,"Æ¯á»Ľc":5927,"Ġxoáº¯n":5928,"ĠMiá»ģn":5929,"Ġháº»m":5930,"zo":5931,"Ġprotein":5932,"ĠShin":5933,"ear":5934,"Sinh":5935,"ĠchÃ¡o":5936,"Ġhá»ĳt":5937,"ĠtÃ¡t":5938,"Ġnhá»¥c":5939,"Ġ83":5940,"ĠKhá»Łi":5941,"uel":5942,"ĠBMW":5943,"ĠÄĳun":5944,"ĠRi":5945,"Ġ82":5946,"79":5947,"ĠPat":5948,"âĢ¦,":5949,"ĠEver":5950,"ĠlÆ°á»Ľt":5951,"ĠXV":5952,"ĠCÃ¡n":5953,"áº½n":5954,"eroin":5955,"Ġchá»įc":5956,"53":5957,"ĠMáºŃu":5958,"Ġ?":5959,"ĠÄĳinh":5960,"Ġrá»ĳt":5961,"Ġ1999":5962,"Ġqui":5963,"ĠOne":5964,"ĠRobert":5965,"ĠNSND":5966,"Ġ84":5967,"nÃ³ng":5968,"ĠmáºŃp":5969,"ĠInstagram":5970,"ĠRich":5971,"ĠvÃ¡n":5972,"ĠIm":5973,"ĠÄĲiá»ĩp":5974,"So":5975,"ĠrÄĥn":5976,"Tá»Ŀ":5977,"ĠYouT":5978,"Ġ1994":5979,",\"":5980,"iF":5981,"ella":5982,"ĠGold":5983,"ĠphÃ´":5984,"ĠYoung":5985,"Ġmáº¯ng":5986,"Tá»·":5987,"ĠBBC":5988,"ĠSHB":5989,"ĠCáº£m":5990,"KhÃ¡ch":5991,"Ġ1991":5992,"gan":5993,"aka":5994,"yn":5995,"Ġquáº¡t":5996,"chiáº¿m":5997,"ĠChrist":5998,"Ġrobot":5999,"Ġngá»ı":6000,"Ġcor":6001,"ĠXi":6002,"ĠOp":6003,"ĠlÃ¡ch":6004,"Ġthá»īnh":6005,"ÄĳÆ°á»Ŀng":6006,"Ġgieo":6007,"ĠQU":6008,"Ġ2001":6009,"Chinhphu":6010,"Ġheroin":6011,"Ġsá»ıi":6012,"orm":6013,"ĠchÃ¨o":6014,"Ġam":6015,"Ġxoa":6016,"ThÃªm":6017,"ĠBill":6018,"letico":6019,"ĠFlor":6020,"ĠTPP":6021,"Ġtáº¥p":6022,"ĠTa":6023,"ĠCÆ°":6024,"ĠchÃ©n":6025,"MÃ¹a":6026,"ivi":6027,"anc":6028,"ĠPost":6029,"Ġhoi":6030,"esh":6031,"ĠODA":6032,"Ġ160":6033,"CÃ¡i":6034,"ĠTra":6035,"exit":6036,"mail":6037,"Ġxáº¯n":6038,"Nghi":6039,"ĠchiÃªm":6040,"cÃ¡c":6041,"ĠÄĳá»¥c":6042,"ĠJenn":6043,"Ġ140":6044,"Ġxá»ķ":6045,"TTP":6046,"ĠSir":6047,"ida":6048,"int":6049,"Kinh":6050,"ga":6051,"Ġpháº³ng":6052,"utnik":6053,"ĠCom":6054,"Ġchen":6055,"ĠÆ°á»Ľp":6056,"ĠHáº£o":6057,"ĠKu":6058,"lay":6059,"ĠTinh":6060,"ĠGar":6061,"ĠKT":6062,"Ńng":6063,"Ġlá»Ļng":6064,"ĠrÃ¢u":6065,"ĠkhÃŃa":6066,"ĠMH":6067,"ĠTá»Ľi":6068,"Ġ1997":6069,"ĠMoh":6070,"uki":6071,"ĠmÃłi":6072,"Ġlá»¥y":6073,"ĠvÃ¡c":6074,"ĠngÃłng":6075,"KV":6076,"de":6077,"ĠTÃ´ng":6078,"ĠUber":6079,"ĠKS":6080,"Ġá»¨ng":6081,"TÃªn":6082,"Ġrá»¥i":6083,"Ġláº«y":6084,"ĠlÃ©n":6085,"ĠTháº¥t":6086,"ĠÃł":6087,"ĠDa":6088,"Ġráº«y":6089,"ĠLiga":6090,"ÄĲH":6091,"ĠTy":6092,"ÃŃp":6093,"Nhá»Ŀ":6094,"ĠBN":6095,"ĠsÃłnh":6096,"Ġgai":6097,"Ġbáº¡t":6098,"âĢ¦âĢĿ.":6099,"ĠLand":6100,"ĠmÆ°Æ¡i":6101,"ĠHÆ°á»Ŀng":6102,"Ġmáº¡":6103,"ribank":6104,"Phi":6105,"ĠgáºŃy":6106,"seo":6107,"ĠNTM":6108,"ĠTháº§y":6109,"Ġnhá»Ļn":6110,"Ġgolf":6111,"76":6112,"BA":6113,"96":6114,"emen":6115,"Ġkhan":6116,"Ġti":6117,"ĠLÃ¢n":6118,"ĠCÃ¢y":6119,"ĠNáº¡n":6120,"lus":6121,"ĠgiÃ²":6122,"Ã¹y":6123,"ĠxÆ°á»Ľng":6124,"oshi":6125,"Tuáº¥n":6126,"ĠJord":6127,"Ġ*":6128,"Ġ...":6129,"NLÄĲO":6130,"ĠNokia":6131,"ustin":6132,"VC":6133,"Ġnáº¥y":6134,"ĠÃªm":6135,"ĠTMCP":6136,"ÄĲÃºng":6137,"56":6138,"Ġ91":6139,"ĠOscar":6140,"ĠNgá»¯":6141,"Ġchiáº¿t":6142,"ĠrÃ¹a":6143,"ĠBrun":6144,"RO":6145,"ĠSLNA":6146,"Ġtia":6147,"GiÃ¡o":6148,"ĠhÃ£m":6149,"Ġtem":6150,"SiÃªu":6151,"ĠchoÃ¡ng":6152,"ĠInd":6153,"PhÃ¡p":6154,"ĠIP":6155,"ĠYouTube":6156,"ĠAz":6157,"ival":6158,"ĠÄĲam":6159,"MS":6160,"eland":6161,"Ġ1980":6162,"ĠthÃª":6163,"ĠPhÃºt":6164,"Ġcá»Ľ":6165,"TháºŃt":6166,"Hiá»ĩp":6167,"Ngoáº¡i":6168,"ĠTÃ½":6169,"ĠPSG":6170,"Ġ125":6171,"Ġ96":6172,"ĠTX":6173,"Ġcá»Ĺ":6174,"omberg":6175,"pháº£i":6176,"ĠAbe":6177,"ĠsÃ¢m":6178,"Bá»©c":6179,"ĠlÃºn":6180,"ĠDam":6181,"za":6182,"bin":6183,"Ġbong":6184,"Ġgáº¥u":6185,"azon":6186,"Ġ1996":6187,"aba":6188,"ĠNote":6189,"Ġáº¡t":6190,"»ħ":6191,"á»ħ":6192,"ĠbÃºn":6193,"ĠHoáº¡t":6194,"Ġxáº¥p":6195,"els":6196,"ĠBiáº¿t":6197,"TPO":6198,"ĠWon":6199,"ĠVua":6200,"chi":6201,"Ġgáº¡t":6202,"Má»¥c":6203,"ĠNhuáºŃn":6204,"UV":6205,"nhÃł":6206,"ĠSuper":6207,"ĠSn":6208,"Ġlung":6209,"ĠÄĳá»ĳn":6210,"Ġxay":6211,"Wh":6212,"ĠKháº£":6213,"Ġdiá»ĩu":6214,"ĠSim":6215,"ĠÄĲáº±ng":6216,"Ġ87":6217,"ĠVÆ°á»Ŀn":6218,"ĠStar":6219,"ĠTháº©m":6220,"HáºŃu":6221,"Phá»¥":6222,"per":6223,"ĠHyundai":6224,"ĠLang":6225,"ĠmÃ´ng":6226,"ĠTuÃ¢n":6227,"ĠKia":6228,"ĠrÃ¡ch":6229,"ĠMel":6230,"Ġbá»Ľi":6231,"ĠLat":6232,"ise":6233,"Ġtao":6234,"ĠÃ¢u":6235,"ĠDan":6236,"Ġá»§i":6237,"sá»Ńa":6238,"ĠRes":6239,"ust":6240,"Ġcorona":6241,"Ġ89":6242,"Ġsáº¥u":6243,"Ġná»Ļ":6244,"Ġviá»ĩt":6245,"ĠTÃªn":6246,"asc":6247,"Ġtáº¥u":6248,"Ġ97":6249,"ĠColom":6250,"ĠHung":6251,"ĠCá»ķng":6252,"Ġtam":6253,"ĠXem":6254,"ĠLoáº¡i":6255,"Ġrá»Ľt":6256,"Ġdai":6257,"Xin":6258,"Ġcá»į":6259,"ĠOld":6260,"ĠRooney":6261,"ĠCharl":6262,"ĠVinamilk":6263,"ĠInfonet":6264,"ĠCha":6265,"ThÆ°á»£ng":6266,"ragon":6267,"ĠPep":6268,"Ġsá»į":6269,"ĠLi":6270,"ĠBitcoin":6271,"ĠCháº¥n":6272,"Æ¯Æł":6273,"Ġbá»©t":6274,"MA":6275,"ĠXIV":6276,"lan":6277,"»ģn":6278,"á»ģn":6279,"ĠMartin":6280,"ĠCanh":6281,"ĠWilliam":6282,"ĠphÃŃm":6283,"Ġbáº¡":6284,"ĠrÆ°á»Ľc":6285,"ĠMiura":6286,"Ġdáº»o":6287,"ĠTá»©c":6288,"ĠHá»£i":6289,"siÃªu":6290,"Æ¯ÆłNG":6291,"ci":6292,"ĠStr":6293,"ĠNeymar":6294,"Ġlam":6295,"Ġ1975":6296,"ĠUAE":6297,"BÃ©":6298,"Ġliveshow":6299,"ĠvÃ¡ch":6300,"thÃłnh":6301,"pa":6302,"ĠMunich":6303,"XÃ¢y":6304,"Ġquyá»ĥn":6305,"ĠMÃ¹i":6306,"oli":6307,"Ġngoáº¡n":6308,"Ġ06":6309,"Ġ115":6310,"ĠBrexit":6311,"ĠLiá»ĩu":6312,"imex":6313,"ĠNgÆ°":6314,"ĠVáº¥p":6315,"Ġgu":6316,"FC":6317,"eta":6318,"ĠNor":6319,"ye":6320,"res":6321,"Ġdiá»ħu":6322,"Ġsexy":6323,"Ġ1998":6324,"xe":6325,"Ġlá»¯":6326,"ome":6327,"ĠCháº¿":6328,"»«":6329,"á»«":6330,"ĠchÆ°ng":6331,"azda":6332,"ĠMe":6333,"Ġráº¡ch":6334,"Ã²m":6335,"ĠAI":6336,"Ġngháº½n":6337,"ĦN":6338,"Ġnuá»ĳt":6339,"Ġgáº§y":6340,"Triá»ĥn":6341,"Ġlá»¥a":6342,"ĠNgÅ©":6343,"ila":6344,"ĠlÃ¬":6345,"Ġngáº«u":6346,"89":6347,"ĠTrÃłng":6348,"PG":6349,"aha":6350,"ĠPVN":6351,"Váº¥n":6352,"Ġquáº¥y":6353,"ĠxÃłi":6354,"ĠTráºŃn":6355,"ĠJun":6356,"ĠÃºng":6357,"osh":6358,"ĠKiev":6359,"ĠPhÃ¢n":6360,"ĠCá»±u":6361,"ĠHer":6362,"Ġgá»ĳm":6363,"ĠAtletico":6364,"âĢ¦.":6365,"Ġá»ĵ":6366,"ĠLou":6367,"ĠÄĲá»ĵ":6368,"TuyÃªn":6369,"van":6370,"ĠiOS":6371,"ĠGB":6372,"Sáº£n":6373,"ĠÄĳáº¥m":6374,"ĠLá»¯":6375,"ÃĤN":6376,"BTC":6377,"Ġnha":6378,"ĠAh":6379,"CÃ¡":6380,"Ġrá»ħ":6381,"ale":6382,"ĠÄĳan":6383,"ĠMax":6384,"HÆ°Æ¡ng":6385,"ĠBor":6386,"cÆ¡":6387,"ngá»¥":6388,"ĠKi":6389,"ĠAsian":6390,"ĠSputnik":6391,"ĠWall":6392,"EF":6393,"Ġká»ĩ":6394,"Ġrá»¥ng":6395,"Ġnguá»Ļi":6396,"Ġlog":6397,"ĠCÃºc":6398,"udi":6399,"ĠJordan":6400,"ĠRá»ĵng":6401,"nguyÃªn":6402,"PhÃº":6403,"Ġgáº·t":6404,"ĠsuÃ½t":6405,"acombank":6406,"ĠNÆ¡i":6407,"chá»§":6408,"TrÆ°á»Łng":6409,"ĠBÃ¡n":6410,"chá»ī":6411,"ĠnhÆ°á»£c":6412,"Man":6413,"Ġ1988":6414,"ĠnháºŃm":6415,"ÄĲB":6416,"ĠJi":6417,"ĠxÃ©":6418,"ÄĲÃ´ng":6419,"Ġsá»Łi":6420,"itt":6421,"vi":6422,"ĠTá»ĳ":6423,"ĠHá»Ĺ":6424,"ĠÃģi":6425,"ĠLáº§u":6426,"UYá»ĦN":6427,"ĠChiá»ĥu":6428,"ANG":6429,"ĠBloomberg":6430,"uck":6431,"CÃ¢y":6432,"Ġmuá»Ĺi":6433,"ĠvÃ¹i":6434,"ski":6435,"Ġnhiá»ħu":6436,"ĠDÆ°":6437,"51":6438,"cÃ´":6439,"Ġ1989":6440,"Má»©c":6441,"ĠbÃ£":6442,"ĠJoe":6443,"ĠCáºŃu":6444,"Ġ93":6445,"ĠAmazon":6446,"ĠTho":6447,"ĠNgÆ°á»£c":6448,"MP":6449,"Ġmini":6450,"ĠTá»ĭnh":6451,"?âĢĿ":6452,"lá":6453,"lá»":6454,"HÃ²a":6455,"obal":6456,"Ġthon":6457,"ĠGiai":6458,"ĠDoÃ£n":6459,"ĠSC":6460,"ĠNov":6461,"ĠNghiÃªm":6462,"ĠNgá»į":6463,"Ġtáº¡t":6464,"IDS":6465,"utube":6466,"ĠNet":6467,"ĠLos":6468,"ĠhoÃ¡n":6469,"ĠKe":6470,")âĢ¦":6471,"Ġtivi":6472,"ĠCro":6473,"ĠDNNN":6474,"ks":6475,"national":6476,"nhÆ°":6477,"ĠMed":6478,"ĠSÃ¡ch":6479,"ĠbÆ°á»Ľ":6480,"ĠmÃŃt":6481,"ĠBáº£ng":6482,"Ġbá»ĩ":6483,"ĠÄĲÃ¡":6484,"Triá»ģu":6485,"Phan":6486,"ĠThÃŃch":6487,"ĠTrá»±c":6488,"Ġná»©c":6489,"ĠDÃ¹ng":6490,"fford":6491,"ĠIdol":6492,"ĠLá»Ļ":6493,"Ġnáº£n":6494,"ĠkhoÃ¡i":6495,"Ġ(+":6496,"ĠOai":6497,"ĠngáºŃm":6498,"ĠkiÃªng":6499,"ĠnhÃ¡i":6500,"ĠCÃ´n":6501,"ĠTor":6502,"osa":6503,"ĠTá»Ŀ":6504,"ĠPe":6505,"ĠCu":6506,"mo":6507,"ĠthÃ²i":6508,"Ġpháº«n":6509,"elle":6510,"ĠThá»Ľi":6511,"esel":6512,"ĠvÃ²i":6513,"ĠMáº«n":6514,"ĠColombia":6515,"ni":6516,"86":6517,"ĠMuá»ĳn":6518,"ĠEa":6519,"ĠYÃªu":6520,"ĠTáº¡p":6521,"gio":6522,"eda":6523,"ĠCrim":6524,"Ġná»ĥ":6525,"Ġtháº£n":6526,"ĠThuá»Ļt":6527,"Ex":6528,"Ġmod":6529,"ĠgiÃ²n":6530,"ĠUr":6531,"Ġkhoanh":6532,"...,":6533,"ĠVII":6534,"ĠTÃ¡c":6535,"ml":6536,"BV":6537,"Ġ07":6538,"Ãļ":6539,"ĠMoham":6540,"Ġhá»ķng":6541,"ĠAgribank":6542,"ĠKurd":6543,"ĠtÄĥm":6544,"ANH":6545,"Ġsá»«ng":6546,"NESCO":6547,"Du":6548,"so":6549,"ĠTur":6550,"ĠMeg":6551,"ĠVo":6552,"ille":6553,"Ġngá»Ńa":6554,"Äĳá»ĳi":6555,"âĢĿâĢ¦":6556,"ishi":6557,"Ġ1000":6558,"ĠBern":6559,"PhÃºt":6560,"anda":6561,"ki":6562,"imes":6563,"ĠNat":6564,"SÆ¡n":6565,"TR":6566,"Ġbá»±c":6567,"ĠNav":6568,"ĠVang":6569,"ĠTCT":6570,"ĠTÃ¬m":6571,"ĠCos":6572,"Ã³p":6573,"nhá»¯ng":6574,"ĠLÃłng":6575,"Äĳi":6576,"ĠÄĳÃ²":6577,"Ġ2022":6578,"Ġtá»ĳp":6579,"ĠSky":6580,"phá»":6581,"Ġuá»ĳn":6582,"ÄĲÆ¡n":6583,"aser":6584,"PGS":6585,"ĠMart":6586,"cean":6587,"ĠtÆ¡":6588,"ÄĲá»«ng":6589,"ĠLá»Ľn":6590,"aki":6591,"estival":6592,"ĠTÆ¯":6593,"aku":6594,"Ġbik":6595,"Ġlá»į":6596,"Linh":6597,"Ġ450":6598,"MO":6599,"Ġchá»įi":6600,"ĠCR":6601,"ĠbÃ©n":6602,"Ġbá»«ng":6603,"Ġ1986":6604,"ĠVÃ²ng":6605,"Ġbáº©m":6606,"ĠHa":6607,"LÃ¢m":6608,"Chu":6609,"ĠBÃ¡t":6610,"ider":6611,"ĠVHTT":6612,"ude":6613,"ĠJer":6614,"Ġláº©n":6615,"Ġcá»ĳi":6616,"ĠÄĳáº«m":6617,"ppo":6618,"ĠtrÃªu":6619,"Bá»Łi":6620,"Nghe":6621,"»Ĺng":6622,"á»Ĺng":6623,"ĠMaria":6624,"ĠEur":6625,"ĠÃ³c":6626,"ĠDani":6627,"ĠxoÃłi":6628,"Ġná»į":6629,"ĠTrafford":6630,"ĠchÃ³t":6631,"gar":6632,"73":6633,"ĠTeh":6634,"ĠhÄĥng":6635,"ĠSm":6636,"ĠnhÃ´m":6637,"ĠnÃ¡o":6638,"BI":6639,"ĠChá»¯":6640,"ĠÄĳu":6641,"ĠKhuyáº¿n":6642,"Ġphao":6643,"ower":6644,"Cá»©":6645,"ett":6646,"ÄĳÆ°á»£c":6647,"low":6648,"ĠgiÃ£":6649,"Kiá»ĥm":6650,"ĠhÃ¡o":6651,"Tháº§y":6652,"Nháº±m":6653,"ĠngÃ¢y":6654,"ÃĿ":6655,"Ġtrá»ĩ":6656,"TE":6657,"ĠDinh":6658,"ĠMur":6659,"ĠCrimea":6660,"TháºŃm":6661,"iFone":6662,"Báº±ng":6663,"Phong":6664,"ger":6665,"ĠCháº¯c":6666,"Ġkeo":6667,"ĠGÃ³c":6668,"HÄĲ":6669,"wa":6670,"Ġbá»ī":6671,"Ġbá»ĭt":6672,"Ġtui":6673,"Ġ(-":6674,"ĠTrÃ¢n":6675,"Giá»Ŀ":6676,"hÃłng":6677,"nes":6678,"ll":6679,"erson":6680,"ĠAsia":6681,"83":6682,"ĠMoon":6683,"uts":6684,"Náº¡n":6685,"trÃº":6686,"74":6687,"ĠCQ":6688,"Ġdang":6689,"ĠXÃ¡":6690,"tis":6691,"PhÃ³ng":6692,"ĠDis":6693,"ĠNig":6694,"ĠHiá»ĥu":6695,"ĠBao":6696,"Ġnhá»įc":6697,"Lá»Ŀi":6698,"ĠHOSE":6699,"ĠnÃ´":6700,"LA":6701,"Ġtháº¡c":6702,"kel":6703,"Ġáº¤":6704,"ĠInternational":6705,"Ġrá»ķ":6706,"ĠNguy":6707,"ĠÃļt":6708,"ĠdÃ¬":6709,"Ġsáº¿p":6710,"ĠÂ":6711,"ĠCM":6712,"Sáº½":6713,"ĠChÃ¹a":6714,"ĠÄĤ":6715,"ĠLED":6716,"Ġnáº¡o":6717,"ĠvÃ©t":6718,"ĠBÃłng":6719,"ĠHÃ²n":6720,"Ġhtt":6721,"ĠLHP":6722,"ĠMÃ³ng":6723,"LÃło":6724,"ĠCen":6725,"rov":6726,"ĠTuyá»ģn":6727,"NHNN":6728,"ĠLG":6729,"Ġ108":6730,"ĠYemen":6731,"Ġngháº¹n":6732,"ĠSar":6733,"ĠmuÃ´n":6734,"agen":6735,"ĠCat":6736,"ita":6737,"ĠnhÃ£":6738,"ĠTD":6739,"Ġcanxi":6740,"lÃł":6741,"imbank":6742,"ĠPu":6743,"Ġráº§m":6744,"Ġ1987":6745,"ĠVictoria":6746,"ĠBro":6747,"Ġkhiáº¿m":6748,"SNN":6749,"Ġ170":6750,"Vi":6751,"Ġlá»Ŀ":6752,"ĠHarry":6753,"LÆ°u":6754,"ĠVol":6755,"ĠQuÃ¡ch":6756,"ium":6757,"ĠUtd":6758,"MÃ¬nh":6759,"Ġngáº¡t":6760,"Má»Ł":6761,"ĠSE":6762,"ĠmÆ°Æ¡ng":6763,"ĠHáº¡t":6764,"ife":6765,"§a":6766,"ym":6767,")...":6768,"Ġnhuá»Ļm":6769,"ĠLim":6770,"Ġ220":6771,"Ġcuá»Ļn":6772,"ĠliÃªng":6773,"ĠAmer":6774,"ĠBeck":6775,"Thiáº¿t":6776,"ĠFl":6777,"TÃ²a":6778,"ĠNic":6779,"bra":6780,"ĠFA":6781,"ance":6782,"ĠJohnson":6783,"ĠkÃ¬m":6784,"ĠYam":6785,"á»§a":6786,"ush":6787,"150":6788,"Ġvá»Ĺ":6789,"ĠIM":6790,"ire":6791,"ĠBáº§u":6792,"ĠNex":6793,"Lá»£i":6794,"ĠTehran":6795,"ĠSacombank":6796,"phÃºt":6797,"ĠbÃº":6798,"ÄĲá»Ļng":6799,"ĠBR":6800,"ris":6801,"ĠUSS":6802,"ĠdÃ¨":6803,"ĠSony":6804,"Ġrun":6805,"ĠrÃ£":6806,"su":6807,"ĠChile":6808,"air":6809,"ÄĤn":6810,"Ġváº¯t":6811,"ĠQuá»·":6812,"ĠCarl":6813,"Ġgen":6814,"Ġphá»Ł":6815,"ĠSerg":6816,"ages":6817,"ĠLS":6818,"ĠDáº§n":6819,"ĠGÄĲ":6820,"ĠAll":6821,"ĠcÃµ":6822,"ĠMazda":6823,"Tuáº§n":6824,"ĠBlu":6825,"Kiáº¿n":6826,"Cáº·p":6827,"Khá»Łi":6828,"sey":6829,"ĠRAM":6830,"ĠÄĲá»Ļc":6831,"Ġhá»©c":6832,"ĠLad":6833,"ernand":6834,"gá»ĵm":6835,"ĠÄĲÄĥk":6836,"Háº§u":6837,"84":6838,"ĠLiá»ħu":6839,"ĠphÃł":6840,"ĠAbd":6841,"ĠUNESCO":6842,"61":6843,"Ġxá»ĭt":6844,"á»ĩt":6845,"ĠTáº¡o":6846,"yÃªu":6847,"ĠNháº¡c":6848,"giáº£m":6849,"93":6850,"ĠHun":6851,"ĠSaigon":6852,"ĠDon":6853,"ĠAngela":6854,"Truyá»ģn":6855,"ĠRáº«y":6856,"Ġbikini":6857,"Long":6858,"ĠHal":6859,"71":6860,"ĠChina":6861,"Ġset":6862,"Ġnhá»ĭn":6863,"trÃªn":6864,"Ġ1985":6865,"ĠnÃ³c":6866,"ĠMir":6867,"ĠgÃ³t":6868,"aptop":6869,"ĠÃ¡ch":6870,"ĠVietNamNet":6871,"ss":6872,"Ġcháº£o":6873,"ĠKing":6874,"ĠVideo":6875,"ĠMobiFone":6876,"ĠSUV":6877,"ĠRed":6878,"ogan":6879,"uay":6880,"aro":6881,"ĠHoan":6882,"Vn":6883,"ĠIreland":6884,"ĠBáº¯t":6885,"ĠcÃ²":6886,"arez":6887,"Bá»ĳ":6888,"ele":6889,"Ġháº£":6890,"ĠMáº¡c":6891,"ven":6892,"AI":6893,"ĠLav":6894,"kho":6895,"ĠÄĤn":6896,"Ġni":6897,"Giao":6898,"Ã©m":6899,"dinh":6900,"NgÃłnh":6901,"ĠÄĲá»ģn":6902,"ĠThiÃªm":6903,"Ġthen":6904,"si":6905,"Ġmiá»ĩt":6906,"Ġngá»©a":6907,"hiá»ĩn":6908,"enger":6909,"kov":6910,"ĠRang":6911,"TÃ¬m":6912,"DCND":6913,"ĠSá»Ńu":6914,"ĠVCK":6915,"VÅ©ng":6916,"jet":6917,"ĠSuz":6918,"ixel":6919,"ĠNay":6920,"ĠgiÃ´ng":6921,"Ġnhá»§":6922,"ĠBin":6923,"ĠBT":6924,"ÄĳÃ¡nh":6925,"Ġ105":6926,"ĠgÃµ":6927,"Ġtáº£n":6928,"ĠBÃ£i":6929,"ĠBos":6930,"ĠDong":6931,"giáº£i":6932,"82":6933,"news":6934,"CL":6935,"rig":6936,"Má»Ŀi":6937,"Thá»ĳng":6938,"ĠÄĲÃ´n":6939,"ChÃº":6940,"Ġnang":6941,"Iáº¾":6942,"ĠOcean":6943,"ĠhÆ°ng":6944,"ĠChÃºc":6945,"Ġkhá»ıa":6946,"TrÃ¡i":6947,"ĠFLC":6948,"ame":6949,"Lo":6950,"ĠÄĲen":6951,"ĠOl":6952,"tÃªn":6953,"ĠDr":6954,"PH":6955,"ifer":6956,"ĠTan":6957,"Ġá»©":6958,"YÃªu":6959,"ĠYoutube":6960,"Ġyáº¿n":6961,"91":6962,"TÃ¡c":6963,"ĠVOV":6964,"ĠÄĳáº£":6965,"opa":6966,"2006":6967,"ĠLau":6968,"ĠBL":6969,"»©ng":6970,"á»©ng":6971,"ĠTuáº¥t":6972,"94":6973,"assage":6974,"Ġthá»¥c":6975,"Ġsáº§u":6976,"gr":6977,"ĠNik":6978,"ĠGlobal":6979,"ĠGeorge":6980,"thá»ĭ":6981,"ĠdÃª":6982,"Ġbá»įt":6983,"Ġchá»£t":6984,"Ġser":6985,"ĠDÄ©":6986,"ĠXÆ°Æ¡ng":6987,"ĠVietinBank":6988,"ĠJae":6989,"ĠbÃºp":6990,"ika":6991,"ence":6992,"ĠMW":6993,"ĠLá»Ŀi":6994,"Ġráº¡n":6995,"VT":6996,"ĠbÃªnh":6997,"Ġkhá»ī":6998,"ºp":6999,"Ġ94":7000,"ÃŃu":7001,"ĠThá»ıa":7002,"ÄĲiá»ĩn":7003,"XD":7004,"ĠVu":7005,"ĠChá»ĵng":7006,"ĠcÃ´i":7007,"ĠMosk":7008,"ĠnhÄĥn":7009,"ĠKÃ½":7010,"ĠbÃ¬a":7011,"edan":7012,"iana":7013,"mund":7014,"Buá»ķi":7015,"eting":7016,"Ġsáº¯n":7017,"ĠRáºŃp":7018,"ĠcÃºi":7019,"ĠGiá»įng":7020,"Ġli":7021,"ĠTÆ°á»Łng":7022,"TÃ¢m":7023,"zone":7024,"Ġdiesel":7025,"ric":7026,"Duy":7027,"Ġvá»Ŀ":7028,"Ġsim":7029,"ĠPle":7030,"ĠPo":7031,"ĠbÃºa":7032,"ĠÄĲáºŃu":7033,"ĠmÃ£nh":7034,"Ġ00":7035,"ĠCPI":7036,"ĠAngeles":7037,"ĠcÃło":7038,"ĠSGK":7039,"HoÃłi":7040,"ÄĲoáº¡n":7041,"Ġmuá»Ĺng":7042,"Ġtriáº¿t":7043,"Ġáº§m":7044,"ster":7045,"ĠWil":7046,"ĠlÅ©ng":7047,"Ġháº¥u":7048,"Ġmá»ĳt":7049,"ĠAnton":7050,"EP":7051,"Ġteen":7052,"ĠUÃ´ng":7053,"issan":7054,"ĠKáº¡n":7055,"iness":7056,"Cao":7057,"ĠÆ¯á»Ľc":7058,"Ãºm":7059,"ĠcÆ°á»£c":7060,"vÃł":7061,"ĠthÃ¢u":7062,"Ġgiá»¥c":7063,"bor":7064,"XB":7065,"Ġdáº¡t":7066,"alk":7067,"ogba":7068,"Ġcarb":7069,"Ġdáº¥y":7070,"ĠNoel":7071,"ĠKrÃ´ng":7072,"ĠxÃ¡o":7073,"ĠLouis":7074,"ĠHoáº·c":7075,"Ġkhá»ĳn":7076,"der":7077,"Ġtáº¡c":7078,"ĠNghiá»ĩp":7079,"Ġnhá»ĭ":7080,"Ġlen":7081,"ĠEximbank":7082,"2025":7083,"Sh":7084,"ime":7085,"Cháº³ng":7086,"ĠHá»ıa":7087,"Ġ1984":7088,"Ġnhuyá»ħn":7089,"Cáº£m":7090,"ĠAndre":7091,"ĠModel":7092,"ĠHyun":7093,"ĠLÃ¡ng":7094,"ĠMÃ¢y":7095,"ĠRanh":7096,"ĠLiá»ĩt":7097,"ĠSáº½":7098,"Ġchá»¯ng":7099,"Máº«u":7100,"ım":7101,"ÄĲTCK":7102,"ĠSuá»ĳi":7103,"ĠHÃ¨":7104,"Ġsáº¥y":7105,"ĠTrao":7106,"Ġac":7107,"Ġtoa":7108,"Ġnhá»ĵi":7109,"ĠphÃ¡c":7110,"ĠSi":7111,"cao":7112,"ĠTháº¯m":7113,"ĠPhu":7114,"Ġvs":7115,"ĠCHDCND":7116,"ĠMoskva":7117,"ĠZh":7118,"Ġsá»Ŀ":7119,"Lá»ĭch":7120,"ĠsÃ²ng":7121,"ĠDáºŃu":7122,"ĠTrÃ¬nh":7123,"HQ":7124,"ĠCO":7125,"ĠhÃŃt":7126,"ĠTráº¡i":7127,"thá»±c":7128,"ĠgÃ²":7129,"ĠngÃłi":7130,"ĠComp":7131,"Hoáº¡t":7132,"tuáº§n":7133,"ĠMek":7134,"ĠChÃ¡u":7135,"ĠÄĲÃ¡nh":7136,"ĠChÃºa":7137,"ChÃ¢n":7138,"ĠFox":7139,"abeco":7140,"ĠMike":7141,"cá»§a":7142,"ĠtrÃ¨o":7143,"ĠKa":7144,"adi":7145,"Ġquá»·":7146,"cÃ¹ng":7147,"BÃłn":7148,"ĠLÃ´":7149,"Quá»³nh":7150,"ĠNhÃłn":7151,"Ġ[":7152,"ĠlÃºng":7153,"Ghi":7154,"ĠÄĳao":7155,"ĠSÃ©c":7156,"star":7157,"ĠHen":7158,"ĠÃ¡":7159,"ashin":7160,"Ġmá»³":7161,"NghiÃªn":7162,"Äĳiá»ĥm":7163,"Ġquáº¥n":7164,"iola":7165,"ĠMáº¥y":7166,"treet":7167,"ĠCrist":7168,"ĠForm":7169,"ĠMah":7170,"kin":7171,"out":7172,"ĠTranh":7173,"87":7174,"ĠChÄĥm":7175,"ĠQuáº¥t":7176,"ĠngÃ¡n":7177,"Ġmiá»ĩn":7178,"Ġxáº£o":7179,"KhÃ³":7180,"ĠWhi":7181,"ĠvÃ´i":7182,"Ġtháº¡o":7183,"Ġgiáº·c":7184,"ĠKSND":7185,"hot":7186,"Ġkhang":7187,"oster":7188,"ĠhÃ´ng":7189,"gin":7190,"Ġ1970":7191,"Vin":7192,"ove":7193,"Äĳáº§u":7194,"ĠNhÃ¬":7195,"bus":7196,"ĠTrÃ£i":7197,"Hay":7198,"les":7199,"ĠWenger":7200,"!âĢĿ":7201,"ĠtrÃ¹":7202,"GDVN":7203,"ĠQLTT":7204,"ĠchÃ¹m":7205,"ĠthÃŃnh":7206,"ĠHaw":7207,"isa":7208,"Æ¯u":7209,"iku":7210,"Ġhit":7211,"Ġmá»§":7212,"Ġbáº»":7213,"ling":7214,"Váº«n":7215,"pt":7216,"ĠKhÃ¡m":7217,"ĠThÃ¬n":7218,"ĠGaal":7219,"ĠcÆ°a":7220,"ĠghÃª":7221,"ĠFrank":7222,"ĠFab":7223,"Ġngáº£":7224,"ĠNad":7225,"hai":7226,"ĠSev":7227,"KTS":7228,"ĠAC":7229,"ĠNSNN":7230,"Ãµm":7231,"ĠMerkel":7232,"ĠCQÄĲT":7233,"EM":7234,"red":7235,"ĠgÃ¢n":7236,"ĠThom":7237,"ĠFestival":7238,"Ġquáº¥t":7239,"gia":7240,"iban":7241,"Ġkháº¯t":7242,"ĠTrá»¥":7243,"TPHCM":7244,"ASA":7245,"tress":7246,"?\".":7247,"ÄĲá»Ĺ":7248,"tream":7249,"ÄĲang":7250,"ĠVá»¹":7251,"ĠCáº§m":7252,"ĠPol":7253,"mit":7254,"mÃ£":7255,"ÃĶNG":7256,"ĠDie":7257,"ĠPT":7258,"»¡":7259,"á»¡":7260,"ĠnÃ³n":7261,"atia":7262,"DÆ°Æ¡ng":7263,"kara":7264,"ĠtÃł":7265,"Ġlaptop":7266,"ĠTex":7267,"ker":7268,"Ġchá»Ľp":7269,"Chá»©ng":7270,"ortmund":7271,"Tá»īnh":7272,"CCI":7273,"ĠSec":7274,"ilon":7275,"»Ŀ":7276,"á»Ŀ":7277,"ĠFranc":7278,"Ġlogo":7279,"AC":7280,"ĠHye":7281,"Ġlá»±u":7282,"Ġáº©u":7283,"ĠImages":7284,"ĠChia":7285,"Huy":7286,"ĠVáº«n":7287,"Ġgiáº±ng":7288,"ave":7289,"Ġtá»¥y":7290,"Ġtá»ħ":7291,"kaku":7292,"icester":7293,"ĠcÃºc":7294,"ÃĢNG":7295,"esterol":7296,"Ġhu":7297,"Ġngoáº·t":7298,"ĠFin":7299,"ĠBÃ¨":7300,"ĠBerlin":7301,"Thi":7302,"ĠVer":7303,"Ġ1983":7304,"ĠVir":7305,"ĠLin":7306,"istics":7307,"ĠNe":7308,"arus":7309,"thi":7310,"ĠHÃ³c":7311,"ĠÄĳÃºp":7312,"Sá»©c":7313,"ĠMotor":7314,"ĠphÃłn":7315,"Ġ)":7316,"ĠYang":7317,"ĠBÃ´ng":7318,"ado":7319,"ĠMag":7320,"ĠMáº¡ng":7321,"HÆ°á»Ľng":7322,"Ġlá»«ng":7323,"Ġmassage":7324,"ĠMá»Ł":7325,"ĠGreen":7326,"tro":7327,"Ġnáº§n":7328,"ĠSand":7329,"ĠVoice":7330,"ĠWHO":7331,"Ġthá»ĳn":7332,"ĠMÃ´":7333,"ĠDub":7334,"hÆ¡n":7335,"ĠTá»ĳng":7336,"ĠNTK":7337,"IP":7338,"Ġláº§u":7339,"ĠKhÃ³":7340,"ĠsÆ°a":7341,"ĠJin":7342,"Ġthá»ĳt":7343,"ĠvÃ¡":7344,"ĠsÃło":7345,"ĠmiÃªn":7346,"Ġtrá»ķ":7347,"ĠRoy":7348,"ĠnÃªm":7349,"ES":7350,"ĠvÃ¡ng":7351,"ĠLÃ£ng":7352,"ĠgáºŃt":7353,"Ġquá»³":7354,"Tá»±":7355,"ĠÄĲÆ°a":7356,"ĠhÃ¡n":7357,"col":7358,"Äĳá»ĵng":7359,"ĠCosta":7360,"ĠKen":7361,"arm":7362,"ĠAFC":7363,"ĠPogba":7364,"Ġvun":7365,"ĠMr":7366,"Æ°á»Ŀm":7367,"ĠGuardiola":7368,"ĠgiÃ¡ng":7369,"ĠMong":7370,"akar":7371,"Ġtoan":7372,"Ġ101":7373,"ĠcÃły":7374,"SV":7375,"ĠJones":7376,"Viá»ĩn":7377,"ign":7378,"sá»±":7379,"ĠGiá»¯a":7380,"phi":7381,"ĠrÆ°á»¡i":7382,"81":7383,"Ġnguyá»ĩt":7384,"ĠBuá»ķi":7385,"Tá»Ľi":7386,"ĠpháºŃt":7387,"ĠIns":7388,"ĠBá»©c":7389,"ream":7390,"ĠloÃ©t":7391,"ĠBCH":7392,"ĠJung":7393,"bes":7394,"Ġcáº©m":7395,"ĠTÆ°á»Ľng":7396,"ĠMekong":7397,"ĠEV":7398,"KD":7399,"ĠÃįt":7400,"ná»¯":7401,"Ġ1979":7402,"ĠNm":7403,"ody":7404,"DP":7405,"Ġnáº¿n":7406,"Thá»§y":7407,"Ġrock":7408,"ĠTiá»ĩp":7409,"ardo":7410,"ĠKo":7411,"tháº§n":7412,"ĠPeter":7413,"ĠAnkara":7414,"Trá»Ł":7415,"ibaba":7416,"IT":7417,"BiÃªn":7418,"vel":7419,"Ġráº£nh":7420,"ĠRodrig":7421,"ĠKhiÃªm":7422,"ole":7423,"acker":7424,"be":7425,"ago":7426,"ĠWTO":7427,"ĠAudi":7428,"Giá»¯a":7429,"ĠDiÃªn":7430,"Ninh":7431,"ific":7432,"Ġhá»Ŀ":7433,"ĠNK":7434,"Ã²e":7435,"lott":7436,"ĠPlay":7437,"Tá»«ng":7438,"Ã¨m":7439,"chiáº¿n":7440,"XÃ©t":7441,"brid":7442,"Ġchol":7443,"Al":7444,"ĠTC":7445,"Ġtro":7446,"ĠNigeria":7447,"ĠWat":7448,"ĠNiÃª":7449,"ĠBale":7450,"DB":7451,"ĠTai":7452,"ĠHuáº¥n":7453,"oga":7454,"ĠhÃ³c":7455,"rolimex":7456,"ĠxÃŃt":7457,"Ġliá»ħu":7458,"Ġ113":7459,"ÄĲÃ´i":7460,"Ġ360":7461,"ĠIbra":7462,"pop":7463,"ascus":7464,"ĠPac":7465,"ĠDj":7466,"áº¿ch":7467,"Dá»ĭch":7468,"ĠNHTM":7469,"Ġvá»¥n":7470,"ĠHari":7471,"VP":7472,"ĠTrÃłm":7473,"âĢ¦âĢĿ":7474,"Ġnhá»ĳt":7475,"ĠTaliban":7476,"Ġblog":7477,"ĠHillary":7478,"Ġtá»īa":7479,"ĠráºŃp":7480,"ourn":7481,"ĠngÆ¡":7482,"KCN":7483,"ily":7484,"VÃ²ng":7485,"ĠJul":7486,"LS":7487,"Ġruá»ĵi":7488,"St":7489,"Hy":7490,"Chuyáº¿n":7491,"Ġviá»ģn":7492,"ĠLuyá»ĩn":7493,"ĠIl":7494,"Ġgá»Ļi":7495,"ĠSuarez":7496,"ĠXá»Ń":7497,"Ġrá»Ĺi":7498,"ĠvÃłn":7499,"Ġthoa":7500,"nay":7501,"ĠlÃ³c":7502,"ĠNhá»±":7503,"ĠTuyá»ĥn":7504,"Ġcholesterol":7505,"Ra":7506,"dam":7507,"báº¯t":7508,"ĠErd":7509,"á»ķn":7510,"ĠHungary":7511,"act":7512,"ĠCá»±c":7513,"ĠlÆ°á»£n":7514,"ĠPháº¥n":7515,"Báº£ng":7516,"ĠDA":7517,"ĠSÆ°Æ¡ng":7518,"Ġchuá»Ļc":7519,"ĠKat":7520,"Ġsáº¹":7521,"Giadinh":7522,"DÃ²ng":7523,"ĠThao":7524,"agh":7525,"Káº¿":7526,"ahoo":7527,"Ġrang":7528,"»Ĳ":7529,"á»Ĳ":7530,"ĠDÃ²ng":7531,"ÄĲá»ĭa":7532,"ĠFerr":7533,"ĠDamascus":7534,"ĠLÃ£o":7535,"...âĢĿ.":7536,"CÃ¡n":7537,"Táº¿t":7538,"ĠrÃ³t":7539,"ĠtrÃºt":7540,"Ġtháº¯m":7541,"Cá»ĳ":7542,"Quáº£":7543,"Ġsáº¹o":7544,"ĠRT":7545,"Ġghe":7546,"ema":7547,"UB":7548,"ĠIntel":7549,"cÃ¡i":7550,"Ġdáº·m":7551,"ĠDortmund":7552,"ĠDao":7553,"Ġ103":7554,"won":7555,"nhap":7556,"Ġthá»ģ":7557,"ĠAsh":7558,"Tráº»":7559,"mad":7560,"wan":7561,"ĠmiÃªu":7562,"ĠXÃª":7563,"ĠÄĲá»ķi":7564,"ĠRÃµ":7565,"AF":7566,"ĠHel":7567,"ĠChÄĥn":7568,"Ġtráº·c":7569,"láº§n":7570,"ĠPháº£":7571,"ĠVAM":7572,"ĠâĢĿ":7573,"ĠEv":7574,"Ġbá»ĵng":7575,"VÄ©nh":7576,"ĠtrÃ³i":7577,"ĠÄĲá»ĩ":7578,"ĠÄĲTQG":7579,"ĠAli":7580,"Ġthuá»Ł":7581,"--------":7582,"Äĳoáº¡n":7583,"Ġhá»§":7584,"Muá»ĳn":7585,"ĠVinac":7586,"Ġbá»«a":7587,"NK":7588,"Ġáº¥u":7589,"Ġstress":7590,"Háº¡":7591,"gen":7592,"ĠAssad":7593,"ĠFlorida":7594,"ĠBul":7595,"XÃ¡c":7596,"Trá»įng":7597,"Ġnhá»ī":7598,"ĠrÆ¡m":7599,"ĠBiá»ĥu":7600,"Chung":7601,"KTÄĲT":7602,"ĠThoa":7603,"ĠAlibaba":7604,"jan":7605,"iro":7606,"US":7607,"ĠFormosa":7608,"ĠATTP":7609,"den":7610,"ĠmÃ©o":7611,"ĠVPF":7612,"vá»Ľi":7613,"kÃŃp":7614,"ĠBá»Ŀ":7615,"ĠMang":7616,"rm":7617,"Khai":7618,"ĠTuá»ĩ":7619,"há»įc":7620,"cháº¡y":7621,"cÃ²n":7622,"uri":7623,"ĠVietnamnet":7624,"ÄĲS":7625,"ĠSel":7626,"Ġlanh":7627,"awa":7628,"ĠKaz":7629,"rey":7630,"ĠAM":7631,"ĠÆ°ng":7632,"ĠSud":7633,"ito":7634,"ĠNDT":7635,"ĠLuáºŃn":7636,"ĠRáº¡ch":7637,"ĠErdogan":7638,"ĠMetro":7639,"ĠFeder":7640,"aeda":7641,"ĠGer":7642,"ĠRON":7643,"field":7644,"fa":7645,"Ġhá»ĩt":7646,"aga":7647,"eva":7648,"ĠkiÃªu":7649,"tra":7650,"ĩn":7651,"ĠCáº·p":7652,"ĠÄĲang":7653,"ery":7654,"ĠNXB":7655,"elli":7656,"Ġká»µ":7657,"ĠKrem":7658,"CáºŃu":7659,"ĠNhá»ĭ":7660,"ĠDO":7661,"ĠSuzuki":7662,"sau":7663,"ĠTaylor":7664,"Express":7665,"tan":7666,"250":7667,"Ġdáº§m":7668,"ĠGiÃªng":7669,"CáºŃn":7670,"Ġmic":7671,"ĠSA":7672,"2005":7673,"ĠgÃłng":7674,"NV":7675,"ThÃº":7676,"ĠkÃ©t":7677,"ĠForbes":7678,"ĠThomas":7679,"itan":7680,"ĠShow":7681,"ĠPha":7682,"Phim":7683,"ĠngÃ¹i":7684,"KTSG":7685,"ĠBelarus":7686,"?âĢĿ,":7687,"ĠVÃ´":7688,"gáº§n":7689,"ĠLeicester":7690,"ĠGe":7691,"ĠANTT":7692,"Ġmau":7693,"Ġje":7694,"Tháº£o":7695,"ĠBÃŃnh":7696,"ĠNghÃ":7697,"ĠKáº»":7698,"CÃł":7699,"Ġtáº©m":7700,"hip":7701,"ati":7702,"med":7703,"Ġwww":7704,"CD":7705,"Ġ=":7706,"ĠSung":7707,"Chá»ĵng":7708,"Ġmáº£i":7709,"Ġnilon":7710,"ĠVá»ĳn":7711,"ĠPleiku":7712,"TrÆ°a":7713,"ĠTCTD":7714,"exus":7715,"ĠUSB":7716,"ĠLion":7717,"ĠGad":7718,"ĠtÃ©":7719,"Ġ240":7720,"ift":7721,"Ġbo":7722,"ĠThá»¥":7723,"ĠchÃŃch":7724,"ĠJustin":7725,"ĠCristiano":7726,"page":7727,"bon":7728,"ĠMP":7729,"ĠBas":7730,"ĠPower":7731,"Ġbá»į":7732,"Ġngá»¥c":7733,"Ġá»ıi":7734,"ĠSom":7735,"bai":7736,"ÄĲÃ¬nh":7737,"NÃ¢ng":7738,"Ġchá»ĳc":7739,"eron":7740,"Ġcháº£i":7741,"Ġhorm":7742,"raph":7743,"ĠloÃ£ng":7744,"ĠNi":7745,"ĠSM":7746,"ĠDaniel":7747,"**":7748,"ĠTexas":7749,"ĠXÃ©t":7750,"Mar":7751,"ami":7752,"Sá»Ń":7753,"Ġngáº¯t":7754,"lec":7755,"áºµn":7756,"Tiá»ĥu":7757,"Ġcá»¥t":7758,"Xá»Ń":7759,"ĠvÃ£n":7760,"ĠSX":7761,"AIDS":7762,"ĠKha":7763,"ĠRichard":7764,"ĠNhiÃªn":7765,"itz":7766,"DÃ¹ng":7767,"Lan":7768,"ĠEverton":7769,"ĠToáº£n":7770,"ĠngÃ³ng":7771,"yo":7772,"cha":7773,"hr":7774,"MU":7775,"Ġmodel":7776,"ĠNext":7777,"ĠMua":7778,"Ġlay":7779,"ĠAleppo":7780,"qua":7781,"tiá»ģn":7782,"Mua":7783,"ĠVietjet":7784,"ĠSá»ĳng":7785,"Äĳá»ĥ":7786,"chez":7787,"giÃ¡":7788,"ĠThiá»ĩu":7789,"ĠlÆ°á»Ŀi":7790,"ĠTW":7791,"iff":7792,"ĠVit":7793,"ĠWi":7794,"Ġlá»Ńng":7795,"thu":7796,"Ġphen":7797,"ĠDiego":7798,"ĠÄĳÃ¡i":7799,"bÃł":7800,"Ġxá»īu":7801,"Ġcalo":7802,"ĠTá»µ":7803,"ĠGÆ°Æ¡m":7804,"ChÃ¢u":7805,"ĠTHA":7806,"ĠsuÃ´n":7807,"Ġkáº¹p":7808,"Ġcá»«":7809,"ĠAward":7810,"PTPP":7811,"Sam":7812,"br":7813,"ĠDuáº©n":7814,"ĠnÃłnh":7815,"PEC":7816,"Ġ%":7817,"ĠvÃµng":7818,"ĠFernand":7819,"ushi":7820,"ĠThá»¥c":7821,"ĠFTA":7822,"Ġtrá»įt":7823,"ĠMÃ£o":7824,"ĠIMF":7825,"Ġngá»¥y":7826,"ĠTá»«ng":7827,"ĠQuyáº¿n":7828,"ĠIa":7829,"ĠchÃ¨n":7830,"ĠlÃ¹m":7831,"ĠKremlin":7832,"ÄĲáº¡o":7833,"ĠCroatia":7834,"ĠUN":7835,"ĠLáº¥y":7836,"ĠKal":7837,"ĠChÆ°":7838,"ĠAut":7839,"hoáº·c":7840,"ĠNob":7841,"ĠphÃ´i":7842,"ĠGh":7843,"encia":7844,"oot":7845,"Ġve":7846,"cast":7847,"ĠCÃłng":7848,"ĠnhÃło":7849,"ĠVinashin":7850,"ĠÆ¡":7851,"ason":7852,"ten":7853,"Ġquáº·ng":7854,"Náº±m":7855,"IAD":7856,"ĠNáºŃm":7857,"ĠQuá»³":7858,"Ġ135":7859,"ÄĲÃłi":7860,"ÄĲTB":7861,"ĠSina":7862,"khu":7863,"ĠGuardian":7864,"ĠMiáº¿u":7865,"Ġváº«y":7866,"ĠGPMB":7867,"Ġ1981":7868,"ann":7869,"Ġcat":7870,"ĠBá»ĳn":7871,"khi":7872,"Ġ1972":7873,"ĠBrunei":7874,"lib":7875,"ĠJennifer":7876,"Ġquáº¿":7877,"ĠCáº£i":7878,"MÃłn":7879,"ĠÄĳÃłng":7880,"ato":7881,"Ġuáº¥t":7882,"ĠChuáº©n":7883,"ubishi":7884,"ĠMarc":7885,"phÃª":7886,"Biáº¿t":7887,"ĠShar":7888,"Ġ102":7889,"ĠYonhap":7890,"ĠKÃŃnh":7891,"âĢ¦)":7892,"ĠXa":7893,"Ġsá»¡":7894,"ĠNgÃł":7895,"Ġ1960":7896,"ĠSin":7897,"ĠPL":7898,"ĠrÃ¡n":7899,"Ġ1976":7900,"Hen":7901,"ĠSIM":7902,"hay":7903,"Ġ128":7904,"áº¦":7905,"Äĳáº·c":7906,"ĠBrad":7907,"Ġbiáº¿u":7908,"Ġgang":7909,"Cl":7910,"Ġhttp":7911,"ase":7912,"ĠDubai":7913,"hÃłnh":7914,"BH":7915,"Cá»ķ":7916,"ĠPort":7917,"ĠPlaza":7918,"dor":7919,"370":7920,"ĠUng":7921,"pot":7922,"onex":7923,"ĠgáºŃp":7924,"ĠFrancis":7925,"sky":7926,"Cha":7927,"Ġlá»ģu":7928,"ĠHP":7929,"ĠJol":7930,"ĠquÃ½t":7931,"Media":7932,"ĠJav":7933,"Benz":7934,"ĠMits":7935,"ĠSP":7936,"tyle":7937,"ĠGea":7938,"ÃĮ":7939,"ĠrÃ£nh":7940,"khÃ³a":7941,"ĠcháºŃp":7942,"vÃ´":7943,"ĠSergei":7944,"ĠVietlott":7945,"mann":7946,"âĢĿ?":7947,"ĠtoÃ¡t":7948,"ĠFort":7949,"ĠnáºŃp":7950,"chiáº¿c":7951,"ĠVilla":7952,"ĠGra":7953,"WS":7954,"aby":7955,"Ġtá»§i":7956,"ĠSáº¯c":7957,"Ġngáº¥m":7958,"ĠThÆ¡m":7959,"Ġse":7960,"\"...":7961,"ThÆ°á»Ŀng":7962,"Ġbin":7963,"Ġbáº§m":7964,"ĠNap":7965,"ĠTráº£":7966,"ĠGV":7967,"Ġme":7968,"ĠEb":7969,"ĠVá»įng":7970,"Máº¥y":7971,"Ġxuá»ĵng":7972,"ĠLÃ¢u":7973,"cuá»Ļc":7974,"ĠFace":7975,"ĠAlexander":7976,"Ġlogistics":7977,"ĠLÃ¡i":7978,"ĠChuyá»ĥn":7979,"Ġcá»Ļi":7980,"bÃ¬nh":7981,"Ã¬a":7982,"ĠkhoÃ¡t":7983,"ĠAR":7984,"ĠOk":7985,"ius":7986,"ĠxÃ¹m":7987,"ĠLen":7988,"ĠDes":7989,"ĠHá»©a":7990,"NÃªn":7991,"ĠBusiness":7992,"Ronaldo":7993,"ĠgiÆ¡":7994,"Ġá»ĳp":7995,"KhÃ¡m":7996,"350":7997,"ĠPeru":7998,"uez":7999,"ĠPhÆ°á»Ŀng":8000,"Ġdá»©a":8001,"ĠEURO":8002,"ere":8003,"HoÃłn":8004,"kip":8005,"ÄĲK":8006,"ĠTrÃ¡ch":8007,"aint":8008,"ThÃ¹y":8009,"ĠDiá»ĩn":8010,"Ġláº§y":8011,"ĠTÃ¹y":8012,"ĠTá»ĳt":8013,"ķng":8014,"EN":8015,"alines":8016,"ĠPomp":8017,"ĠTáº§n":8018,"Ġmáº©n":8019,"ĠCÃº":8020,"ĠmÆ°á»£t":8021,"ĠÃºp":8022,"Ġki":8023,"ĠxÆ°á»Ľc":8024,"ĠLuis":8025,"%-":8026,"ĠIdlib":8027,"ÄĲÃłn":8028,"ĠHarv":8029,"ĠvÆ¡":8030,"ĠmÃ©p":8031,"terte":8032,"ĠChÃŃn":8033,"TD":8034,"ĠSum":8035,"Ġngao":8036,"okovic":8037,"oid":8038,"ĠPor":8039,"ĠASIAD":8040,"âĢĿ...":8041,"ĠsÆ°á»Łi":8042,"ĠManila":8043,"Ġray":8044,"chuyá»ĩn":8045,"IÃĬN":8046,"ĠMid":8047,"ru":8048,"itch":8049,"ĠGiÃłng":8050,"Ġáº¿ch":8051,"ĠYamaha":8052,"ivers":8053,"Ġmá»īm":8054,"________":8055,"ican":8056,"Bar":8057,"Ġ>":8058,"KhÃ¡c":8059,"TrÆ°Æ¡ng":8060,"ĠNgÃ£":8061,"ĠKhmer":8062,"Ġkhiáº¿t":8063,"dio":8064,"Ġdiá»ģu":8065,"Loáº¡i":8066,"Ġcabin":8067,"NgÃ´":8068,"ChÃ¡u":8069,"ĠquÃ¢y":8070,"Ġ750":8071,"ĠHá»Ľi":8072,"VÃŃ":8073,"ĠSD":8074,"ĠRoma":8075,"»¨ng":8076,"á»¨ng":8077,"ĠtÆ°ng":8078,"ĠJet":8079,"Ġbung":8080,"vá»£":8081,"CTV":8082,"ĠSuá»ĳt":8083,"ĠBeckham":8084,"Ãįt":8085,"MÆ°a":8086,"ĠDuterte":8087,"Ġxua":8088,"Real":8089,"!\".":8090,"ĠYong":8091,"há»Ļ":8092,"Cháº¥t":8093,"ĠAirbus":8094,"bek":8095,"Ġvuá»ĳt":8096,"ovo":8097,"BD":8098,"Ġmá»©t":8099,"ĠphiÃªu":8100,"ĠThÆ°á»Łng":8101,"Ġphá»ĵng":8102,"cher":8103,"ĠthÃªu":8104,"ĠCá»ĳc":8105,"ÃĻ":8106,"ĠNhiá»ĩm":8107,"ĠUkraina":8108,"ĠGiá»ĳng":8109,"ĠSteph":8110,"ĠXu":8111,"ĠkWh":8112,"ĠSoo":8113,"ĠWeb":8114,"ĠMáº§m":8115,"chá»ĭ":8116,"2004":8117,"ĠCÃ¡nh":8118,"oss":8119,"uguay":8120,"ĠCá»ĳng":8121,"ĠSnap":8122,"ette":8123,"ĠSteve":8124,"»Į":8125,"á»Į":8126,"Ġ230":8127,"aks":8128,"´m":8129,"Ġcá»ĵng":8130,"BCK":8131,"''":8132,"ĠThai":8133,"Ġ1978":8134,"ĠDom":8135,"Giáº¿t":8136,"ĠSanchez":8137,"Top":8138,"Ġcar":8139,"EVN":8140,"ĠPVC":8141,"táº¡i":8142,"ĠSilva":8143,"oly":8144,"ĠngÃ²i":8145,"ĠThy":8146,"ĠEng":8147,"Ġngháº¹t":8148,"rick":8149,"ory":8150,"á»įa":8151,"ĠchÃ¡nh":8152,"Hz":8153,"ĠJan":8154,"cc":8155,"ĠPetrolimex":8156,"ĠÄĳáºŃy":8157,"ĠNou":8158,"ĠNadal":8159,"iger":8160,"ĠHTC":8161,"Ġxá»ĳp":8162,"Ġ1974":8163,"há»ģ":8164,"ĠMÃłu":8165,"OO":8166,"ĠWB":8167,"ĠPhá»¥c":8168,"ĠSub":8169,"ĠMÃ³n":8170,"ĠShinzo":8171,"ĠgÃ¡y":8172,"odo":8173,"Ġnude":8174,"ĠValent":8175,"tion":8176,"Ġnáº¿m":8177,"min":8178,"Giáº£m":8179,"vo":8180,"ĠRoll":8181,"mg":8182,"ĠbÄĥm":8183,"rin":8184,"SÃ¢n":8185,"ĠtrÄ©":8186,"Ġnhang":8187,"âĢĿ:":8188,"ĠCatal":8189,"Láº¥y":8190,"ĠLexus":8191,"ĠMiG":8192,"ĠCang":8193,"ĠWales":8194,"viet":8195,"ĠÄĲáº§m":8196,"ĠÆ°Æ¡m":8197,"áº¬":8198,"ega":8199,"ĠLavrov":8200,"TÆ°":8201,"ets":8202,"ĠkhÃ©t":8203,"CG":8204,"Ġtua":8205,"ĠStreet":8206,"dá»±":8207,"ĠDJ":8208,"ĠANH":8209,"orning":8210,"Ġváº¡":8211,"CÃº":8212,"ray":8213,"ĠvÃ²m":8214,"ĠTÃ³c":8215,"lock":8216,"ĠtrÃ³t":8217,"Ġtrau":8218,"Ġcháº¡p":8219,"ĠKel":8220,"RE":8221,"pper":8222,"VÃ¢n":8223,"ĠBrid":8224,"Ġvisa":8225,"âĢĻ.":8226,"amb":8227,"ĠNep":8228,"Tráº£i":8229,"ĠngÃł":8230,"Ġ650":8231,"ĠChang":8232,"ĠXiao":8233,"idane":8234,"máº¹":8235,"Ġquáº©n":8236,"Ġcháº±ng":8237,"ĠNissan":8238,"Ġchá»ĩ":8239,"ghini":8240,"ĠScot":8241,"ĠPompeo":8242,"Ġmáº«n":8243,"Ah":8244,"ĠFerg":8245,"ĠmÃ´tÃ´":8246,"ves":8247,"MV":8248,"borghini":8249,"utsal":8250,"uma":8251,"ĠÄĳá»Ŀ":8252,"ĠtrÅ©ng":8253,"akarta":8254,"ĠKid":8255,"ĠSerie":8256,"LÆ°Æ¡ng":8257,"Ġnung":8258,"VG":8259,"Ġ1968":8260,"Apple":8261,"ydney":8262,"Huyá»ģn":8263,"PhÃ¢n":8264,"wer":8265,"Ġ112":8266,"ĠKháº£o":8267,"ĠGDÄĲT":8268,"ĠPacific":8269,"ĠJolie":8270,"ĠnhÃ©t":8271,"Ġ107":8272,"imb":8273,"ĠRock":8274,"Ġtá»¥i":8275,"ĠSáº§m":8276,"ĠXÃŃ":8277,"ĠCapital":8278,"báº¥t":8279,"Ġáº£m":8280,"BÃ¢y":8281,"tÃ¬nh":8282,"dafi":8283,"ĠJam":8284,"ĠcÃµi":8285,"TBKTSG":8286,"ĠJean":8287,"Ã½p":8288,"ition":8289,"Ġkhinh":8290,"Ġur":8291,"ķi":8292,"walk":8293,"ĠCá»Ŀ":8294,"uson":8295,"ĠChá»ĳng":8296,"Ġkhuáº¥y":8297,"ĠnhÃłn":8298,"Ġnáº¡t":8299,"ĠAndr":8300,"ĠUP":8301,"ĠCá»¥m":8302,"ĠMacron":8303,"ĠtuÃ´ng":8304,"Hot":8305,"ĠVNÄĲ":8306,"Ġ1973":8307,"ĠDmit":8308,"tic":8309,"sá»ĳng":8310,"Ġcarbon":8311,"WHO":8312,"TiÃªu":8313,"MÃ´":8314,"MÃ³n":8315,"ĠLeon":8316,"ĠPhÃ¡o":8317,"ĠTDTT":8318,"tral":8319,"BT":8320,"ĠTour":8321,"Ġcá»§i":8322,"Ġ116":8323,"dy":8324,"ÄĲáº£ng":8325,"TrÃł":8326,"ĠDV":8327,"ĠRio":8328,"ĠSav":8329,"ĠNÃ¢ng":8330,"cÃ²":8331,"Ġxiáº¿c":8332,"ĠVÃłi":8333,"Ġtest":8334,"IL":8335,"ĠVietinbank":8336,"Ġnghiá»ģn":8337,"ĠnÃŃu":8338,"ĠsÃ´":8339,"Ġ''":8340,"NÆ¡i":8341,"Thá»«a":8342,"olas":8343,"irl":8344,"ĠTÃ²ng":8345,"ved":8346,"May":8347,"ashion":8348,"ather":8349,"Ġnhá»ķ":8350,"ĠHH":8351,"Ġfor":8352,"Ġtáº»":8353,"Ġthung":8354,"ChÃłng":8355,"ĠBÃ¡nh":8356,"ĠDem":8357,"Ġnáº·c":8358,"ĠIbrahim":8359,"ĠVCB":8360,"ĠÄĲá»ĳc":8361,"Ġhoay":8362,"gá»įi":8363,"Ġnhai":8364,"ĠthÃł":8365,"RC":8366,"ĠGaza":8367,"Há»£p":8368,"icon":8369,"tÃŃnh":8370,"ori":8371,"ĠGates":8372,"QS":8373,"ĠCÃ¹":8374,"Ġte":8375,"ĠBom":8376,"ĠVHTTDL":8377,"ĠMedia":8378,"ĠBlue":8379,"ĠCIA":8380,"ĠSur":8381,"ĠnÄĥn":8382,"ĠWin":8383,"ĠPers":8384,"ĠUruguay":8385,"...)":8386,"Ġkiáº¿p":8387,"ĠNGUYá»ĦN":8388,"ĠHaz":8389,"lÃªn":8390,"Ġsh":8391,"Ġ104":8392,"ĠID":8393,"Ġ320":8394,"rad":8395,"ĠSant":8396,"Ġcháº£nh":8397,"Fi":8398,"Ġniá»ĩu":8399,"ĠNgÃłi":8400,"ĠKerry":8401,"ĠMÅ©i":8402,"ĠTHX":8403,"ĠFederer":8404,"ĠSabeco":8405,"UNG":8406,"Ġmá»ĵm":8407,"Ġvung":8408,"rop":8409,"ĠXX":8410,"ĠUz":8411,"Ġfl":8412,"ĠMcC":8413,"ĠBQL":8414,"ERS":8415,"zy":8416,"ĠTÃŃch":8417,"ĠÄĳiáº¿u":8418,"ĠÄĲá»īnh":8419,"igan":8420,"ĠgÄĥng":8421,"ĠCAQ":8422,"2000":8423,"Ġsedan":8424,"ĠTriáº¿t":8425,"ĠGaddafi":8426,"ĠValencia":8427,"ĠEbola":8428,"ÄĲá»©ng":8429,"Äĳá»Ļc":8430,"ĠMINH":8431,"NÃ³":8432,"Ġxá»Ļn":8433,"ĠTs":8434,"erto":8435,"igu":8436,"ĠLuc":8437,"ĠCMND":8438,"Biá»ĥu":8439,"Chelsea":8440,"ora":8441,"Nháº¡c":8442,"cháº¿t":8443,"ĠÄĲTVN":8444,"tein":8445,"azz":8446,"Ġdáº±n":8447,"Ġyen":8448,"ĠAmerica":8449,"BÃ¡nh":8450,"Ġder":8451,"ĠADN":8452,"ĠTechcombank":8453,"ĠSÃ¢m":8454,"otti":8455,"ĠtrÆ¡":8456,"máº¥t":8457,"ĠJackson":8458,"ET":8459,"Ġgiá»ı":8460,"row":8461,"ĠVill":8462,"Qaeda":8463,"ĠFerguson":8464,"aghd":8465,"SP":8466,"ĠEnter":8467,"¹n":8468,"RÃµ":8469,"ĠJim":8470,"TU":8471,"TCP":8472,"Ġbl":8473,"ĠSydney":8474,"ĠLÅ©":8475,"OA":8476,"Ġ1977":8477,"Ġ550":8478,"ĠEuropa":8479,"ĠkhÄĥng":8480,"Ġmáº¹o":8481,"ĠPetro":8482,"ĠngÃ³":8483,"elf":8484,"ĠChris":8485,"onetsk":8486,"ÄĲÆ°a":8487,"ĠTháº¡c":8488,"cÃ¡ch":8489,"ĠÄĲoan":8490,"ÄĳÃ³ng":8491,"ĠBá»Ńu":8492,"ĠGiÃłu":8493,"Ġbáº©y":8494,"fl":8495,"ĠTang":8496,"esl":8497,"!!!":8498,"»ĩnh":8499,"á»ĩnh":8500,"ait":8501,"gg":8502,"ĠGiáº£ng":8503,"bÃªn":8504,"ĠVAMC":8505,"ĠCD":8506,"ampton":8507,"Ġlaser":8508,"Ġres":8509,"ĠBuff":8510,"%);":8511,"evin":8512,"gas":8513,"ĠnhÃłm":8514,"ĠArt":8515,"chu":8516,"ĠPPP":8517,"ĠNÃł":8518,"ĠGTGT":8519,"Ġgáº¯m":8520,"Giai":8521,"Bá»ĳn":8522,"Vá»ĳn":8523,"Ġstart":8524,"Mal":8525,"ladesh":8526,"ĠQÄĲ":8527,"ĠDonetsk":8528,"ĠDelhi":8529,"du":8530,"ĠFerrari":8531,"EFA":8532,"ĠTÃł":8533,"ĠKang":8534,"ĠÃģp":8535,"ĠHome":8536,"ĠRaf":8537,"âĢĻ,":8538,"ĠGiáº£m":8539,"Ġnick":8540,"ÃĮNH":8541,"Bao":8542,"ĠVÃłnh":8543,"ĠVinalines":8544,"ĠMap":8545,"Ġbus":8546,"Tuyá»ĥn":8547,"ĠVai":8548,"ĠSá":8549,"ĠSá»":8550,"ĠphÃ´ng":8551,"ĠScotland":8552,"ĠDjokovic":8553,"ĠNepal":8554,"BNV":8555,"ĠCNVC":8556,"ĠBruss":8557,"ĠMobile":8558,"ĠBinh":8559,"ĠhÃ©c":8560,"ways":8561,"ĠQuáº§n":8562,"ĠTTHC":8563,"Cam":8564,"Ġngá»«":8565,"Ġnháº±n":8566,"nhÃ¢n":8567,"ĠbÆ°á»Ľu":8568,"XÃ£":8569,"ĠHCB":8570,"Ġchá»ĩch":8571,"esse":8572,"onia":8573,"Rá»ĵi":8574,"phÃ¡t":8575,"orsche":8576,"Re":8577,"ÄĲáº¥t":8578,"Ġcáº¡o":8579,"ĠHoáº±ng":8580,"ĠLá»ĩnh":8581,"lÆ°á»£t":8582,"Ġ106":8583,"oshenko":8584,"UN":8585,"bu":8586,"SGGP":8587,"ĠchÃ²i":8588,"ĠÄĲáº¥u":8589,"ĠGard":8590,"ĠKan":8591,"ĠHA":8592,"Ġcuá»ĳng":8593,"ĠchÃł":8594,"ĠHáº¡m":8595,"ĠÄĳá»±c":8596,"ĠMitsubishi":8597,"ĠFBI":8598,"ĠchÆ°á»Ľng":8599,"din":8600,"ĠHold":8601,"ĠJakarta":8602,"ning":8603,"anon":8604,"trÆ°á»Ľc":8605,"ĠFar":8606,"gÃ¢y":8607,"?!":8608,"ĠÄĲo":8609,"ĠÄĲá»©ng":8610,"ĠClip":8611,"ĠZidane":8612,"Ãģo":8613,"thuc":8614,"Ġngá»Ŀi":8615,"Ãªng":8616,"ĠMorning":8617,"?\"":8618,"Ġháº¥t":8619,"HNM":8620,"Ġtáº£o":8621,"ĠxÃŃu":8622,"Ass":8623,"bour":8624,"PM":8625,"Ġkáº½m":8626,"Ġgá»Ļp":8627,"OM":8628,"bekistan":8629,"under":8630,"ĠLux":8631,"ĠNas":8632,"Ġsáº£o":8633,"ĠTrans":8634,"ĠTiáº¿t":8635,"Ġcatwalk":8636,"xx":8637,"ĠBir":8638,"ĠÄĳáº½":8639,"ĠCorp":8640,"ĠLÆ°":8641,"ÄĲa":8642,"ms":8643,"ĠNho":8644,"Gáº·p":8645,"Ġlike":8646,"Ġvo":8647,"ikh":8648,"Ġxiáº¿t":8649,"ĠBenz":8650,"ĠÄĲÆ°Æ¡ng":8651,"Cháº¯c":8652,"áº¤N":8653,"ĠChÃłng":8654,"UYÃĬN":8655,"trá»«":8656,"ĠngÃ¡ch":8657,"Ġ109":8658,"Ġ175":8659,"pol":8660,"ĠNASA":8661,"báº£o":8662,"ĠTÃło":8663,"Ġmark":8664,"Ġle":8665,"thá»Ŀi":8666,"ury":8667,"ĠPas":8668,"ĠAwards":8669,"ĠBP":8670,"KiÃªn":8671,"obile":8672,"ĠMÆ¡":8673,"ĠFED":8674,"Ká»·":8675,"lex":8676,"akia":8677,"ĠVIII":8678,"ThÃºy":8679,"ealth":8680,"Ġmicro":8681,"Ġthá»«ng":8682,"ison":8683,"ĠWang":8684,"ĠSSI":8685,"ĠKl":8686,"ĠSá»¯a":8687,"ban":8688,"ÄĤN":8689,"ĠGÆ°Æ¡ng":8690,"ĠTÆ°á»£ng":8691,"Ġhormone":8692,"ĠHee":8693,"ĠAbu":8694,"Ġgiá»Ĺ":8695,"san":8696,"ĠSaint":8697,"ĠFi":8698,"Tai":8699,"ĠLÄĲBÄĲ":8700,"ĠXp":8701,"ĠBrussels":8702,"Ġsal":8703,"ĠLionel":8704,"Ġcafe":8705,"iki":8706,"ĠEc":8707,"ĠTGÄĲ":8708,"ĠHi":8709,"ĠHinh":8710,"ĠÄĳiá»ģm":8711,"ĠÄĳÃ´la":8712,"ĠLamborghini":8713,"ĠDream":8714,"ĠBangladesh":8715,"ĠGáº·p":8716,"Ġ190":8717,"ĠKÃªnh":8718,"eller":8719,"ĠHK":8720,"ĠAgu":8721,"ĠchÃłi":8722,"oyce":8723,"Å¨":8724,"Zing":8725,"ret":8726,"ooth":8727,"ryst":8728,"ĠXÃ¡c":8729,"GiadinhNet":8730,"ĠPin":8731,"ĠUl":8732,"Uá»ĳng":8733,"Tiáº¿t":8734,"Tuyáº¿n":8735,"Tiáº¿ng":8736,"ChÃºc":8737,"ĠFal":8738,"1945":8739,"ĠBush":8740,"ĠPR":8741,"ĠAdam":8742,"ĠCPTPP":8743,"ĠSudan":8744,"ienthuc":8745,"Pet":8746,"ĠEVFTA":8747,"ĠSy":8748,"Sá»ĳng":8749,"ĠMáº¯t":8750,"tron":8751,"Ġphá»¥ng":8752,"NgÆ°á»£c":8753,"ĠBash":8754,"Tá»Ń":8755,"ĠTak":8756,"EX":8757,"ĠTáº§m":8758,"Ġláº©u":8759,"Ġrá»Ĺng":8760,"af":8761,"ournal":8762,"ĠChuyáº¿n":8763,"ĠgÃło":8764,"ther":8765,"ĠType":8766,"Ġrá»ĳn":8767,"Ġhacker":8768,"ĠchÃ³i":8769,"bá»ĭ":8770,"kinh":8771,"DÄĲ":8772,"atra":8773,"ĠÃ²a":8774,"Ná»Ĺi":8775,"ĠDáº¡":8776,">>>":8777,"castle":8778,"ange":8779,"ĠYu":8780,"Váº»":8781,"ĠTae":8782,"ĠNick":8783,"ĠThoáº¡i":8784,"ĠPi":8785,"Æ¯á»ľ":8786,"chia":8787,"isto":8788,"ĠLÄĲTB":8789,"Káº»":8790,"ĠÄĲáº¿":8791,"quan":8792,"GC":8793,"xcÆ¡":8794,"Ġpen":8795,"ĠCá»©u":8796,"ĠRyan":8797,"Ġvá»ın":8798,"ĠRen":8799,"Ġyáº¿m":8800,"Giá»ĳng":8801,"ĠAbb":8802,"VÃ¹ng":8803,"Philip":8804,"ĠEco":8805,"ĠThá»ĭt":8806,"ĠJuan":8807,"vest":8808,"eman":8809,"ĠHCÄĲ":8810,"ayne":8811,"ĠVAT":8812,"ĠNobel":8813,"ĠVNM":8814,"ĠCarol":8815,"Ġloay":8816,"ĠBXH":8817,"ĠnhÃ³c":8818,"Ġna":8819,"Ġpho":8820,"ĠÄĲáº¹p":8821,"ĠUzbekistan":8822,"ĠVIP":8823,"ĠRog":8824,"ĠKyo":8825,"Ġgram":8826,"Iá»Ĩ":8827,"Ġ114":8828,"ĠSuk":8829,"Ġriáº¿t":8830,"vedev":8831,"ĠIX":8832,"ĠThÃ¬":8833,"ĠAntonio":8834,"udio":8835,"ĠBia":8836,"ĠGAS":8837,"ĠThÃ©p":8838,"ĠDmitry":8839,"egraph":8840,"ĠCá»±":8841,"VnMedia":8842,"ĠSri":8843,"Ġtá»Ľ":8844,"thá»©":8845,"Nguy":8846,"BM":8847,"ĠSlov":8848,"day":8849,"Cap":8850,"ĠCorona":8851,"Ġren":8852,"Ġthiá»ģn":8853,"Ġ111":8854,"Ġacid":8855,"Ġ141":8856,"VÃłi":8857,"ĠCel":8858,"ĠTe":8859,"ĠSwift":8860,"ĠAK":8861,"Háº¡nh":8862,"Arsenal":8863,"cept":8864,"ĠsÃ¡n":8865,"Ġgiun":8866,"AV":8867,"Äĳá»ĭa":8868,"ĠThÆ°a":8869,"ĠDáº«u":8870,"ĠLÃ£":8871,"ĠHá»ķ":8872,"ĠlÃ¡n":8873,"ĠGang":8874,"dragon":8875,"kV":8876,"geria":8877,"ĠRap":8878,"Ġnhung":8879,"ĠOpen":8880,"ĠGab":8881,"ĠCannes":8882,"ÄĳÆ¡n":8883,"ons":8884,"ont":8885,"cÆ°á»Ŀi":8886,"bert":8887,"vin":8888,"Tranh":8889,"ĠHazard":8890,"Ġ210":8891,"ĠtuÃ½p":8892,"Iran":8893,"Di":8894,"ĠbÃ¨o":8895,"hire":8896,"...\".":8897,"ÄĲÃło":8898,"Samsung":8899,"Ġ123":8900,"rom":8901,"ĠCá»Ń":8902,"ĠKhÃ¡c":8903,"ĠLeb":8904,"ĠTÄĲ":8905,"ĠRu":8906,"ĠQueen":8907,"ĠRub":8908,"ĠRai":8909,"VH":8910,"ĠÄĳá»į":8911,"Ġhuyá»ĩt":8912,"má»Ĺi":8913,"ĠJeff":8914,"ĠSerbia":8915,"áº³m":8916,"ĠFuk":8917,"Ġ270":8918,"iPhone":8919,"cháº¥t":8920,"Ġdá»Ļt":8921,"Chuyá»ĥn":8922,"ĠnhÃŃch":8923,"ĠMÃłn":8924,"TÆ¯":8925,"ĠDay":8926,"Ġmá»ĭt":8927,"ĠLas":8928,"iter":8929,"ĠLÃªn":8930,"ĠThÃºc":8931,"Assad":8932,"ĠGiáº¿t":8933,"ĠFre":8934,"ĠÆ¯u":8935,"Kiá»ģu":8936,"Ġbá»¥c":8937,"ĠST":8938,"ghi":8939,"áº¦N":8940,"conom":8941,"ĠValentine":8942,"vÃłng":8943,"Ġcá»Ļ":8944,"ĠMedvedev":8945,"ĠMul":8946,"ĠchÃ¡t":8947,"ÄĲÃ¡m":8948,"ĠÄĲoáº¡n":8949,"ĠrÃ¹ng":8950,"Ġ|":8951,"ĠTower":8952,"ĠSCIC":8953,"Ġná»ī":8954,"ever":8955,"dau":8956,"lopp":8957,"ĠLump":8958,"ĠApp":8959,"ĠXH":8960,"To":8961,"Ãµng":8962,"ĠRolls":8963,"ĠSÃ³ng":8964,"Ġshop":8965,"ĠBÃª":8966,"ĠCharles":8967,"ĠCav":8968,"BÃ£o":8969,"Ġreo":8970,"ĠhiÃªn":8971,"oni":8972,"ĠVinaconex":8973,"Báº¿n":8974,"TVQH":8975,"Ġ117":8976,"ĠtrÃ¡":8977,"ĠBashar":8978,"Ġáº£":8979,"2003":8980,"£m":8981,"www":8982,"ĠGI":8983,"ĠZika":8984,"Pháº£n":8985,"\"-":8986,"Ġcom":8987,"NDÄĲT":8988,"VÃłng":8989,"ĠÄĲáº©y":8990,"oke":8991,"ĠYan":8992,"LED":8993,"Ġ1971":8994,"Táº¡o":8995,"comm":8996,"ĠResort":8997,"ĠSnapdragon":8998,"TÃ¹ng":8999,"Ġháº¯t":9000,"Is":9001,"ĠShang":9002,"NÃ´ng":9003,"ĠChev":9004,"khÃ³":9005,"2001":9006,"hy":9007,"QuÃ½":9008,"ÄĲÃ¡p":9009,"Ġsáº·c":9010,"bá»ı":9011,"ĠhÃ²ng":9012,"ĠHQ":9013,"Ġrá»£n":9014,"ĠCáº¡nh":9015,"ĠPen":9016,"Máº¡nh":9017,"abeth":9018,"ĠThuá»ĳc":9019,"ĠtrÆ°á»Ľng":9020,"Ġgá»įt":9021,"ht":9022,"ĠVinaPhone":9023,"ĠChoi":9024,"ĠUAV":9025,"ĠKá»ĭch":9026,"DS":9027,"Thá»¥y":9028,"ĠGeneva":9029,"ju":9030,"EL":9031,"Ġbáº¹p":9032,"ĠGom":9033,"inet":9034,"Ġup":9035,"ĠDá":9036,"ĠDá»":9037,"Ġcáº¥n":9038,"iá»ĥng":9039,"rystal":9040,"ĠtÆ¡i":9041,"cÃ¢y":9042,"Ġsáº£nh":9043,"Ġmiáº¿u":9044,"ĠTráº£ng":9045,"Ġbai":9046,"Ġlon":9047,"akhstan":9048,"ĠDia":9049,"ĠVui":9050,"ĠAk":9051,"Ġ260":9052,"ká»ĥ":9053,"ĠBTS":9054,"Ġngá»ķn":9055,"áº¢I":9056,"ĠLew":9057,"ĠRad":9058,"ĠSergio":9059,"ĠTráº£i":9060,"ĠBil":9061,"bá»Ļ":9062,"Ġtuá»Ļt":9063,"ráº¥t":9064,"amine":9065,"ĠPhone":9066,"ĠÄĲá»įc":9067,"Ġkhoáº¯n":9068,"reak":9069,"sáº½":9070,"Ġnháº£":9071,"ĠÄĲáº¥y":9072,"ĠbÆ°á»Ľm":9073,"Ġsá»¥c":9074,"ĠFir":9075,"ĠPN":9076,"Ġ280":9077,"jaer":9078,"ĠSports":9079,"ĠLumpur":9080,"ASS":9081,"ÃĲ":9082,"ĠBridge":9083,"ĠRy":9084,"ĠPhá»ĳi":9085,"áº¥ng":9086,"ĠBent":9087,"Ġnguyá»ģn":9088,"ĠHit":9089,"Äĳá»ģ":9090,"120":9091,"\";":9092,"CTnews":9093,"Kienthuc":9094,"Æ°Æ¡u":9095,"ĠOPEC":9096,"Ġhá»ĳc":9097,"ĠnhoÃ¡ng":9098,"ĠJournal":9099,"ĠsÃºp":9100,"Ġbe":9101,"Bay":9102,"ĠrÃ¬nh":9103,"Suá»ĳt":9104,"ĠUá»ĳng":9105,"ĠÄĲTDÄĲ":9106,"ÄĲSPL":9107,"ĠBLHS":9108,"Ġcuá»ĳc":9109,"ĠMÆ°a":9110,"Ġá»Ĳ":9111,"Báº§u":9112,"ĠTO":9113,"ĠTL":9114,"Ġcá»ĳp":9115,"báº£n":9116,"ĠLar":9117,"ÃĢO":9118,"Ġ155":9119,"express":9120,"ĠrÆ°ng":9121,"ĠUBCK":9122,"ĠVik":9123,"Ġseries":9124,"ĠSmith":9125,"Ġroi":9126,"ĠTáº¿":9127,"ĠKhÃ¡n":9128,"ĠLop":9129,"ĠCV":9130,"ington":9131,"ĠNar":9132,"ĠPersie":9133,"ĠKevin":9134,"Nháº¯c":9135,"ĠUp":9136,"CoM":9137,"ĠGhi":9138,"ĠngÃ³i":9139,"Sing":9140,"ĠSáº¯p":9141,"ĠKate":9142,"Ġgiáº¥m":9143,"GTVT":9144,"VÃµ":9145,"ĠPorsche":9146,"Ġgiá»Ł":9147,"CTN":9148,"ĠchiÃªng":9149,"ĠAirways":9150,"ĠCTV":9151,"Ġ126":9152,"ĠquÃŃ":9153,"PLX":9154,"olog":9155,"ĠRáº¡ng":9156,"eres":9157,"ĠInn":9158,"ĠAlgeria":9159,"una":9160,"Quá»·":9161,"ror":9162,"lam":9163,"ĠrÆ°á»£t":9164,"ĠrÃ¡t":9165,"ĠElec":9166,"ĠMÃ¡t":9167,"ĠlÃºt":9168,"WB":9169,"TF":9170,"ĠNhÃ¢m":9171,"ĠAy":9172,"%...":9173,"NGUYá»ĦN":9174,"Ġhen":9175,"ĠRamos":9176,"Ġ118":9177,"Má»ĳi":9178,"ĠDisney":9179,"ĠVirgin":9180,"ĠNghá»ģ":9181,"ĠÃ¡t":9182,"Ġsum":9183,"Honda":9184,"UD":9185,"urt":9186,"PS":9187,"ASEAN":9188,"gov":9189,"rolet":9190,"Thá»ĭt":9191,"ĠPhÃ¡i":9192,"ÄĲá»įc":9193,"ĠYahoo":9194,"ĠXÃºc":9195,"QuÃ¡n":9196,"ĠLife":9197,"ĠKuala":9198,"ĠAston":9199,"Ġngáº«m":9200,"ĠNhá»Ľ":9201,"ĠdÄĥm":9202,"gor":9203,"ĠClub":9204,"á»ĭm":9205,"Ġcá»Ļm":9206,"skjaer":9207,"Æ°á»Ľn":9208,"Ġfile":9209,"Æ°á»£m":9210,"ĠInsider":9211,"ĠIvan":9212,"ChÃŃ":9213,"Can":9214,"Ġ1969":9215,"ĠXÄĥng":9216,"vÃ¬":9217,"alem":9218,"ĠPhÃŃ":9219,"ĠLove":9220,"Ġtrá»ĵ":9221,"org":9222,"Äĳang":9223,"Ġz":9224,"ĠVIC":9225,"Ġnhá»ĩn":9226,"Ġben":9227,"ĠHoÃłnh":9228,"elfie":9229,"ĠBund":9230,"ucker":9231,"Äĳiá»ģu":9232,"Ġom":9233,"ĠMá»ĳi":9234,"ĠStore":9235,"ĠmÃºi":9236,"Há»Ĺ":9237,"Philipp":9238,"axi":9239,"Ġtriá»ģn":9240,"ĠJang":9241,"ĠCook":9242,"Ġfanpage":9243,"1975":9244,"ĠTTT":9245,"GDP":9246,"ĠMA":9247,"ĠXNK":9248,"Ġlive":9249,"Berry":9250,"Ġphai":9251,"ĠCáº¥m":9252,"SH":9253,"ĠUEFA":9254,"PLO":9255,"Ġmá»ĵng":9256,"ĠThiá»ģu":9257,"Khá»ĳi":9258,"eber":9259,"Ġbá»ĭch":9260,"ĠHil":9261,"ĠVNA":9262,"ĠLÃ¡":9263,"Ġmarketing":9264,"ĠTB":9265,"ĠMusic":9266,"ĠShe":9267,"Äĳá»Ļi":9268,"ĠTelegraph":9269,"ĠLáºŃy":9270,"FI":9271,"ĠcÃ¡u":9272,"Ġcháº¯t":9273,"Ġtá»§y":9274,"ĠoÃ¡n":9275,"ĠGun":9276,"cÆ¡n":9277,"ĠMT":9278,"ĠHuynh":9279,"wang":9280,"ĠWoo":9281,"abeu":9282,"ĠKhe":9283,"iller":9284,"Ġjeans":9285,"ĠStan":9286,"las":9287,"ĠKir":9288,"Ġtáº¯n":9289,"ahu":9290,"Thá»ķ":9291,"Ġ1967":9292,"Ġmix":9293,"ĠBat":9294,"Ġdáº«u":9295,"ĠTrÃ¹ng":9296,"etooth":9297,"PhÃºc":9298,"ĠHarvard":9299,"Táº¡m":9300,"ĠNgáº¡n":9301,"giá»¯a":9302,"ĠNgÃ´n":9303,"ĠEliz":9304,"ilo":9305,"ĠYing":9306,"asp":9307,"Ġtháº³m":9308,"hat":9309,"ĠBernabeu":9310,"ĠÄĲáº£m":9311,"ĠBon":9312,"ĠNewcastle":9313,"obs":9314,"ĠxÃ³i":9315,"gy":9316,"Ġxá»īn":9317,"Ġbáº§y":9318,"ĠKlopp":9319,"Ġkali":9320,"ibo":9321,"ĠCá»«":9322,"cent":9323,"Dá»ĭp":9324,"Niá»ģm":9325,"ĠTáº¥m":9326,"iverse":9327,"vÃ¹ng":9328,"ement":9329,"Ġthun":9330,"YÃªn":9331,"ĠliÃªm":9332,"ĠDÄ©nh":9333,"ĠhÃºc":9334,"ĠQual":9335,"loáº¡i":9336,"ĠGiÃ¢y":9337,"garia":9338,"ĠMen":9339,"Ġphá»Ľt":9340,"Ġyoga":9341,"ĠKhoÃ¡ng":9342,"ĠthÃ³c":9343,"Ġláº¡ng":9344,"ĠMet":9345,"ĠTun":9346,"Hiá»ĩu":9347,"Ãį":9348,"ĠNghÄ©":9349,"BÃ³ng":9350,"esta":9351,"Bá»ı":9352,"ĠVnExpress":9353,"ĠPalace":9354,"Ġcas":9355,"ogen":9356,"quy":9357,"ĠYe":9358,"ĠBÃ©o":9359,"ĠTá»ĳc":9360,"ĠKhuáº¥t":9361,"âĢ¦âĢĿ,":9362,"?.":9363,"ĠhÃ£nh":9364,"alty":9365,"ĠNgÆ°u":9366,"esla":9367,"Chuáº©n":9368,"chÃ¢n":9369,"ÄĲáº©y":9370,"ICA":9371,"ĠCBCS":9372,"Ġcau":9373,"Ġ121":9374,"Ġvon":9375,"ThÆ°a":9376,"ĠIndex":9377,"Ġsáº£ng":9378,"ĠHÆ°á»Łng":9379,"Camp":9380,"Äĳáº¥t":9381,"ĠÄĲHCÄĲ":9382,"ĠDá»ĩt":9383,"ĠGor":9384,"ĠCháº¡p":9385,"ĠWan":9386,"dr":9387,"Ġrá»ĵ":9388,"ĠLotte":9389,"ĠMary":9390,"Ġthá»ı":9391,"Ġtháº·ng":9392,"ĠmÃªnh":9393,"ĠDar":9394,"ĠvÆ¡i":9395,"Ġbá»ĭa":9396,"ĠNháº¡":9397,"Ġtrá»Ĺi":9398,"Br":9399,"ĠSmart":9400,"ingroup":9401,"Ãģp":9402,"ĠBÆ°á»Łi":9403,"jo":9404,"Ġnáº¡c":9405,"Ġnem":9406,"ĠPoroshenko":9407,"ĠRay":9408,"lanh":9409,"130":9410,"ĠmáºŃn":9411,"ATGT":9412,"Ġngá»§i":9413,"Thá»ĥ":9414,"ĠÄĲÃ¡p":9415,"pha":9416,"vá»ģ":9417,"abi":9418,"cÄĥn":9419,"ĠLanka":9420,"ĠScott":9421,"online":9422,"ĠvÃŃa":9423,"ĠAguero":9424,"FO":9425,"ĠtÃ²i":9426,"atus":9427,"ĠMÃ£i":9428,"ĠConte":9429,"ĠWilliams":9430,"Ġyá»ĥ":9431,"ĠCastro":9432,"Ìģ":9433,"ĠÄĳá»ĳm":9434,"Ġ1945":9435,"Facebook":9436,"ĠKazakhstan":9437,"Book":9438,"Ġque":9439,"ĠCAH":9440,"uckerberg":9441,"ĠGáº¡o":9442,"Messi":9443,"Indonesia":9444,"Ġráº±m":9445,"win":9446,"xcÆ¡va":9447,"Ġ122":9448,"ĠHá»Ĵ":9449,"ĠThuáº§n":9450,"Royce":9451,"iva":9452,"báº±ng":9453,"ĠthÃ¡n":9454,"káº»":9455,"Quáº£n":9456,"ĠHá»ıi":9457,"quÃª":9458,"ĠDy":9459,"ĠTrá»£":9460,"ĠMS":9461,"Chá»£":9462,"Ġquyá»ĩn":9463,"KhÃ":9464,"JI":9465,"inn":9466,"ĠcÃ¹":9467,"ĠNag":9468,"Ġekip":9469,"ĠTá»Ļi":9470,"ĠHáº¯n":9471,"ĠvÅ©ng":9472,"ĠLebanon":9473,"tech":9474,"ĠHiÃªn":9475,"Ġchat":9476,"cheon":9477,"ĠBTV":9478,"Ġ2050":9479,"ĠHolland":9480,"tho":9481,"girl":9482,"Ġday":9483,"ista":9484,"ĠUniverse":9485,"ĠÄĲHQG":9486,"ĠRomania":9487,"MÃłu":9488,"Ġá»ķi":9489,"ĠThá»Ń":9490,"celand":9491,"Huá»³nh":9492,"irates":9493,"ĠBenzema":9494,"Ġsá»§a":9495,"ĠDÆ°á»Ŀng":9496,"ĠRau":9497,"oko":9498,"Ġresort":9499,"ÄĳÃ¡":9500,"ifi":9501,"tá»ķ":9502,"Tam":9503,"zz":9504,"thá»§":9505,"báº¡n":9506,"ĠLum":9507,"ĠGÃł":9508,"Liá»ĩu":9509,"ÄĲÄĥng":9510,"á»ĮC":9511,"cáº£":9512,"BÃ¹i":9513,"ef":9514,"Cháº¿":9515,"Vinh":9516,"ĠBh":9517,"ĠnÃ¡ch":9518,"ĠDow":9519,"iago":9520,"ĠKHCN":9521,"ĠVCCI":9522,"Ġláº»o":9523,"ĠdÃ£i":9524,"ĠHÄĲT":9525,"ovich":9526,"LÆ°á»£ng":9527,"ĠNhá»±t":9528,"ĠPhn":9529,"ĠFortun":9530,"Philippines":9531,"320":9532,"ĠRodriguez":9533,"thÆ°Æ¡ng":9534,"ĠCit":9535,"ĠKhÃ³a":9536,"Sáº¯p":9537,"ĠIPO":9538,"Äĳáº¡t":9539,"ĠThÃ¡m":9540,"ĠÄĲá»£t":9541,"ĠAj":9542,"CLB":9543,"ĠCháº£i":9544,"sul":9545,"eop":9546,"La":9547,"ÄĲáº¯k":9548,"ĠEPA":9549,"thÃ´n":9550,"avi":9551,"diá»ħn":9552,"ĠchÆ°á»Ľc":9553,"ÄĲá»Ļc":9554,"VietNamNet":9555,"ĠChic":9556,"ĠLÅ©ng":9557,"Ġselfie":9558,"ĠMis":9559,"Sang":9560,"ĠLatinh":9561,"ĠBlues":9562,"ux":9563,"ĠNháº±m":9564,"ÄĲá»ķi":9565,"ĠTorres":9566,"ĠKenn":9567,"Ġ981":9568,"ĠráºŃm":9569,"ĠCarlos":9570,"ĠRem":9571,"ĠFan":9572,"ĠCameron":9573,"ĠGÃ¢y":9574,"ĠdÃŃ":9575,"dautu":9576,"ĠGPLX":9577,"athan":9578,"ĠxÃ¹":9579,"Ġmuá»ĳng":9580,"ĠCenter":9581,"IMF":9582,"ĠJac":9583,"há»ĩ":9584,"bl":9585,"ĠWhite":9586,"DÃłn":9587,"ĠGarden":9588,"HNMO":9589,"ĠDen":9590,"Lá»Ļ":9591,"ĠNÃłng":9592,"Ġthiá»ģu":9593,"Quá»¹":9594,"IVE":9595,"Ġ127":9596,"ADS":9597,"Ġlá»£p":9598,"ĠKn":9599,"ĠTrip":9600,"Ġsá»ī":9601,"ĠBrit":9602,"ĠElizabeth":9603,"Malaysia":9604,"nÆ°á»Ľc":9605,"ĠChen":9606,"ĠZuckerberg":9607,"ĠFBNV":9608,"play":9609,"ennis":9610,"ĠRÄĥng":9611,"ĠgÄĥm":9612,"ĠCK":9613,"CMP":9614,"ĠXVII":9615,"cáºŃu":9616,"ĠGran":9617,"ĠUBKT":9618,"BÃ¡n":9619,"ĠVincom":9620,"ĠWatch":9621,"ĠJoong":9622,"ĠQualcomm":9623,"ĠPap":9624,"ĠmÃ¨":9625,"ĠChiÃªu":9626,"VáºŃn":9627,"ĠIbrahimovic":9628,"ĠhÃ¹m":9629,"wagen":9630,"KVÄĲ":9631,"ĠkhoÃ©t":9632,"ĠChÃ¡y":9633,"thiÃªn":9634,"ĠLÃ£i":9635,"ĠKpop":9636,"ĠTrá»Ł":9637,"olo":9638,"ĠCz":9639,"Ġcáº±m":9640,"ĠTráº§m":9641,"ªu":9642,"bach":9643,"ĠmÃºc":9644,"ĠBulgaria":9645,"Ġtru":9646,"Äĳáº¿n":9647,"rÃºt":9648,"ĠInc":9649,"off":9650,"Ġhan":9651,"©n":9652,"Cá»Ļng":9653,"ĠFu":9654,"aii":9655,"ĠNational":9656,"Cá»Ń":9657,"aph":9658,"ĠPop":9659,"thay":9660,"ima":9661,"ĠrÃ´":9662,"ĠsÃł":9663,"ĠSVÄĲ":9664,"ĠphÃ¡ch":9665,"NATO":9666,"VÆ°á»£t":9667,"ĠGM":9668,"Biá»ĥn":9669,"ĠNorth":9670,"ical":9671,"Ġnháº¹n":9672,"ĠBrown":9673,"ĠChá»įn":9674,").-":9675,"ivia":9676,"ĠHous":9677,"ĠFrancisco":9678,"ĠkÃ¨o":9679,"Ġváº¯cxin":9680,"Ġcasino":9681,"Äĳa":9682,"Singapore":9683,"ĠAth":9684,"TI":9685,"ĠSho":9686,"táº¡m":9687,"ĠBaghd":9688,"ĠGot":9689,"ĠHOÃĢNG":9690,"ĠTony":9691,"Huyá»ĩn":9692,"ĠnCoV":9693,"ĠtÃŃt":9694,"ĠMand":9695,"MI":9696,"Ġquai":9697,"ĠStam":9698,"ĠMario":9699,"Ġnhá»ĳi":9700,"Ġsáº¡p":9701,"Cá»Ńa":9702,"Ġváº·n":9703,"room":9704,"anyahu":9705,"ĠKhÃºc":9706,"160":9707,"Ġ1950":9708,"ĠVingroup":9709,"ĠMonaco":9710,"Tang":9711,"ĠMaps":9712,"ĠSeung":9713,"ĠMiÃªn":9714,"ĠOx":9715,"Ġnáº¥c":9716,"ĠNiá»ģm":9717,"TVS":9718,"tar":9719,"ĠHáº¿t":9720,"ĠxÃª":9721,"chip":9722,"Ġpop":9723,"??":9724,"ĠHá»Ļ":9725,"ĠnhÃºng":9726,"ĠThÃ´i":9727,"ĠngÃºt":9728,"ĠSÆ¡":9729,"Ġwon":9730,"kswagen":9731,"!\"":9732,"ĠSolskjaer":9733,"áº®":9734,"nÃ³i":9735,"Ġ330":9736,"usalem":9737,"egas":9738,"ĠÄĲÃ¡m":9739,"ĠBrent":9740,"Tay":9741,"ThÆ°":9742,"ador":9743,"ĠLaden":9744,"Ġnu":9745,"Ġbá»Ļn":9746,"ÄĲá»ĵ":9747,"Ġmetro":9748,"Ġtáº¥c":9749,"luck":9750,"Ì£":9751,"ĠkÃ¬nh":9752,"áº«ng":9753,"ĠCalisto":9754,"Ġ145":9755,"ĠMoy":9756,"ĠTÆ¡":9757,"CÆ¡n":9758,"ĠFer":9759,"PR":9760,"Ġmáº¥u":9761,"Ġspa":9762,"king":9763,"ĠVar":9764,"ĠABC":9765,"ĠPra":9766,"ĠFul":9767,"Ġ124":9768,"ĠTesla":9769,"Ġgym":9770,"ĠEC":9771,"ĠlÆ°Æ¡n":9772,"Bu":9773,"Ġbody":9774,"biáº¿n":9775,"ĠNetanyahu":9776,"Ġ1965":9777,"ĠCX":9778,"Reuters":9779,"fan":9780,"ĠkhÃ¢m":9781,"ĠrÃªu":9782,"Ġcá»«u":9783,"thony":9784,"oph":9785,"ĠCur":9786,"Ġtá»³":9787,"ais":9788,"ĠCá»ı":9789,"ĠPhilip":9790,"ello":9791,"cáº§u":9792,"well":9793,"ode":9794,"ĠChicago":9795,"Ġgá»Ŀ":9796,"Ġ__":9797,"ĠbÃ³i":9798,"ĠÄĳÃ£ng":9799,"Ġvá»¥ng":9800,"Ġchao":9801,"Ġstartup":9802,"ĠCSHS":9803,"ĠTHá":9804,"ĠTHá»":9805,"Ġháº±n":9806,"Ġcháº¯p":9807,"celotti":9808,"New":9809,"ĠCzech":9810,"ĠNNPTNT":9811,"ĠAngelina":9812,"GÄĲVN":9813,"Ġnháº¥p":9814,"Ráº¡ng":9815,"quáº£":9816,"ĠÆ°":9817,"Chá»įn":9818,"ĠRaj":9819,"LIVE":9820,"ĠChiÃªm":9821,"ĠÄĲKVÄĲ":9822,"ĠIceland":9823,"ĠCamry":9824,"ĠCru":9825,"Ġthá»Ľt":9826,"Bl":9827,"ĠDep":9828,"XP":9829,"ology":9830,"eu":9831,"ĠKos":9832,"Ġ1962":9833,"750":9834,"ĠMSN":9835,"ĠWood":9836,"ĠJerusalem":9837,"ká»³":9838,"Ġtá»£n":9839,"ĠBlackBerry":9840,"Hano":9841,"Mang":9842,"uador":9843,"Ġ119":9844,"ĠÃģng":9845,"ĠvÃ£i":9846,"ĠLaz":9847,"ĠLáº¡ch":9848,"Triá»ĩu":9849,"ĠbÃ¹a":9850,"ĠBoy":9851,"list":9852,"Sai":9853,"eed":9854,"ĠNá»Ĺi":9855,"ĠBob":9856,"ĠTime":9857,"ĠEmirates":9858,"Ġcáº³ng":9859,"ĠÄĲáº«y":9860,"ision":9861,"ĠGirl":9862,"ator":9863,"ĠMb":9864,"had":9865,"esliga":9866,"qui":9867,"ĠgiÄĥng":9868,"owski":9869,"giai":9870,"iy":9871,"ĠcÃ²ng":9872,"Kháº£":9873,"ĠHÃ¡t":9874,"ĠHenry":9875,"DÆ°":9876,"ĠJackpot":9877,"ĠLÃłnh":9878,"Tháº¯ng":9879,"Ġnga":9880,"ĠBahr":9881,"Ġthá»ĩ":9882,"ĠsÃ¡":9883,"sterdam":9884,"Ġ165":9885,"LÃłng":9886,"mark":9887,"giao":9888,"dÃ¢n":9889,"fÃ©":9890,"GAP":9891,"Cáº©m":9892,"ois":9893,"ken":9894,"ĠMirror":9895,"ĠthuyÃªn":9896,"ĠKhÃ¡ng":9897,"ĠThÃ´n":9898,"avel":9899,"ĠStephen":9900,"ĠPanama":9901,"Ġvest":9902,"ĠSecret":9903,"izLIVE":9904,"Ġ1964":9905,"Ġtanh":9906,"Ġ132":9907,"Ġdáº¥n":9908,"Láº¡i":9909,"Ġ1966":9910,"ylv":9911,"ĠNicolas":9912,"ĠDOJI":9913,"ĠChá»©c":9914,"ĠSevilla":9915,"ĠsÃ¡o":9916,"ĠCAP":9917,"ĠdÃ¬u":9918,"osti":9919,"ĠHor":9920,"boy":9921,"Truy":9922,"ĠRoyal":9923,"Trá»±c":9924,"thÃ´ng":9925,"ĠNá»ķi":9926,"ÄĲÃłm":9927,"erbai":9928,"ĠSanta":9929,"ĠMass":9930,"Fast":9931,"ĠJetstar":9932,"ĠYoo":9933,"ĠSÃª":9934,"ĠRIA":9935,"ĠkhÃ³m":9936,"Iáº¾N":9937,"Ġ365":9938,"\":":9939,"áºłNH":9940,"ĠEric":9941,"name":9942,"Ġpro":9943,"Ġsá»Ļ":9944,"ĠthÃ©t":9945,"SM":9946,"Ġdáº«m":9947,"ĠYingluck":9948,"HD":9949,"ĠBluetooth":9950,"cÅ©ng":9951,"BÃŃch":9952,"Times":9953,"ráºŃp":9954,"»Ĩ":9955,"á»Ĩ":9956,"ĠNoo":9957,"Ġ1954":9958,"Hanoinet":9959,"quá»ĳc":9960,"Liverpool":9961,"Máº¥t":9962,"Ġnhá»Ŀn":9963,"chÃŃnh":9964,"dro":9965,"má»Ł":9966,"ĠThuyáº¿t":9967,"ĠKelly":9968,"Tháº§n":9969,"ĠMega":9970,"ĠMasan":9971,"ij":9972,"Binh":9973,"ivo":9974,"áº¢O":9975,"ĠPenn":9976,"ĠliÃªu":9977,"cá»©":9978,"ĠcÄĥm":9979,"ĠANT":9980,"ĠnhÄ©":9981,"ĠKam":9982,"ĠHTV":9983,"ĠChevrolet":9984,"QuáºŃn":9985,"CATP":9986,"ault":9987,"kei":9988,"ĠÄĲÃª":9989,"ĠStamford":9990,"ĠAnn":9991,"Ġtrá»£n":9992,"Ġváº¿":9993,"ĠHir":9994,"ĠHawaii":9995,"ĠGon":9996,"ĠKhiáº¿t":9997,"ĠÃĬ":9998,"erbaijan":9999,"ĠAB":10000,"ĠBG":10001,"Ma":10002,"Ġsá»įc":10003,"appy":10004,"Æ¯á»ľNG":10005,"ĠSteven":10006,"ĠHDBank":10007,"Äĳá»©ng":10008,"ĠGener":10009,"utter":10010,"ater":10011,"ĠMÃ¨o":10012,"Nhu":10013,"Vua":10014,"Ġcl":10015,"tainment":10016,"mes":10017,"xÃª":10018,"ĠSalah":10019,"ĠNáº±m":10020,"iag":10021,"HT":10022,"Ġ138":10023,"há»£p":10024,"ĠBÃ¹":10025,"¨C":10026,"ĠkÃ¨n":10027,"Ġgá»ĵng":10028,"Ġcáº·n":10029,"ĠMurray":10030,"ĠOlympia":10031,"ĠSouthampton":10032,"Ġgames":10033,"Jet":10034,"Ġboy":10035,"Ġblue":10036,"ĠThuáºŃt":10037,"ĠBá»Ļi":10038,"Toy":10039,"ĠPitt":10040,"Ġvá»¥t":10041,"VÆ°Æ¡ng":10042,"CI":10043,"ÃĻNG":10044,"ĠngoÃ£n":10045,"ĠHanoi":10046,"Rau":10047,"OR":10048,"HNX":10049,"Ġdá»ım":10050,"ĠBoris":10051,"ĠCong":10052,"ĠDev":10053,"quÃ¡":10054,"ĠBahrain":10055,"Ang":10056,"ĠNapoli":10057,"edy":10058,"ĠLá»Ľp":10059,"ĠTrÃ¡nh":10060,"Nhá»Ľ":10061,"Há»¯u":10062,"Ġsáº§m":10063,"ĠTHANH":10064,"LáºŃp":10065,"Ġpoly":10066,"ĠGÃ³i":10067,"ĠbÃ¹i":10068,"ĠHáº¡n":10069,"ĠSap":10070,"...\"":10071,"ĠHouse":10072,"ĠRover":10073,"Lá»«a":10074,"Ġbá»Ŀi":10075,"ĠMáºŃt":10076,"ĠTKV":10077,"ĠBundesliga":10078,"Ġmar":10079,"ĠLady":10080,"Ġcover":10081,"ĠMatt":10082,"Ġtá»Ļt":10083,"Ġmg":10084,"ĠVA":10085,"ĠMá»ĭch":10086,"ĠChá»©":10087,"Na":10088,"regas":10089,"ĠmÃ¡ch":10090,"ĠAncelotti":10091,"vÆ°á»£t":10092,"ĠTerry":10093,"ĠFashion":10094,"ĠphÆ°á»£ng":10095,"ĠMá»Ŀi":10096,"ĠHSBC":10097,"Ġ@":10098,"idi":10099,"ware":10100,"Ġlivestream":10101,"Ġ225":10102,"Ġ389":10103,"Ġdong":10104,"ental":10105,"cr":10106,"Dá»±a":10107,"ChÃ¡y":10108,"ĠHot":10109,"ĠAndrew":10110,"Dáº¥u":10111,"ĠCrystal":10112,"Ġháº¥n":10113,"Ġmui":10114,"idel":10115,"tÃ´ng":10116,"ĠÄĳong":10117,"ĠVig":10118,"ĠExc":10119,"ĠBieber":10120,"ĠTab":10121,"Ġhá»ħ":10122,"Nhiá»ĩm":10123,"TAND":10124,"ĠEntertainment":10125,"Tok":10126,"ĠVes":10127,"Ġgá»Ľm":10128,"ĠADB":10129,"ĠTuyá»ĩt":10130,"thÆ°á»Ŀng":10131,"Ġtrailer":10132,"ĠChe":10133,"Fed":10134,"ĠTáº£":10135,"ÃŃa":10136,"ĠLamp":10137,"Ġá»ī":10138,"Ġ737":10139,"Ġchá»īn":10140,"Ġsáº£":10141,"Ġngáº©n":10142,"ethan":10143,"ĠOff":10144,"angnam":10145,"ĠEcuador":10146,"real":10147,"ĠTháºŃp":10148,"ĠgÆ°á»£ng":10149,"ĠDef":10150,"tiáº¿p":10151,"itar":10152,"light":10153,"kav":10154,"ĠÃ¬":10155,"for":10156,"ĠTer":10157,"ĠChÃłm":10158,"ĠHÃĢ":10159,"uat":10160,"Ãĵ":10161,"Ġcent":10162,"ĠGiá»¯":10163,"ĠtrÃ³c":10164,"Ġcheck":10165,"menia":10166,"ĠlÃ¬a":10167,"ĠhÃ²m":10168,"ĠXiaomi":10169,"chá»ĵng":10170,"Ġsil":10171,"Ġyou":10172,"nguá»ĵn":10173,"âĢĿ./.":10174,"ĠRonald":10175,"ope":10176,"ĠbáºŃy":10177,"ĠBy":10178,"ĠAVG":10179,"arth":10180,"Ġ134":10181,"ĠquáºŃy":10182,"MTTQ":10183,"ĠTNCS":10184,"ĠmÆ°á»Ľn":10185,"Ġkhay":10186,"Ġmá»Ľ":10187,"ĠGiáº½":10188,"Ġnhuáº§n":10189,"ĠXperia":10190,"ĠmÆ°á»Ľt":10191,"RI":10192,"ĠÂ»":10193,"ĠMá»ħ":10194,"hani":10195,"Khoáº£nh":10196,"lyn":10197,"Thuá»ĳc":10198,"Ġláº«m":10199,"BNN":10200,"Miá»ģn":10201,"ĠStand":10202,"ĠXinh":10203,"ĠLÃ´i":10204,"ashford":10205,"ÄĲá»ĭnh":10206,"ĠCy":10207,"chÆ¡i":10208,"ĠxoÄĥn":10209,"ĠUPCoM":10210,"Ġpenalty":10211,"ĠnhÅ©":10212,"Ãģnh":10213,"ĠÄĲÃ³ng":10214,"Ġgá»ī":10215,"Ġgáº¯p":10216,"mun":10217,"Bo":10218,"ngh":10219,"Ġtráº§y":10220,"ĠGeun":10221,"ĠBá»ĵng":10222,"ĠLáº¯c":10223,"ĠlÃŃu":10224,"Báº¡ch":10225,"ĠVEC":10226,"ĠSenkaku":10227,"yeong":10228,"ÄĲinh":10229,"ĠPau":10230,"ĠNAM":10231,"ĠKane":10232,"ĠquÄĥng":10233,"AE":10234,"aris":10235,"Ġdáº³ng":10236,"ollah":10237,"ĠLukaku":10238,"ĠThá»īnh":10239,"KL":10240,"Toyota":10241,"ĠÄĲáº¡m":10242,"ĠHollande":10243,"ĠhÃ¢n":10244,"Ġgo":10245,"ĠNá»ģn":10246,"ĠZen":10247,"ĠXS":10248,"Ġpiano":10249,"ĠNgoan":10250,"ĠAmsterdam":10251,"ffe":10252,"ĠPenh":10253,"ĠrÃ´n":10254,"ĠJay":10255,"ĠMá»ı":10256,"Mong":10257,"ĠAnthony":10258,"ures":10259,"ĠsÃ¹i":10260,"It":10261,"vÃło":10262,"ĠrÆ¡":10263,"450":10264,"Ġ1963":10265,"ira":10266,"ĠMoyes":10267,"ĠbÃ¡i":10268,"asa":10269,"ĠchÃ´m":10270,"ĠVitamin":10271,"ĠlÃ©p":10272,"duc":10273,"COP":10274,"Ġáº":10275,"há»ģnh":10276,"Ġnháº½":10277,"EV":10278,"aren":10279,"back":10280,"bá»ĩnh":10281,"Trá»Ŀi":10282,"ĠMata":10283,"DR":10284,"?\",":10285,"Ġteo":10286,"Ġáº¢NH":10287,"ĠVios":10288,"ÃĤM":10289,"TTS":10290,"ĠGala":10291,"ĠLCD":10292,"ĠPed":10293,"ÄĲÃ³ng":10294,"hen":10295,"ĠJess":10296,"ĠVNCB":10297,"Ġgiáº§y":10298,"aut":10299,"ĠNVCC":10300,"Ġxui":10301,"ÄĲáº·ng":10302,"ĠExpress":10303,"Ġkhuynh":10304,"ĠWeek":10305,"ĠPes":10306,"ĠngÃ¹ng":10307,"ĠVid":10308,"ĠÄĳá»Ļn":10309,"ĠOceanBank":10310,"Ġplay":10311,"lat":10312,"CLOS":10313,"ĠLHPN":10314,"Ġphá»ĵn":10315,"háº¡":10316,"ĠAuto":10317,"ĠTele":10318,"tay":10319,"ze":10320,"Ġáº¤t":10321,"Ká»¹":10322,"book":10323,"obe":10324,"ĠCharlie":10325,"Iá»Ģ":10326,"ĠRain":10327,"ĠCPH":10328,"Ġnhá»Ľt":10329,"ĠnguÃ´i":10330,"giáº¿t":10331,"Ġxoang":10332,"sin":10333,"ĠBaghdad":10334,"ĠDeir":10335,"tha":10336,"ĠBak":10337,"ĠLive":10338,"can":10339,"ĠsÃ²":10340,"ĠTao":10341,"á»¥y":10342,"Ġmáº©u":10343,"ÄĲá»£t":10344,"HP":10345,"ĠInvest":10346,"Dáº«n":10347,"ĠGiáº£":10348,"IB":10349,"ĠSay":10350,"ĠmÃło":10351,"ĠxÃ²e":10352,"ĠIncheon":10353,"teur":10354,"lÃ´":10355,"Tinh":10356,"ĠFranco":10357,"aster":10358,"ĠÄĲK":10359,"Ġcháº§n":10360,"ĠAzerbaijan":10361,"ĠDragon":10362,"cÃ¡":10363,"Ġview":10364,"ĠJobs":10365,"view":10366,"ĠÄĲáº·t":10367,".)":10368,"ĠLopez":10369,"ĠCard":10370,"ĠATVS":10371,"Cáº£i":10372,"EE":10373,"Ġsá»¯ng":10374,"ĠPhnom":10375,"ĠCentral":10376,"Ġkn":10377,"ĠArmenia":10378,"Giá»įng":10379,"ST":10380,"Ġngá»£p":10381,"ĠBruno":10382,"ute":10383,"Ġoff":10384,"ĠCNVCLÄĲ":10385,"ĠUnivers":10386,"ONG":10387,"ĠtÃºm":10388,"ICTnews":10389,"ĠhÄĥm":10390,"Ġpháº¥t":10391,"Ġbiáº¿ng":10392,"âĢ¦).":10393,"IDEO":10394,"ĠNguyen":10395,"ject":10396,"sy":10397,"ĠMaduro":10398,"Ġphiá»ĩn":10399,"Ġoanh":10400,"ĠLight":10401,"ĠOt":10402,"ĠÄĲÃ¡n":10403,"ĠSanh":10404,"Ngá»ĵi":10405,"Táº¥m":10406,"ize":10407,"ading":10408,"ĠTTXH":10409,"Google":10410,"sp":10411,"ĠÄĳÃ¹ng":10412,"otelli":10413,"ĠBÃłu":10414,"Ġtráº§u":10415,"ĠVPBank":10416,"ĠCá»ĵn":10417,"My":10418,"ĠCHQS":10419,"ĠWayne":10420,"ĠPot":10421,"ĠSwan":10422,"ĠÄĲá»ķng":10423,"Ngáº¯m":10424,"ĠAst":10425,"ĠDC":10426,"nger":10427,"ĠSter":10428,"ĠRS":10429,"ĠcÆ°á»¡i":10430,"Sp":10431,"lá»Ľp":10432,"Australia":10433,"ĠGolden":10434,"phÃ²ng":10435,"Ġ;":10436,"ĠVolkswagen":10437,"»Ľ":10438,"á»Ľ":10439,"athon":10440,"ĠBVTV":10441,"ĠVegas":10442,"Cad":10443,"ild":10444,"ĠKhÃ¡":10445,"Ġhá»Łi":10446,"ĠJane":10447,"emy":10448,"ĠrÃ¢m":10449,"fia":10450,"ĠPA":10451,"Ġtab":10452,"ĠVÄĤN":10453,"ĠLock":10454,"ĠNev":10455,"ĠArsen":10456,"inch":10457,"tháº¿":10458,"Ġtrá»įc":10459,"no":10460,"pháº§n":10461,"usse":10462,"bom":10463,"ĠTáº¡ng":10464,"tri":10465,"agan":10466,"ĠkÃ©n":10467,"Ná»ķi":10468,"Ġ#":10469,"ĠNovosti":10470,"ĠÃ³i":10471,"ĠxÃ³c":10472,"nia":10473,"bul":10474,"irus":10475,"Ġmo":10476,"âĢĺ":10477,"ĠCoca":10478,"wich":10479,"sao":10480,"Ġkiá»ĥng":10481,"ĠKCB":10482,"Ġváº£y":10483,"ĠGomez":10484,"inc":10485,"ĠLab":10486,"ĠLumia":10487,"Ġrapper":10488,"ĠEurozone":10489,"ĠIT":10490,"ĠIv":10491,"Ġsáº£i":10492,"oda":10493,"ĠAp":10494,"ĠÃĶn":10495,"Xu":10496,"ĠtrÃłm":10497,"ĠTHADS":10498,"cá»±u":10499,"otos":10500,"ĠHoldings":10501,"manuel":10502,"Bá»¯a":10503,"Ġtruáº¥t":10504,"sáº£n":10505,"ĠnhÃ¡c":10506,"iri":10507,"Pha":10508,"ĠQLDA":10509,"ĠÄĲau":10510,"Ġsolo":10511,"Ġsi":10512,"KhÃ¡n":10513,"ĠFabregas":10514,"ĠhÃº":10515,"ough":10516,"Lam":10517,"ĠLáº¡nh":10518,"ĠFood":10519,"ĠCI":10520,"»ī":10521,"á»ī":10522,"ABank":10523,"Plus":10524,"TTH":10525,"nÆ¡i":10526,"Ġká»ģnh":10527,"Ġ129":10528,"Iá»Ĥ":10529,"Ġlim":10530,"ĠMosul":10531,"BGD":10532,"ĠMá»Ļng":10533,"El":10534,"Pod":10535,"CÃłng":10536,"ĠsÃ³i":10537,"ĠÄ©":10538,"ĠHum":10539,"HAG":10540,"tÃ¢m":10541,"ushima":10542,"Ġbáº¥p":10543,"'),":10544,"chá»ĳng":10545,"vua":10546,"Ġvá»ĩt":10547,"ĠTimor":10548,"QU":10549,"ĠphÃ¨n":10550,"ĠAnna":10551,"apan":10552,"ĠTá»ī":10553,"ĠRafael":10554,"ds":10555,"ĠRoberto":10556,"ĠCL":10557,"CTCK":10558,"Ġchá»ķi":10559,"Â²":10560,"ĠTÃºc":10561,"ĠNikkei":10562,"ĠlÃ¹n":10563,"Giang":10564,"QP":10565,"Ġcomp":10566,"ĠPasteur":10567,"ĠFr":10568,"pearl":10569,"bar":10570,"hÃ³i":10571,"adona":10572,"ĠSnow":10573,"VFF":10574,"Ġ370":10575,"ĠHarris":10576,"ĠSeries":10577,"Lee":10578,"tÃłi":10579,"ĠTik":10580,"ĠMartial":10581,"Ġcáº±n":10582,"ĠHart":10583,"Ġderby":10584,"Ġnoi":10585,"ĠChar":10586,"ĠLind":10587,"ula":10588,"Mart":10589,"ĠGareth":10590,"ĠMichel":10591,"HÆ°ng":10592,"ÃĢI":10593,"ĠLaw":10594,"ĠKai":10595,"uiz":10596,"trick":10597,"ĠXung":10598,"sÃ¡ng":10599,"Ġnáº¯n":10600,"Chá»ĳng":10601,"ĠETF":10602,"tá»ĳ":10603,"§i":10604,"ĠKore":10605,"Ġhat":10606,"ĠÄĳá»Ĺi":10607,"Ġcá»Ńu":10608,"2002":10609,"ĠFil":10610,"ĠCle":10611,"Ġ850":10612,"ĠCáº©n":10613,"ĠCour":10614,"rique":10615,"Ġsáº£y":10616,"iez":10617,"chuyÃªn":10618,"ĠCNLÄĲ":10619,"inson":10620,"ĠMÃ¡c":10621,"ĠLes":10622,"Ġis":10623,"Ġtráº»o":10624,"ĠPerez":10625,"Ser":10626,"Ġtáº±m":10627,"Ġstatus":10628,"ĠPre":10629,"Ġhá»Ŀn":10630,"ĠKids":10631,"Ġcá»©a":10632,"Ġáº¯p":10633,"uthi":10634,"Ġhanh":10635,"ĠChristian":10636,"Thá»ıa":10637,"stock":10638,"Háº±ng":10639,"aine":10640,"Ġchá»Ļi":10641,"bá»ĳ":10642,"ĠToshi":10643,"ĠAbdul":10644,"ĠngÃ³t":10645,"Post":10646,"ĠKenya":10647,"ngoÃłi":10648,"Campuchia":10649,"ĠMarvel":10650,"ĠnÃ´i":10651,"own":10652,"káº¿t":10653,"ĠChanel":10654,"iko":10655,"ĠHim":10656,"dd":10657,"ĠrÃª":10658,"htt":10659,"ĠhÅ©":10660,"ĠVirginia":10661,"Ġvá»¯a":10662,"ĠvÃ²":10663,"ĠWave":10664,"iti":10665,"ÄĲau":10666,"NSÆ¯T":10667,"ná»ķi":10668,"ĠtÃ¬":10669,"ĠEdward":10670,"ingham":10671,"ĠhÃª":10672,"ĠHáº¡ng":10673,"Phá»ĳ":10674,"khÃ¡ch":10675,"NEWS":10676,"Ġ136":10677,"MINH":10678,"cÆ°á»Ľp":10679,"Ġnham":10680,"ĠHugo":10681,"ĠrÃłnh":10682,"trÆ°á»Ŀng":10683,"Ġ720":10684,"enna":10685,"ser":10686,"VND":10687,"ĠMohammed":10688,"ĠCáº¥n":10689,"Vai":10690,"ĠFull":10691,"ienco":10692,"Giá»¯":10693,"LÃ¡":10694,"ĠRet":10695,"Ġváº¡t":10696,"ullah":10697,"Ġngá»Ńi":10698,"ĠRol":10699,"GÃ¢y":10700,"Ġxy":10701,"ĠHT":10702,"trung":10703,"GÆ°Æ¡ng":10704,"ĠErik":10705,"ĠTelecom":10706,"ĠKum":10707,"tháº§y":10708,"ĠnhÃ´":10709,"Äĳáº¡o":10710,"ĠLampard":10711,"ĠMusk":10712,"arma":10713,"Asia":10714,"rent":10715,"bay":10716,"ĠnhÃ¡y":10717,"FDI":10718,"ĠvÃ£ng":10719,"VA":10720,"ĠRashford":10721,"ÃĴ":10722,"...âĢĿ":10723,"Â°":10724,"Donald":10725,"ĠDol":10726,"fer":10727,"ĠSCMP":10728,"ĠColor":10729,"work":10730,"tim":10731,"ĠbÃ¨n":10732,"asaki":10733,"¬a":10734,"ChÃło":10735,"isia":10736,"HÄĲXX":10737,"ĠBright":10738,"ĠCNBC":10739,"Ġblock":10740,"ĠEmmanuel":10741,"Ġ131":10742,"SDÄĲ":10743,"ĠnhÃ²a":10744,"ĠBá»ı":10745,"quÃ¡i":10746,"ĠGCN":10747,"ict":10748,"NSND":10749,"ĠphÃ¬nh":10750,"ĠBVÄĲK":10751,"PhÃ¡o":10752,"ĠKN":10753,"ĠBoston":10754,"anka":10755,"ĠAndy":10756,"ĠFidel":10757,"ĠLuÃ´ng":10758,"ĠRome":10759,"ĠMohamed":10760,"LT":10761,"tham":10762,"ĠAmerican":10763,"Ġbá»£":10764,"qa":10765,"ĠsÃłm":10766,"Ġvali":10767,"Ġbuá»ĳt":10768,"ĠThÃ¢m":10769,"phiÃªn":10770,"Ġcáº¡p":10771,"Ġháº«ng":10772,"ĠHPG":10773,"±a":10774,"ĠÄĲÃ¨o":10775,"ĠSTB":10776,"Ġ139":10777,"ĠtÃ©p":10778,"Ġthá»ıi":10779,"upe":10780,"cert":10781,"ĠYeon":10782,"ĠDiam":10783,"TrÃ¬nh":10784,"Ġ133":10785,"ĠHÄĲTV":10786,"uatin":10787,"xa":10788,"ĠcÃµng":10789,"Ġváº§y":10790,"Ġchá»Ľ":10791,"ĠSk":10792,"ĠmAh":10793,"ĠHass":10794,"ĠSuy":10795,"jamin":10796,"osite":10797,"Ġ999":10798,"ersburg":10799,"DM":10800,"ĠSÃ¹ng":10801,"Ġdáº»":10802,"esus":10803,"Air":10804,"oiduatin":10805,"ThÃ¢n":10806,"cop":10807,"ĠBai":10808,"ĠStandard":10809,"ÄĳÃło":10810,"ĠVÄĲQG":10811,"ĠKhá»ķng":10812,"CÃ¡nh":10813,"ĠHuyáº¿t":10814,"ĠBrook":10815,"ĠÃĲáº£ng":10816,"eresa":10817,"box":10818,"ĠKhal":10819,"ĠTrai":10820,"zh":10821,"ĠKhan":10822,"hoa":10823,"ibe":10824,"ĠVá":10825,"GM":10826,"ĠMichelle":10827,"ĠArena":10828,"ĠVá»":10829,"TÃº":10830,"ĠmÃ³":10831,"ĠBC":10832,"omo":10833,"TPP":10834,"ĠrÃºng":10835,"ĠInnova":10836,"aska":10837,"ĠTÃ¡i":10838,"ĠGPS":10839,"ĠBST":10840,"ĠIsland":10841,"cl":10842,"Ġ146":10843,"ĠSXH":10844,"Ġthá»ım":10845,"chim":10846,"NghÄ©a":10847,"ĠTechn":10848,"Quyá»ģn":10849,"tai":10850,"ĠCÆ¡n":10851,"Email":10852,"ĠCab":10853,"ĠÄĲS":10854,"ĠPCTN":10855,"ĠTouch":10856,"ĠTi":10857,"Ġváº§n":10858,"war":10859,"ĠXoÃłi":10860,"ĠGian":10861,"ound":10862,"ben":10863,"ÄĲá»Ŀi":10864,"Am":10865,"wait":10866,"ĠFrance":10867,"ĠmÆ°á»Ľp":10868,"ĠFri":10869,"ĠSaf":10870,"Ġnom":10871,"ĠHab":10872,"loud":10873,"sÄĥn":10874,"Ġgameshow":10875,"ĠMoz":10876,"Ġxuyáº¿n":10877,"Hiá»ĥu":10878,"ĠLB":10879,"Ġráº§u":10880,"ĠnhÃ¡o":10881,"ĠCairo":10882,"ĠGeorgia":10883,"LÃ¢u":10884,"aux":10885,"ĠCarter":10886,"cu":10887,"ĠNgá»ĵi":10888,"dong":10889,"Há»ıi":10890,"ĠABS":10891,"ĠNhan":10892,"áºłI":10893,"ĠBB":10894,"ĠMáº¥t":10895,"ĠDig":10896,"ĠsÃłi":10897,"ĠhÃ£n":10898,"ĠBali":10899,"RA":10900,"Ġcháº¥u":10901,"Ġhá»ķi":10902,"rÃ´":10903,"Cadn":10904,"âĢĿ!":10905,"ĠEun":10906,"áºµm":10907,"Ġit":10908,"gu":10909,"ĠHigh":10910,"ĠCarolina":10911,"ĠNgá»±":10912,"LD":10913,"ĠKey":10914,"board":10915,"SÆ°":10916,"IG":10917,"Ġ167":10918,"ĠSÃłn":10919,"ĠHamas":10920,"Ġáº¤y":10921,"GV":10922,"ngÃ´i":10923,"ĠTáº¯c":10924,"ool":10925,"ĠPier":10926,"ĠGÃ¡i":10927,"ĠFortuner":10928,"ting":10929,"tÃŃn":10930,"ĠYas":10931,"ĠFut":10932,"CÆ°á»Ľp":10933,"ĠVÆ°Æ¡n":10934,"ĠDáº¥u":10935,"BizLIVE":10936,"VÆ°á»Ŀn":10937,"Ġ??":10938,"Un":10939,"ĠBrom":10940,"650":10941,"Ġ144":10942,"ĠvÃ©n":10943,"ĠBamb":10944,"ĠZhang":10945,"ĠThuyá»ģn":10946,"ĠRon":10947,"ĠDoji":10948,"nÃ©m":10949,"Khoa":10950,"vietnam":10951,"Su":10952,"ĠnÃ¡u":10953,"dÆ°á»Ľi":10954,"ĠTar":10955,"Nháº¥n":10956,"ĠFire":10957,"ĠVÆ°á»£t":10958,"ĠDáº£i":10959,"gmail":10960,"Ġfol":10961,"ĠBaltic":10962,"ĠQUAN":10963,"ĠDS":10964,"Ġurani":10965,"ĠCamera":10966,"BHXH":10967,"ĠLÃ¡t":10968,"allad":10969,"ior":10970,"ills":10971,"ĠDal":10972,"nhÆ°ng":10973,"Ġstyle":10974,"ĠLÆ°á»Ľi":10975,"ĠPhill":10976,"ĠJoseph":10977,"Ã³e":10978,"ĠCout":10979,"Bra":10980,"Ġvá»«ng":10981,"Ġhá»¥i":10982,"ĠChanh":10983,"Dav":10984,"ĠHat":10985,"ĠSher":10986,"ÄĲiá»ĥn":10987,"Ġngá»ĳc":10988,"underland":10989,"ĠDT":10990,"ĠhÃ¨n":10991,"ĠTU":10992,"ĠTáº£o":10993,"ĠGil":10994,"Ġxá»ĩ":10995,"tÃ´i":10996,"ĠFukushima":10997,"Ġnhá»īnh":10998,"iane":10999,"ĠSlovakia":11000,"ĠTown":11001,"rat":11002,"ĠVinpearl":11003,"quang":11004,"etta":11005,"uoiduatin":11006,"tom":11007,"Ġgáº¡":11008,"ĠFel":11009,"ĠDailymail":11010,"Ġbáº§n":11011,"oud":11012,"ĠSea":11013,"FS":11014,"ĠXá»©":11015,"Ġcá»¯u":11016,"ĠOm":11017,"Háº¿t":11018,"ĠHá»·":11019,"ĠAbram":11020,"ethanol":11021,"ĠGaz":11022,"ĠlÃªnh":11023,"ĠcÃłphÃª":11024,"Ġ340":11025,"ĠVinas":11026,"NÃłng":11027,"ĠSiu":11028,"iezmann":11029,"TÆ°á»Ľng":11030,"Gá»Ńi":11031,"ĠDá»±a":11032,"sá»ĳc":11033,"CÄĥng":11034,"Ġnhá»į":11035,"ĠGaga":11036,"apixel":11037,"ĠAnt":11038,"kWh":11039,"Ġnit":11040,"ĠJoon":11041,"ĠnghÄ©nh":11042,"LÃ£i":11043,"ĠManuel":11044,"ĠphÆ°á»£t":11045,"ĠBenjamin":11046,"bridge":11047,"ĠWeibo":11048,"ĠTrá»ĵng":11049,"Diá»ĩn":11050,"atin":11051,"Ġmeg":11052,"ĠBkav":11053,"ĠCiv":11054,"ĠPay":11055,"nghi":11056,"ĠTáº§ng":11057,"Ġ185":11058,"stem":11059,"MÃ£":11060,"vá»ĳn":11061,"stanbul":11062,"ĠSor":11063,"appe":11064,"Ġgl":11065,"Ukrain":11066,"ĠRÃło":11067,"ĠCarr":11068,"140":11069,"CEO":11070,"ĠSab":11071,"Ġ1961":11072,"LÅ©":11073,"ĠmÄ©":11074,"Sá»¯a":11075,"ĠPNJ":11076,"BÃ£i":11077,"estr":11078,"ĠMarcel":11079,"Ġfutsal":11080,"ĠlÄĥm":11081,"Ġduá»ĩ":11082,"ĠKeangnam":11083,"ĠhÆ°Æ¡u":11084,"ĠOsaka":11085,"Ġphui":11086,"tinh":11087,"ÄĲáº·t":11088,"Ġnhuá»ĩ":11089,"LG":11090,"Ġmag":11091,"ĠTASS":11092,"EUT":11093,"ohn":11094,"!?":11095,"ĠQÄĲND":11096,"Ġ380":11097,"mÃ¡y":11098,"...).":11099,"ĠHC":11100,"ĠGas":11101,"ĠNá»¥":11102,"Ġ1959":11103,"ĠKab":11104,"colate":11105,"ĠFred":11106,"ĠTem":11107,"TQ":11108,"tá»·":11109,"ĠMinzy":11110,"mon":11111,"cá»ĳ":11112,"ĠMont":11113,"food":11114,"cam":11115,"ĠBalotelli":11116,"ylvania":11117,"Thá»Ń":11118,"Ġnáº»o":11119,"ĠRá»«ng":11120,"HAGL":11121,"Ġ480":11122,"Ġconcept":11123,"ĠKaw":11124,"treo":11125,"CSGT":11126,"ĠHuyÃªn":11127,"ÄĳÃ´":11128,"ĠNgá»Ļ":11129,"ĠKiá»ĥu":11130,"Ġdá»¥m":11131,"Ġ142":11132,"uta":11133,"Tráº¡m":11134,"ĠThaco":11135,"ĠKCNA":11136,"THANH":11137,"EUTERS":11138,"ĠRou":11139,"Ġknock":11140,"Ġsá»Ńng":11141,"ĠAshley":11142,"ĠBolero":11143,"ĠAdr":11144,"cia":11145,"Ġ1958":11146,"ĠSus":11147,"bang":11148,"ĠchÃ´ng":11149,"Gal":11150,"ĠJuve":11151,"Ġ137":11152,"sÃ¢n":11153,"Ġdr":11154,"áº¢N":11155,"ĠSimon":11156,"ĠHealth":11157,"ĠBá»¯a":11158,"ĠLiu":11159,"hiá»ĩp":11160,"thanh":11161,"atti":11162,"ĠMÃ¹":11163,"nhÃ³m":11164,"Dáº§u":11165,"ĠMÃ¢u":11166,"ĠLtd":11167,"HA":11168,"ĠOh":11169,"ĠSá»£":11170,"ĠDá»«a":11171,"Bá»ķ":11172,"rot":11173,"ĠhÃ©o":11174,"Trá»¥":11175,"ĠKard":11176,"ĠMaradona":11177,"Ġ152":11178,"ĠOut":11179,"ĠTÃły":11180,"Ġ420":11181,"gÃł":11182,"HOSE":11183,"ĠAIDS":11184,"Ġngá»Ľt":11185,"Biáº¿n":11186,"ĠIR":11187,"Ġxá»ĭn":11188,"Ġluyáº¿n":11189,"Ġbitcoin":11190,"ĠLenovo":11191,"Sáº¯c":11192,"ĠIstanbul":11193,"khai":11194,"ĠDiamond":11195,"ĠLIÃĬN":11196,"amex":11197,"ĠPedro":11198,"Ġhuá»³nh":11199,"tylist":11200,"âĢ¦âĢ¦":11201,"HÃ¹ng":11202,"ĠÃ´xy":11203,"inger":11204,"Ġtá»µ":11205,"ĠVÃłm":11206,"Ġoi":11207,"Äĳá»Ļng":11208,"ichi":11209,"BL":11210,"ĠlÃµm":11211,"ĠnÃ¡m":11212,"ĠDVD":11213,"âĢ¦;":11214,"\"?":11215,"ĠThuáº¥n":11216,"ĠTrÃ¡ng":11217,"ÃģNH":11218,"ĠKiatis":11219,"ĠtáºŃu":11220,"ĠCuÃ´ng":11221,"ĠSantos":11222,"PK":11223,"Ġml":11224,"Äĳá»ģu":11225,"ĠbÆ°ng":11226,"ĠOle":11227,"ĠYok":11228,"ĠFe":11229,"Ġhydro":11230,"ĠUV":11231,"thiop":11232,"ĠFur":11233,"loween":11234,"ĠEX":11235,"ĠThiá»ģn":11236,"ÄĳÃłn":11237,"VIDEO":11238,"ĠTed":11239,"inea":11240,"ĠREUTERS":11241,"ĠVietGAP":11242,"say":11243,"ylon":11244,"VKS":11245,"ĠPHÆ¯ÆłNG":11246,"cá»©u":11247,"láº¥y":11248,"ĠKuwait":11249,"ĠrÃ¬a":11250,"ii":11251,"LÃªn":11252,"ĠBá»ķ":11253,"Ġthiáº¿p":11254,"CX":11255,"ĠAlexis":11256,"elo":11257,"ĠHÄĲBA":11258,"tour":11259,"ĠLÅ©y":11260,"ĠKhoÃ¡i":11261,"Ġtiáº¿u":11262,"á»¥i":11263,"LVT":11264,"dan":11265,"ĠGood":11266,"Ġmake":11267,"ĠLyon":11268,"Hiá»ģn":11269,"orth":11270,"dg":11271,"Ġbá»Ł":11272,"bie":11273,"doanh":11274,"sov":11275,"ĠYoon":11276,"ĠKer":11277,"ĠRanger":11278,"Ġvá»Ľ":11279,"Yáº¿n":11280,"har":11281,"ĠVáº»":11282,"Xung":11283,"NháºŃp":11284,"ĠViktor":11285,"cáº¯t":11286,"Ġsá»ĩt":11287,"sÃ¡t":11288,"ĠVÃĢO":11289,"áº¾T":11290,"ĠBá»īnh":11291,"Diá»ĩu":11292,"ĠRodrigo":11293,"Ġcard":11294,"ĠNgÃłn":11295,"Ġflash":11296,"ĠmÃŃch":11297,"ĠAqu":11298,"ĠQUANG":11299,"ĠchoÃłng":11300,"Ġchan":11301,"ĠKháº©u":11302,"ĠGame":11303,"Ġ143":11304,"ĠLÃ²ng":11305,"ĠkV":11306,"TIN":11307,"ville":11308,"ĠMaya":11309,"Ġmáº§u":11310,"ĠdiÃªm":11311,"ĠLeg":11312,"²m":11313,"KÃ½":11314,"ngoáº¡i":11315,"ĠTunisia":11316,"ĠBiáº¿n":11317,"ĠcÃ¢m":11318,"Ġhttps":11319,"Ġnháº¥c":11320,"umin":11321,"ĠWol":11322,"ĠrÆ°á»Ŀm":11323,"Cuá»ĳn":11324,"nel":11325,"ÄĳoÃłn":11326,"Ġá»Ĳc":11327,"xÃ¢y":11328,"Ġ168":11329,"ĠHotel":11330,"ĠBaby":11331,"etz":11332,"ĠShaw":11333,"TrÃ²":11334,"há»Ļp":11335,"Dáº«u":11336,"ĠDá»¥c":11337,"cp":11338,"ĠTrÃ¡c":11339,"ĠLá»įc":11340,"Cháº¡y":11341,"ĠKennedy":11342,"ÄĲan":11343,"1000":11344,"ĠcÃłn":11345,"Ġmá»įng":11346,"ĠngÃ¡y":11347,"ĠNak":11348,"Class":11349,"CTCP":11350,"Cáº¥p":11351,"TÃ¡o":11352,"ussia":11353,"xuáº¥t":11354,"ĠThung":11355,"125":11356,"Ġáº£i":11357,"ĠVIá»Ĩ":11358,"oma":11359,"Ġáº¯c":11360,"Ġmá»Ńa":11361,"ĠCÄĲCS":11362,"ĠLis":11363,"ĠMao":11364,"Ġ256":11365,"auty":11366,"Ġhá»Ŀi":11367,"ezb":11368,"Ġ290":11369,"ĠRC":11370,"Ġcháº§u":11371,"awi":11372,"110":11373,"ĠSlam":11374,"try":11375,"Ġyá»ĥm":11376,"ĠSomalia":11377,"Ġ2023":11378,"ĠPG":11379,"©m":11380,"umi":11381,"ĠMorgan":11382,"Ġkháº½":11383,"ĠHouthi":11384,"ĠQuÃª":11385,"Ġngáº¡o":11386,"ĠHUY":11387,"Ġbá»ģnh":11388,"sylvania":11389,"ĠdÆ°á»£ng":11390,"Ġrocket":11391,"Ġnáº·n":11392,"Ġká»ģn":11393,"ĠTNXP":11394,"ĠEti":11395,"iat":11396,"Ġlogic":11397,"ĠGall":11398,"ĠLil":11399,"ĠKP":11400,"Ġchá»ĵn":11401,"Ġrap":11402,"ĠKyodo":11403,"ience":11404,"VPCP":11405,"ĠBec":11406,"ĠIN":11407,"VCCI":11408,"Ġgao":11409,"ĠVa":11410,"ĠTTATGT":11411,"ĠnÃºp":11412,"ping":11413,"ĠTiger":11414,"ĠKit":11415,"ÄĲÃ³n":11416,"ĠRun":11417,"able":11418,"reen":11419,"chÃºng":11420,"ĠThÃ¡o":11421,"ĠNgá»¥y":11422,"David":11423,"ĠLig":11424,"ĠModi":11425,"Ġ162":11426,"Ġlá»ĳt":11427,"ĠBun":11428,"thiáº¿u":11429,"TÆ°á»Łng":11430,"ĠOCOP":11431,"pháº£n":11432,"Ġbuá»ĵm":11433,"Ġá»¥":11434,"ĠMach":11435,"nháº¥t":11436,"Ġlink":11437,"Cung":11438,"ĠRÆ°á»£u":11439,"ĠKTS":11440,"khÃ":11441,"Ġchá»«":11442,"Ġ147":11443,"bÃ£o":11444,"ĠLÄĲLÄĲVN":11445,"Sa":11446,"ĠTill":11447,"Ġkháº¥n":11448,"ĠTalent":11449,"PVN":11450,"ĠLá»©c":11451,"ĠHad":11452,"Viettel":11453,"ĠLeo":11454,"Ġlá»ĳ":11455,"ĠĠĠ":11456,"Ġnáº¥p":11457,"1998":11458,"Äĳá»ķ":11459,"ĠYoshi":11460,"ĠLÃĬ":11461,"Ġnao":11462,"Ġvá»±a":11463,"ĠPháº£n":11464,"ĠEthiop":11465,"ĠExciter":11466,"BNEWS":11467,"bÃŃ":11468,"ĠMali":11469,"hoi":11470,"ezbollah":11471,"ĠPetersburg":11472,"ĠJoo":11473,"Mos":11474,"onso":11475,"ĠCoo":11476,"Ġ156":11477,"ĠGuinea":11478,"uan":11479,"xem":11480,"Ġhá»Ńng":11481,"Ukraine":11482,"Háº¡t":11483,"ÄĲV":11484,"ĠWolf":11485,"ĠNGá»ĮC":11486,"ĠHassan":11487,"Fan":11488,"ĠNhá»±a":11489,"ĠÆł":11490,"ĠAráºŃp":11491,"ĠÄĲV":11492,"ĠHitler":11493,"ĠvÃªnh":11494,"ĠNA":11495,"cá»Ńa":11496,"ĠGabri":11497,"táºŃp":11498,"rog":11499,"ĠUBTÆ¯":11500,"ĠAki":11501,"ĠGriezmann":11502,"ĠvÃºt":11503,"Ġphá»ĳt":11504,"»©t":11505,"á»©t":11506,"ĠPennsylvania":11507,"QÄĲND":11508,"ĠKhung":11509,"Israel":11510,"Ġhun":11511,"ĠGam":11512,"chÃ¡y":11513,"Ġhotgirl":11514,"ĠAnfield":11515,"UÃĤN":11516,"ĠMinsk":11517,"than":11518,"CPI":11519,"ĠJessica":11520,"ĠHÃ´n":11521,"ĠOLED":11522,"azer":11523,"tÆ¡":11524,"ĠHá»įa":11525,"ĠKro":11526,"ĠChá»Ŀ":11527,"Ġgá»Ŀm":11528,"550":11529,"ĠÄĳáº¥ng":11530,"CAO":11531,"ĠBentley":11532,"ĠsÃ¹ng":11533,"ious":11534,"vÃ©":11535,"Ġcast":11536,"ĠTG":11537,"yad":11538,"Ġthá»ī":11539,"ĠKom":11540,"sá»ĳt":11541,"ĠMá»Ļ":11542,"Nhan":11543,"xá»Ń":11544,"Lá»Ľp":11545,"ĠSib":11546,"»£i":11547,"á»£i":11548,"Ġláº»n":11549,"thong":11550,"Tháº¡ch":11551,"ÄĳiÃªn":11552,"weet":11553,"MG":11554,"ars":11555,"Há»įa":11556,"ĠrÃ¬":11557,"oxin":11558,"tino":11559,"ĠPháº«u":11560,"ĠVIB":11561,"ĠCháº¡y":11562,"ĠHalloween":11563,"ĠNÃło":11564,"his":11565,"náº±m":11566,"ĠHav":11567,"ĠSul":11568,"Ġná»įc":11569,"Ġ158":11570,"Ná»ģn":11571,"LHQ":11572,"vá»«a":11573,"Phá»ĳi":11574,"ĠAIPA":11575,"Tháº¥t":11576,"ħu":11577,"ĠLag":11578,"ĠCore":11579,"ĠVinFast":11580,"ĠIC":11581,"MK":11582,"SO":11583,"ĠVe":11584,"ĠMBH":11585,"ĠBHTN":11586,"ĠCole":11587,"chiÃªu":11588,"Ġnhá»¡":11589,"ĠSunderland":11590,"ĠBolton":11591,"ĠAlexand":11592,"Tuyáº¿t":11593,"Ġláº¡y":11594,"ĠMaster":11595,"Ġnickname":11596,"ĠLá»Ĺ":11597,"ĠBlade":11598,"Ġdáº·t":11599,"ĠMacau":11600,"bá»ĳc":11601,"cott":11602,"ĠBit":11603,"ĠMak":11604,"earch":11605,"ĠStoke":11606,"Tuá»ĩ":11607,"ĠTheresa":11608,"illas":11609,"ĠCes":11610,"Bi":11611,"Ġtrá»ĩt":11612,"Ġgene":11613,"chain":11614,"ĠZimb":11615,"ĠCoun":11616,"dÃ¹":11617,"ĠkhÃŃt":11618,"ĠOzil":11619,"ĠSad":11620,"ĠSterling":11621,"HÃ³a":11622,"ĠPeskov":11623,"zi":11624,"ĠToday":11625,"...;":11626,"ĠISO":11627,"ĠHouston":11628,"Nghá»ģ":11629,"hoÃłn":11630,"ĠSpace":11631,"ÃĢNH":11632,"ĠJr":11633,"tráº£":11634,"mir":11635,"ĠngÆ°á»Łng":11636,"ĠEdition":11637,"cer":11638,"ĠGonz":11639,"ĠSK":11640,"ĠLisa":11641,"Ġkiá»ĩu":11642,"uth":11643,"má»©c":11644,"Ġxá»Ľi":11645,"ĠSecur":11646,"ĠPharma":11647,"bit":11648,"Quáº§n":11649,"utterstock":11650,"ĠEtihad":11651,"Ġteam":11652,"ĠRose":11653,"mas":11654,"ĠChristoph":11655,"BYT":11656,"ĠManh":11657,"alle":11658,"THPT":11659,"ĠRica":11660,"Ġkáº»o":11661,"tÃ¡c":11662,"ardy":11663,"VÃ´":11664,"ĠSapa":11665,"lá»Ļt":11666,"ancial":11667,"vÄĥn":11668,"ĠBrand":11669,"MÃ¢y":11670,"Ġphoto":11671,"ĠRan":11672,"ĠcafÃ©":11673,"!âĢĿ,":11674,"ĠLuÃ´n":11675,"ĠMbappe":11676,"Ġmá»ĭ":11677,"ĠrÃ´ng":11678,"ector":11679,"ĠbÃłnh":11680,"ese":11681,"ĠWik":11682,"iesta":11683,"ĠÄĳÃ¹m":11684,"ĠDer":11685,"Ġ163":11686,"ĠKardashi":11687,"Ġgá»Łi":11688,"Ġáº¯t":11689,"ĠUBTVQH":11690,"ĠÃ©o":11691,"Ġbá»§a":11692,"ĠNy":11693,"ĠTáº¡m":11694,"Kháº£o":11695,"ĠShah":11696,"Ġluá»ĳng":11697,"láº¡":11698,"ĠNuÃ´i":11699,"VTV":11700,"Ġrich":11701,"ĠPVF":11702,"ICO":11703,"Khoáº£n":11704,"bourne":11705,"trol":11706,"ats":11707,"ĠDÅ©":11708,"cháº·t":11709,"viá»ĩc":11710,"Ġná»ĩ":11711,"ĠAjax":11712,"Lao":11713,"ĠWel":11714,"Æ¯ng":11715,"ĠHezbollah":11716,"1995":11717,"ĠSah":11718,"Ġbá»¡":11719,"Ġ153":11720,"phÃ¡":11721,"Äĳen":11722,"ĠSá»©":11723,"Ġ157":11724,"ĠMarie":11725,"Ġsuyá»ħn":11726,"á»ĲC":11727,"ĠnhÃµm":11728,"Giáº£":11729,"ĠphÃło":11730,"cáº¥p":11731,"Ġby":11732,"ĠKL":11733,"180":11734,"Loáº¡t":11735,"ĠKun":11736,"abwe":11737,"Ġnháº£m":11738,"ĠChim":11739,"ĠPÃ´n":11740,"Ġor":11741,"ender":11742,"ĠNu":11743,"050":11744,"ĠFrancois":11745,"ĠGol":11746,"ĠExp":11747,"ĠNháºŃp":11748,"ĠMig":11749,"ĠKitco":11750,"hir":11751,"ĠPatrick":11752,"Ġguitar":11753,"áºłM":11754,"Car":11755,"Ġpixel":11756,"chá»£":11757,"ĠmáºŃu":11758,"ĠMum":11759,"----------------":11760,"ĠCienco":11761,"ĠdÆ¡i":11762,"Ġ174":11763,"ĠBÃ£o":11764,"Ġhon":11765,"ely":11766,"Sport":11767,"Ġbon":11768,"Ġcá»ĳm":11769,"ĠCatalan":11770,"phong":11771,"made":11772,"ollagen":11773,"ĠClau":11774,"Brazil":11775,"âĢĿ)":11776,"furt":11777,"ĠÄĳá»Ŀm":11778,"ĠBá»Ļt":11779,"ĠXHCN":11780,"bÃ¡o":11781,"ball":11782,"Ġgiá»Ŀi":11783,"ĠLyn":11784,"Ġráº§y":11785,"ĠÃ´i":11786,"ĠCSCÄĲ":11787,"ĠÄĲá»©a":11788,"ĠBiá»ĩt":11789,"Æ¡ng":11790,"ĠConn":11791,"1999":11792,"thÃŃ":11793,"ĠTripoli":11794,"ĠChÃło":11795,"ĠchÆ°":11796,"Ġdel":11797,"ĠDTTS":11798,"ĠBasel":11799,"Ġtuá»ĵng":11800,"ĠtÃ£":11801,"Ġtrá»Ľ":11802,"BIDV":11803,"ĠtÃ³t":11804,"ĠCad":11805,"ĠquÃ¡ng":11806,"ĠTrÆ°a":11807,"Ġháº»o":11808,"ĠTillerson":11809,"TÃŃn":11810,"ÃļC":11811,"ĠngÆ°á»£ng":11812,"ĠTruyá»ĩn":11813,"qqa":11814,"Ġenz":11815,"actor":11816,"\"./.":11817,"Ná»¥":11818,"Ġngáº©m":11819,"lá»£i":11820,"ĠGiro":11821,"ĠmÃºt":11822,"ĠModric":11823,"Ġ171":11824,"ĠNhiáº¿p":11825,"ĠRah":11826,"ĠTayy":11827,"As":11828,"lÆ°á»£c":11829,"tinental":11830,"idd":11831,"nhiá»ģu":11832,"RP":11833,"ĠDiá»ĩc":11834,"ĠFernando":11835,"rist":11836,"ĠVel":11837,"ÌĢ":11838,"Ġnano":11839,"ĠHáº¡c":11840,"vis":11841,"ĠÄĳiáº¿c":11842,"850":11843,"ĠRichter":11844,"Ġ148":11845,"ĠCNC":11846,"Tá»ĳt":11847,"Ġ950":11848,"ĠMarketing":11849,"aily":11850,"bÃ³ng":11851,"ĠGary":11852,"Ġbáº·m":11853,"Ġmiáº¿n":11854,"daq":11855,"ĠdÃ¡t":11856,"ĠPress":11857,"ĠHanh":11858,"ĠbÃŃt":11859,"Ġá»ĳi":11860,"ÄĲáº£o":11861,"ĠDá»ĭ":11862,"oro":11863,"urs":11864,"Láº¡ng":11865,"eira":11866,"ĠGolf":11867,"ĠRaul":11868,"ĠGiÃ¡c":11869,"moon":11870,"AA":11871,"Ġ149":11872,"ĠPence":11873,"ĠRoger":11874,"ĠTNMT":11875,"ĠÄĥ":11876,"ĠJapan":11877,"trá»¥":11878,"ĠAlb":11879,"ĠKyr":11880,"Mourinho":11881,"Ġgr":11882,"ĠTANDTC":11883,"ĠMcCain":11884,"ĠÃ³ng":11885,"Ġbá»īm":11886,"sá»©c":11887,"ĠAndrea":11888,"Ġláº³ng":11889,"ĠcÃ³p":11890,"SÃ´ng":11891,"SÃłi":11892,"ĠDá»ĭp":11893,"Ġnghiáº¿n":11894,"via":11895,"ĠPorto":11896,"ĠLucas":11897,"Ġloang":11898,"cord":11899,"ĠTrÃ²":11900,"ĠdÃ¹i":11901,"TÃ¹y":11902,"ĠAhmad":11903,"lic":11904,"ys":11905,"ĠBá»įn":11906,"jin":11907,"tháº£":11908,"uya":11909,"ĠDun":11910,"ĠnÃł":11911,"Galaxy":11912,"TG":11913,"Äĳá»Ļ":11914,"ĠCambridge":11915,"Táº¡p":11916,"ĠTÄĲC":11917,"ĠxÃ©n":11918,"Ġtablet":11919,"ĠOmar":11920,"ĠZar":11921,"ĠChá»īnh":11922,"sang":11923,"ĠBook":11924,"ĠVnexpress":11925,"ĠUSA":11926,"ĠsuÃ´ng":11927,"ĠSnowden":11928,"ĠDK":11929,"hio":11930,"baodautu":11931,"lia":11932,"Ġ911":11933,"ĠgÃ¡n":11934,"Canada":11935,"ĠTayyip":11936,"Ġrub":11937,"SL":11938,"ĠPho":11939,"izza":11940,"Ġtuá»Ļc":11941,"ĠKardashian":11942,"eno":11943,"ĠCruz":11944,"Ġad":11945,"101":11946,"á»§i":11947,"ĠNM":11948,"Ġ570":11949,"ĠDra":11950,"Cá»©u":11951,"ĠbÃ´":11952,"RS":11953,"Ļng":11954,"ĠKem":11955,"ĠGram":11956,"ĠImp":11957,"hana":11958,"ĠKTT":11959,"ĠCC":11960,"Ġthoi":11961,"ggs":11962,"Ġamin":11963,"ĠMÃ¡i":11964,"MÃ¡i":11965,"engers":11966,"ĠGiroud":11967,"ĠSarah":11968,"eim":11969,"ĠStock":11970,"Ġnylon":11971,"Ġtuá»ĵn":11972,"DT":11973,"ĠMacBook":11974,"Cá»ķng":11975,"ĠJur":11976,"ĠZel":11977,"Ġnet":11978,"ĠLog":11979,"HOÃĢNG":11980,"mond":11981,"ĠSak":11982,"Pr":11983,"char":11984,"ĠCopa":11985,"zen":11986,"uras":11987,"ĠPhillip":11988,"Barca":11989,"ĠZimbabwe":11990,")./.":11991,"Ġboong":11992,"ĠNÆ°Æ¡ng":11993,"onder":11994,"TÆ°á»Ŀng":11995,"ĠWarren":11996,"ĠBell":11997,"ĠSergey":11998,"Rob":11999,"get":12000,"ĠTVB":12001,"Ta":12002,"ĠGio":12003,"ĠShanghai":12004,"BO":12005,"DV":12006,"ense":12007,"ĠÄĲak":12008,"SEP":12009,"Trá»Ļm":12010,"World":12011,"Ġlá»ıi":12012,"Chá»ĳt":12013,"ĠCÃ¡m":12014,"long":12015,"ChÃ¡nh":12016,"ĠVIá»ĨT":12017,"Ad":12018,"ĠNasdaq":12019,"Ġbáº¿t":12020,"nd":12021,"ĠMichigan":12022,"lÄĥng":12023,"ĠBest":12024,"ĠTháº»":12025,"ÃĢN":12026,"itez":12027,"ĠMÃ¡txcÆ¡va":12028,"ĠSMS":12029,"ĠMiami":12030,"Ġfans":12031,"ĠSwansea":12032,"Ġcollagen":12033,"ĠDz":12034,"ĠHon":12035,"kins":12036,"ĠLoÃłi":12037,"ĠRO":12038,"nhiá»ĩm":12039,"ĠBad":12040,"ĠnhÃºn":12041,"dep":12042,"ĠnáºŃu":12043,"Ġmegapixel":12044,"Má»Ļc":12045,"Máº¡ng":12046,"ĠChiá»ģng":12047,"ĠNhuá»ĩ":12048,"vá»¥":12049,"Háº¡n":12050,"Ġlá»ĭm":12051,"ĠXVI":12052,"andowski":12053,"ĠGiggs":12054,"ĠCivic":12055,"ult":12056,"Ġbol":12057,"ĠBolivia":12058,"ĠOceanbank":12059,"ĠSat":12060,"ĠDeb":12061,"ĠCuá»ĳn":12062,"Euro":12063,"chenko":12064,"bass":12065,"chung":12066,"ĠIniesta":12067,"Pro":12068,"ĠElectron":12069,"ĠJag":12070,"ĠCTG":12071,"1997":12072,"ĠGai":12073,"ĠAlan":12074,"ÄĲáº£m":12075,"ĠBez":12076,"ĠManag":12077,"Ġsanh":12078,"ĠTá»įa":12079,"ĠRÃ¹a":12080,"ady":12081,"Ġtrá»¥y":12082,"ĠWhit":12083,"ĠDáº«n":12084,"ĠTÃłng":12085,"ĠnÃŃn":12086,"Nháº¥t":12087,"ĠDNNV":12088,"Ġposter":12089,"Ġhe":12090,"TÃ³c":12091,"ĠTitan":12092,"máº·t":12093,"ĠKor":12094,"ĠOd":12095,"evez":12096,"ĠLing":12097,"Ġdá»Ĺi":12098,"estrogen":12099,"tiÃªu":12100,"ĠVog":12101,"Ġ!!!":12102,"ukov":12103,"itime":12104,"Ġhec":12105,"ĠAlbum":12106,"AL":12107,"«m":12108,"ĠJohnny":12109,"tiá»ĥu":12110,"Ġhá»Ļt":12111,"ĠKhÃ¢m":12112,"ĠMá»Ĺ":12113,"Ġform":12114,"ants":12115,"ĠWEF":12116,"ĠNTD":12117,"ĠMik":12118,"ÄĳÃªm":12119,"ĠLÄĥk":12120,"SÃ¡ch":12121,"Biá»ĩt":12122,"ĠDM":12123,"ĠuyÃªn":12124,"ĠLá»ĳi":12125,"ĠShop":12126,"bÃłi":12127,"utt":12128,"ĠSark":12129,"ĠtÃŃa":12130,"Ġkha":12131,"Ġmá»īa":12132,"ĠBá»ĵn":12133,"ĠHaiti":12134,"ĠEnrique":12135,"ĠDNNVV":12136,"Trá»ĭnh":12137,"ĠLLVT":12138,"eople":12139,"ĠTravel":12140,"LuÃ´n":12141,"ĠQG":12142,"Ġngá»£m":12143,"Ġtal":12144,"ĠBuk":12145,"Ġrá»ĭch":12146,"ĠRaqqa":12147,"ĠVietJet":12148,"XT":12149,"wi":12150,"ĠÆ¯":12151,"ĠEPC":12152,"ĠtrÄ©u":12153,"Ãµa":12154,"WTO":12155,"viáº¿t":12156,"ĠÄĳÃ³a":12157,"Ġcasting":12158,"BCT":12159,"Nguoiduatin":12160,"ĠArm":12161,"Ġ1957":12162,"ĠchÄ©a":12163,"Ġ212":12164,"ĠrÃŃt":12165,"ĠchÃŃt":12166,"ĠColum":12167,"cáº·p":12168,"ĠrÃ¨m":12169,"set":12170,"ĠBCÄĲ":12171,"Ġdiva":12172,"ĠPaulo":12173,"Ly":12174,"ĠBamboo":12175,"Ġomega":12176,"Ġgiáº«m":12177,"Ġ159":12178,"ĠFrankfurt":12179,"ĠFutsal":12180,"»²":12181,"á»²":12182,"BB":12183,"als":12184,"ĠKol":12185,"ĠArsene":12186,"ozy":12187,"Ġroom":12188,"ĠProject":12189,"ĠXM":12190,"ĠThuyÃªn":12191,"ĠNÃ©n":12192,"ĠJava":12193,"Ġ!":12194,"ĠKrist":12195,"ĠChÃł":12196,"ĠCavani":12197,"Ġquáº¹t":12198,"ĠBRT":12199,"ĠWom":12200,"ĠRoad":12201,"ĠLuiz":12202,"vÅ©":12203,"Kháº¯c":12204,"giÃ¢y":12205,"ĠFB":12206,"ĠTTCP":12207,"sc":12208,"ĠMattis":12209,"ĠCÆ°á»Ľp":12210,"oe":12211,"arab":12212,"ĠDell":12213,"ĠMend":12214,"ĠChiáº¿t":12215,"ĠEthiopia":12216,"Ġshowroom":12217,"essa":12218,"ĠGeneral":12219,"Pháº¡t":12220,"COM":12221,"xanh":12222,"ĠTTVN":12223,"eline":12224,"ĠDÃłn":12225,"ĠcÃºt":12226,"ĠTrust":12227,"rit":12228,"ĠÄĳoÃ¡i":12229,"ĠKhá»ıe":12230,"ĠEmail":12231,"AMA":12232,"Ġ310":12233,"báºŃt":12234,"Láº¡m":12235,"ĠLá»Ĺi":12236,"Ġsá»¥n":12237,"2022":12238,"ĠSGGP":12239,"DOC":12240,"ĠÄĲá»ĵi":12241,"ĠBecamex":12242,"ĠParag":12243,"ĠphÃ¹n":12244,"cker":12245,"báº§u":12246,"cá»¥":12247,"ĠNBC":12248,"ĠOhio":12249,"Ġlá»ĵi":12250,"Ġchá»Ļ":12251,"ĠGR":12252,"Ġngáº§u":12253,"Dr":12254,"ĠPhantom":12255,"220":12256,"ĠchÃ³c":12257,"ĠchÃły":12258,"side":12259,"ĠMiu":12260,"ifone":12261,"Ġ176":12262,"ĠMáº¿n":12263,"aland":12264,"ĠÄĲÃ¢u":12265,"ĠLeonardo":12266,"essenger":12267,"Ġchocolate":12268,"Ġhá»īnh":12269,"ĠLuk":12270,"ĠFinancial":12271,"UAE":12272,"Ġnháº¿ch":12273,"Ġngáº£i":12274,"John":12275,"Lá»ĩ":12276,"135":12277,"ĠtoÃ¡i":12278,"Giáº¥y":12279,"ĠPTNT":12280,"ĠKKT":12281,"Ġ151":12282,"danh":12283,"________________":12284,"Ġ161":12285,"ĠHÃ£n":12286,"ĠÄĳÃºt":12287,"Ġbiáº¿m":12288,"ĠnhÃ¡":12289,"Ġgá»ıi":12290,"pping":12291,"ĠDiana":12292,"CÆ°":12293,"tráºŃn":12294,"Ġngá»Ľ":12295,"vÃ²ng":12296,"ĠBurn":12297,"Ġnheo":12298,"ĠKÄĲT":12299,"ahn":12300,"ĠphÃŃch":12301,"hou":12302,"ĠIU":12303,"ECD":12304,"TrÃ¡nh":12305,"ĠDomin":12306,"pu":12307,"ĠGá»Ĺ":12308,"Miss":12309,"ĠPhiáº¿u":12310,"ĠCasillas":12311,"ĠKDC":12312,"ķn":12313,"ĠNight":12314,"ĠhÃłu":12315,"ĠTCty":12316,"ĠtrÃ¡o":12317,"ĠnghÃ©n":12318,"ĠEverest":12319,"ĠCáº¯t":12320,"Trail":12321,"usta":12322,"1954":12323,"wondo":12324,"Ġhybrid":12325,"ĠTikTok":12326,"Ġdance":12327,"........":12328,"ĠkhÃ³e":12329,"ĠSelena":12330,"awk":12331,"ĠWars":12332,"ĠbÃŃch":12333,"lac":12334,"ĠVoi":12335,"ĠDh":12336,"KÃªnh":12337,"ĠXD":12338,"cÃº":12339,"AFP":12340,"čĊ":12341,"Ġvá»ĵng":12342,"Ġsáº¥m":12343,"Ġquáº·c":12344,"ĠMotors":12345,"Be":12346,"cáº§m":12347,"ĠMelbourne":12348,"ĠDoan":12349,"ĠaxÃŃt":12350,"Ġ154":12351,"atri":12352,"VI":12353,"ĠChrome":12354,"tá»ĳi":12355,"'?":12356,"attan":12357,"ĠHap":12358,"ĠSoft":12359,"rotimes":12360,"ĠKath":12361,"Ġri":12362,"Ġváº¯n":12363,"ĠÄĲáº¡":12364,"khoe":12365,"Ġná»±c":12366,"ĠTMÄĲT":12367,"ĠBenitez":12368,"ĠÄĲuá»ĳng":12369,"Ġ777":12370,"ĠThong":12371,"ated":12372,"ĠBI":12373,"CNV":12374,"ĠCCB":12375,"izona":12376,"ĠHáº¡o":12377,"form":12378,"ĠBGK":12379,"ĠColorado":12380,"ente":12381,"DÆ°á»Ŀng":12382,"ĠPixel":12383,"Cty":12384,"SEM":12385,"chÃº":12386,"iah":12387,"ĠRuss":12388,"eri":12389,"rak":12390,"ĠThÃ¡c":12391,"ĠSingh":12392,"sá»ķ":12393,"ĠCech":12394,"ĠMeghan":12395,"ĠCDC":12396,"Ġhiu":12397,"ĠtÃ¡p":12398,"ĠÄĲÃŃnh":12399,"ĠAMG":12400,"etts":12401,"Ġsáº«m":12402,"nguy":12403,"ĠhÃ³m":12404,"prom":12405,"ĠVPCP":12406,"ĠVL":12407,"ĠHills":12408,"Kiá»ĥu":12409,"ĠIBM":12410,"chuyá»ĥn":12411,"ÄĲBQH":12412,"imble":12413,"ĠhÃŃch":12414,"Tech":12415,"cÃ¢u":12416,"ĠSkr":12417,"ĠPir":12418,"len":12419,"Ġtrá»¥i":12420,"ĠlÃ¡c":12421,"ĠNhanh":12422,"dá»ĭch":12423,"Ġ1956":12424,"ĠHag":12425,"onduras":12426,"ĠMidu":12427,"Har":12428,"ĠDOC":12429,"ĠXL":12430,"ĠDavis":12431,"load":12432,"inaw":12433,"ĠTPBank":12434,"Ġ460":12435,"acy":12436,"Ġoai":12437,"ĠBSR":12438,"hye":12439,"SÃ³c":12440,"Ġ3000":12441,"ĠLP":12442,"thuá»ĳc":12443,"Mic":12444,"ĠRic":12445,"ĠChin":12446,"errard":12447,"ations":12448,"TÃ¡i":12449,"ĠShutterstock":12450,"Ġliu":12451,"ĠAlf":12452,"GÃł":12453,"fish":12454,"háº¡ng":12455,"ĠCruise":12456,"ĠBall":12457,"ĠBÃ²":12458,"Bá»ī":12459,"ĠVespa":12460,"Ġcháº¡nh":12461,"Ġchuá»ĳt":12462,"ĠLink":12463,"ĠTruy":12464,"ĠÄĳáº±m":12465,"thÃ¡nh":12466,"pin":12467,"Ġhecta":12468,"Ġphá»Ļng":12469,"ĠAlaska":12470,"ÆłN":12471,"ĠĠĠĠ":12472,"Ġum":12473,"ĠEconom":12474,"Quay":12475,"ĠBung":12476,"aton":12477,"ugh":12478,"ĠCoutinho":12479,"hol":12480,"ĠEzz":12481,"Ġnháº§y":12482,"ĠXIX":12483,"Ġ189":12484,"phic":12485,"Ġuyá»ĥn":12486,"gÃ¡i":12487,"321":12488,"ĠÄĲÃ¡c":12489,"ĠSystem":12490,"ĠÆ¯ng":12491,"Ġ178":12492,"ĠCons":12493,"uzia":12494,"ĠNguyá»ĩn":12495,"1993":12496,"ĠBVH":12497,"chiá»ģu":12498,"cini":12499,"ĠArizona":12500,"ĠUs":12501,"ĠBlock":12502,"cci":12503,"Ġinsul":12504,"ĠNÃ´":12505,"Ju":12506,"KÃŃnh":12507,"ĠPM":12508,"iguain":12509,"abad":12510,"ĠLimited":12511,"ĠNgang":12512,"aze":12513,"cáº§n":12514,"ĠSpr":12515,"lav":12516,"imbledon":12517,"ĠHugh":12518,"Ġsing":12519,"ĠCer":12520,"unt":12521,"ĠchÃ¢y":12522,"á»ģnh":12523,"MÃ´i":12524,"ĠthÃºng":12525,"ĠPháº¡t":12526,"ÃĤm":12527,"Ġ202":12528,"hanna":12529,"ross":12530,"ĠThang":12531,"ĠTÆ°Æ¡i":12532,"ĠNaj":12533,"ĠMatth":12534,"Ġbeta":12535,"ĠMini":12536,"Ġbáº£":12537,"Ġas":12538,"GÃ£":12539,"ĠTNCN":12540,"Ġváº©y":12541,"Hung":12542,"Äĳáº·t":12543,"ĠTru":12544,"ToÃ¡n":12545,"ĠthÃ³t":12546,"ĠrÃ´m":12547,"NDN":12548,"Tho":12549,"chai":12550,"IR":12551,"ĠtrÃ²ng":12552,"NÄĥng":12553,"ĠNhiÃªu":12554,"Ġradio":12555,"ipan":12556,"Ġnhá»«":12557,"ĠnhÃºt":12558,"Ste":12559,"ĠIA":12560,"tÆ°":12561,"ÄĳÃ¢y":12562,"ĠOffice":12563,"ĠMá»«ng":12564,"lai":12565,"Tráº¥n":12566,"ĠBud":12567,"ĠJesus":12568,"GÃ³p":12569,"ĠPique":12570,"ĠBeach":12571,"NgÆ°":12572,"Ġwifi":12573,"Ġrichter":12574,"PhÃ¡":12575,"ĠSarkozy":12576,"uer":12577,"Ġloan":12578,"ĠAhmed":12579,"ĠMassach":12580,"Náº¯ng":12581,"ĠUBMTTQ":12582,"Viáº¿t":12583,"ĠQNg":12584,"Mer":12585,"ĠJason":12586,"Ġcá»ıi":12587,"ĠJenner":12588,"TTO":12589,"Tá»Ļi":12590,"trá»ĭ":12591,"ĠÄĳÃły":12592,"360":12593,"bat":12594,"gyz":12595,"ĠVinasun":12596,"»Ķ":12597,"Äĳá»£t":12598,"á»Ķ":12599,"Ġcháº¡c":12600,"ĠBezos":12601,"Syria":12602,"ĠTevez":12603,"Ġsáº©":12604,"ĠIL":12605,"REA":12606,"Ġáº¯ng":12607,"Ġnháº£nh":12608,"gn":12609,"ĠBuffett":12610,"»©a":12611,"á»©a":12612,"Ġsáº©y":12613,"Ġoáº£i":12614,"Ġ430":12615,"vai":12616,"Ġinsulin":12617,"wen":12618,"ĠKyl":12619,"ĠOman":12620,"ĠXuyáº¿n":12621,"eet":12622,"ĠTÃºy":12623,"Ġná»¡":12624,"hÃ³ng":12625,"ĠCáº¡n":12626,"ĠCá»§a":12627,"FED":12628,"ĠDÆ°á»¡ng":12629,"Ġláº£":12630,"ĠYa":12631,"BÄĥng":12632,"ancy":12633,"ias":12634,"aini":12635,"ĠlÆ°":12636,"ĠSO":12637,"Äĳá»ķi":12638,"ÃĤU":12639,"tÃ¡i":12640,"ĠngÃ¡o":12641,"Ġkil":12642,"ĠCáº¡p":12643,"ĠÃ¹a":12644,"ĠTCC":12645,"Ġshort":12646,"ĠxÃºi":12647,"opol":12648,"Ġsá»Ľi":12649,"atex":12650,"Ġ172":12651,"ĠKhÃ¡t":12652,"ĠKyung":12653,"ekwondo":12654,"ĠWid":12655,"eot":12656,"ario":12657,"ĠSB":12658,"ĠNáº¯ng":12659,"ears":12660,"ĠShinaw":12661,"ono":12662,"Nha":12663,"LoÃłi":12664,"tonia":12665,"ĠNhÃŃ":12666,"Ġ192":12667,"Uy":12668,"ĠGá»įi":12669,"Ġá»ĳt":12670,"ĠHonduras":12671,"ĠMarco":12672,"ĠsÃº":12673,"ĠJunior":12674,"Ġláº½o":12675,"ĠGDCK":12676,"rence":12677,"ĠTTTM":12678,"ĠdÃ¬m":12679,"ĠNÄĲ":12680,"ĠVNE":12681,"ĠNest":12682,"Camera":12683,"ĠKTNN":12684,"ĠRud":12685,"erm":12686,"ChÃ¹a":12687,"ĠNghÃ©":12688,"Ġluá»ĵn":12689,"chui":12690,"ĠRex":12691,"DÅ©ng":12692,"ĠAbbott":12693,"1996":12694,"ĠEden":12695,"ĠBruy":12696,"ĠPCTT":12697,"ĠTháºŃn":12698,"Ġ390":12699,"ĠWimbledon":12700,"280":12701,"ĠGuam":12702,"Khung":12703,"ĠDá»¥":12704,"vet":12705,"âĢ¦),":12706,"ĠÄĲÃ©c":12707,"ĠCÃ¡p":12708,"ĠJosh":12709,"Mo":12710,"ĠGÃ£":12711,"Ġ215":12712,"ĠShinawatra":12713,"ĠnÆ¡":12714,"cá»±c":12715,"ÄĤNG":12716,"andy":12717,"oT":12718,"ĠMessenger":12719,"ĠIsa":12720,"Ġ1900":12721,"cÅ©":12722,"Ġmaz":12723,"ĠPad":12724,"ĠKBNN":12725,"Ġop":12726,"Tuyá»ĩt":12727,"Ġniu":12728,"Mi":12729,"ĠLor":12730,"ĠANTÄĲ":12731,"ĠKorea":12732,"¦A":12733,"ĠHSG":12734,"nar":12735,"ĠNá»£":12736,"áº¾N":12737,"echen":12738,"truyá»ģn":12739,"*)":12740,"Ġthá»¥t":12741,"Ġruá»ĳc":12742,"atherine":12743,"ĠChav":12744,"phia":12745,"elson":12746,"ThÃŃch":12747,"ĠSmall":12748,"ĠSoh":12749,"ree":12750,"ĠCanon":12751,"ChÄĥm":12752,"Ġxá»Ł":12753,"DÄ©":12754,"ĠkhiÃªng":12755,"ĠPelle":12756,"umber":12757,"CDC":12758,"gyzstan":12759,"Ġâ":12760,"inez":12761,"Ġsam":12762,"ĠTas":12763,"ĠHama":12764,"Ġblogger":12765,"tÃ¹y":12766,"Ġráº¡":12767,"380":12768,"Ġnáº»":12769,"1994":12770,"Ġtá»ĭnh":12771,"TáºŃn":12772,"Ġgel":12773,"tháº£m":12774,"ĠOxford":12775,"Ġváº¹o":12776,"ná»Ļi":12777,"ĠRiyad":12778,"ĠBHL":12779,"ĠCá»¦A":12780,"ĠPS":12781,"Ġláº±n":12782,"kong":12783,"Ġchang":12784,"ĠPhÃ¡":12785,"ĠBá»ĵi":12786,"ĠMobifone":12787,"cin":12788,"ĠNháºŃm":12789,"ĠGod":12790,"ĠAviv":12791,"ĠPCI":12792,"á»¥t":12793,"phÃ¹":12794,"olla":12795,"Sc":12796,"RT":12797,"GÃ³c":12798,"Ġkhá»īnh":12799,"ĠLewandowski":12800,"erty":12801,"ĠFO":12802,"hÃ¬nh":12803,"141":12804,"ĠGucci":12805,"ĠBey":12806,"Ag":12807,"ná»ķ":12808,"ĠOppo":12809,"Ġau":12810,"ĠDim":12811,"ĠChuá»ĳi":12812,"Ġtháº£y":12813,"Ġ205":12814,"Ġxá»ı":12815,"ĠLÃłn":12816,"quyá»ģn":12817,"Kháº³ng":12818,"ĠKilo":12819,"240":12820,"ĠBeng":12821,"ĠShim":12822,"Go":12823,"ĠUltra":12824,"CBM":12825,"uke":12826,"SÆ¡":12827,"liÃªn":12828,"Ġrá»¥c":12829,"Ġ164":12830,"giÃ¡o":12831,"lish":12832,"ĠMassachus":12833,"ĠchÃ¹i":12834,"ĠKham":12835,"ĠPul":12836,"ĠGiÃºp":12837,"ĠKiá»ĩn":12838,"ushu":12839,"ĠngÃ¡c":12840,"GHz":12841,"ĠBruyne":12842,"Ġ245":12843,"doch":12844,"ĠmÃºn":12845,"pho":12846,"ĠVision":12847,"ĠTrá»ĳng":12848,"ĠXá»ķ":12849,"ĠNHM":12850,"Äĳá»ĵ":12851,"190":12852,"ĺI":12853,"Ġrá»£":12854,"ĠNgá»įn":12855,"ĠLuyáº¿n":12856,"Ġtáº§u":12857,"ĠHÃ²e":12858,"ĠchÃ²m":12859,"170":12860,"ĠAlves":12861,"ĠNao":12862,"ĠRM":12863,"dinand":12864,"lant":12865,"ĠCatalonia":12866,"Æ°á»Ľu":12867,"Ġwith":12868,"115":12869,"ĠRobin":12870,"cy":12871,"ĠAsus":12872,"lÃºc":12873,"ĠvÃ¡t":12874,"ĠPK":12875,"ĠTiáº¿c":12876,"Dáº¡":12877,"nb":12878,"ĠGruzia":12879,"mu":12880,"ĠTaxi":12881,"mÃ³n":12882,"ĠcÆ¡i":12883,"ĠDÆ°a":12884,"env":12885,"ĠWilson":12886,"heed":12887,"ĠBO":12888,"BGDÄĲT":12889,"Ġ520":12890,"ĠSund":12891,"ĠGat":12892,"ĠLÄĲTBXH":12893,"DF":12894,"ĠMall":12895,"ĠVáº£i":12896,"ĠÃį":12897,"onto":12898,"ĠChap":12899,"acomin":12900,"ĠBID":12901,"riot":12902,"ĠEarth":12903,"ĠAlpha":12904,"ĠPremium":12905,"GL":12906,"ĠHU":12907,"ĠMes":12908,"Laren":12909,"Vui":12910,"ĠPow":12911,"ĠSalv":12912,"Ġtennis":12913,"Táº¥n":12914,"mÃ´n":12915,"cep":12916,"loyd":12917,"ĠSavills":12918,"lao":12919,"260":12920,"ĠTTÄĲT":12921,"quÃ¢n":12922,"ĠLáº¡m":12923,"ĠThS":12924,"ĠSach":12925,".(":12926,"ÄĲáºŃu":12927,"ĠECB":12928,"ĠAtt":12929,"dÃŃnh":12930,"Inter":12931,"ĠTráº¡ng":12932,"ales":12933,"ĠHáº¢I":12934,"pi":12935,"ĠXáº¿p":12936,"ĠcáºŃt":12937,"Ġ1930":12938,"ĠWell":12939,"ĠMarcelo":12940,"ĠFalcao":12941,"ĠMueller":12942,"ĠGE":12943,"ĠRouhani":12944,"ĠvÃŃt":12945,"ĠQR":12946,"ĠCÃ¢n":12947,"phá»¥":12948,"ĠgiÃ£i":12949,"há»Ļi":12950,"')":12951,"bourg":12952,"rogba":12953,"Tháº©m":12954,"Ġhom":12955,"ĠGerrard":12956,"ĠGHz":12957,"Ġid":12958,"ambi":12959,"seille":12960,"ĠMotorola":12961,"ĠGul":12962,"ĠFlash":12963,"Chá»¯a":12964,"IF":12965,"ĠVR":12966,"ĠPerry":12967,"Ġbaht":12968,"ĠXavi":12969,"Ná»Ĺ":12970,"Ġ181":12971,"háºŃu":12972,"Mich":12973,"tÃłu":12974,"Ġkháº¿":12975,"ĠThÆ°á»Ľc":12976,"...âĢĿ,":12977,"ĠbÃ©t":12978,"Hoáº·c":12979,"Ġ166":12980,"Ġbolero":12981,"DG":12982,"attle":12983,"ĠHae":12984,"ĠMikh":12985,"ĠbÃºi":12986,"ĠvÃ¡nh":12987,"ĠBlanc":12988,"340":12989,"Ro":12990,"inam":12991,"ader":12992,"Å¨NG":12993,"TÃ´n":12994,"Ġbreak":12995,"ĠxiÃªu":12996,"ĠNGUYÃĬN":12997,"ĠDuyá»ĩt":12998,"ĠÄĲiá»ĥu":12999,"ential":13000,"ĠMarket":13001,"ĠAthens":13002,"ĠAsiad":13003,"fo":13004,"ĠÄĲá»ĭch":13005,"ĠSara":13006,"330":13007,"giá»¯":13008,"Ġ1955":13009,"ĠChristopher":13010,"ĠJor":13011,"ĠHur":13012,"ĠRum":13013,"GiÃºp":13014,"oody":13015,"ĠSanders":13016,"ĠPrinc":13017,"iso":13018,"Diá»ħm":13019,"emb":13020,"ĠVJ":13021,"ĠÄĳÃ¡t":13022,"uar":13023,"ĠRoss":13024,"Ġ183":13025,"ras":13026,"BuÃ´n":13027,"ĠTray":13028,"astian":13029,"ĠNáº¯m":13030,"oton":13031,"conomy":13032,"aus":13033,"house":13034,"Cola":13035,"ĠGabriel":13036,"ĠngáºŃy":13037,"ĠEdge":13038,"ĠFast":13039,"ĠCCH":13040,"evel":13041,"lÃ¡":13042,"ĠBiá»ĩn":13043,"Ġ5000":13044,"ĠMancini":13045,"ĠMorris":13046,"ĠLigue":13047,"ĠDior":13048,"Ġ1953":13049,"ĠHiguain":13050,"ĠIgor":13051,"Ġ2024":13052,"TrÃ¢n":13053,"ĠElectronics":13054,"ĠGoal":13055,"ĠMol":13056,"ĠAG":13057,"thÆ°á»£ng":13058,"Ġtáº¥y":13059,"ĠBrian":13060,"ĠPao":13061,"ĠAlonso":13062,"Ġhá»±c":13063,"ahawk":13064,"Ġchuá»ĵn":13065,"On":13066,"ĠXÃ¡t":13067,"mÃ¹a":13068,"epend":13069,"ili":13070,"ĠATVSTP":13071,"rah":13072,"ĠTIáº¾":13073,"zer":13074,"Ġnuá»Ļt":13075,"ĠÄĳay":13076,"ĠHerr":13077,"ĠThiá»ĩp":13078,"950":13079,"endra":13080,"Ġá»ĳ":13081,"ĠKabul":13082,"ĠReport":13083,"ĠDáº¡y":13084,"ĠCher":13085,"Ġbá»ĳt":13086,"chuáº©n":13087,"ĠNCT":13088,"KTT":13089,"val":13090,"ous":13091,"phÃŃa":13092,"ĠViÃªm":13093,"ipedia":13094,"BÄĲS":13095,"mÃł":13096,"Cá»¥m":13097,"ĠBond":13098,"Ġsáº§n":13099,"ĠPel":13100,"ĠÃī":13101,"GÃ³i":13102,"omes":13103,"Láº¡c":13104,"ĠSchool":13105,"Ġestrogen":13106,"omet":13107,"yong":13108,"ĠHá»ĴI":13109,"ĠKyrgyzstan":13110,"phim":13111,"ĠMoto":13112,"ĠCheng":13113,"CáºŃp":13114,"ĠbÃ¡ng":13115,"Ná»£":13116,"ĠMassachusetts":13117,"ĠChÆ¡n":13118,"ĠDur":13119,"Ġnhá»įt":13120,"Xáº¿p":13121,"ĠlÃ³ng":13122,"ĠgÃ¹":13123,"Ġhá»Ľt":13124,"ĠTA":13125,"Ngá»įn":13126,"sor":13127,"ĠKop":13128,"ĠVas":13129,"ĠMohammad":13130,"Gu":13131,"udeau":13132,"nan":13133,"ĠkhÃ¡u":13134,"ĠKarl":13135,"Zen":13136,"ĠIndia":13137,"ĠMiller":13138,"ridge":13139,"ĠGrammy":13140,"CÆ°á»Ŀng":13141,"ĠDoug":13142,"ĠCBRE":13143,"ĠDown":13144,"bÃłn":13145,"Æ°Æ¡c":13146,"ĠJonathan":13147,"ĠÄĳiá»ĥu":13148,"ĠChá»¯a":13149,"coni":13150,"imer":13151,"ĠIndustr":13152,"ĠKhoai":13153,"Vietin":13154,"ĠRá»Ńa":13155,"uka":13156,"ĠGraechen":13157,"Barcelona":13158,"Black":13159,"Ġcáº¡y":13160,"Ġláº¥m":13161,"mang":13162,"Bayern":13163,"ĠBre":13164,"Ġsalad":13165,"arin":13166,"ĠLáº½":13167,"otoshop":13168,"Cham":13169,"NC":13170,"Ġ188":13171,"âĢĻ),":13172,"ĠÃįch":13173,"ĠGhana":13174,"ĠFans":13175,"ĠBet":13176,"ĠlÃµng":13177,"met":13178,"ĠHas":13179,"HÄĲND":13180,"LÃĬ":13181,"Ġmáº¡t":13182,"ĠCÃ²":13183,"ĠLov":13184,"ĠNin":13185,"aron":13186,"dá»ħ":13187,"Ġcaffe":13188,"NghÄ©":13189,"ĠDá»¥ng":13190,"face":13191,"á»Łm":13192,"apova":13193,"Ġgiá»ħu":13194,"ĠSochi":13195,"Äĳiá»ĩn":13196,"ĠThiá»ĩt":13197,"ĠThiago":13198,"ĠMartinez":13199,"ĠParaguay":13200,"ĠTHAAD":13201,"tiáº¿ng":13202,"ĠCay":13203,"ĠWalker":13204,"ĠKiatisak":13205,"ĠJen":13206,"ĠCham":13207,"ÄĲá»ĳng":13208,"aksin":13209,"ĠPhilippe":13210,"ĠClass":13211,"ĠArch":13212,"ĠSerena":13213,"ĠThoÃ¡t":13214,"Giáº¥c":13215,"ĠNá»Ĺ":13216,"Bang":13217,"Ġ173":13218,"ĠIndepend":13219,"ĠMem":13220,"NhÃ£":13221,"ĠServ":13222,"ĠCá»Ļt":13223,"2026":13224,"ĠKV":13225,"ĠSá»Ńa":13226,"ieg":13227,"ĠHá»ĳ":13228,"ChÆ¡i":13229,"cáº¥m":13230,"Ġ169":13231,"ĠDonbass":13232,"ĠTHU":13233,")âĢĿ.":13234,"ĠToure":13235,"ĠHoms":13236,"lacera":13237,"ÄĲCÄĲ":13238,"ĠUniversity":13239,"ĠTrudeau":13240,"ĠTÃ´m":13241,"ĠDL":13242,"ĠFerdinand":13243,"ĠAnderson":13244,"ĠKHÃĶNG":13245,"iel":13246,"ĠGarcia":13247,"Ġgiáº¿m":13248,"ĠWiki":13249,"alan":13250,"ĠCyr":13251,"ĠZalo":13252,"ĠIsaac":13253,"beck":13254,"quÃ½":13255,"Ġsáº¡m":13256,"ĠTrá»«":13257,"iser":13258,"Trump":13259,"inda":13260,"plus":13261,"ĠPray":13262,"ĠxuÃ½t":13263,"ĠPatriot":13264,"Ġváº±n":13265,"Ġstylist":13266,"ĠMn":13267,"ĠÄĲá»ķ":13268,"ĠKÃŃch":13269,"ĠBusan":13270,"¡n":13271,"ĠCII":13272,"ĠQuÃŃ":13273,"ĠComposite":13274,"Vietcombank":13275,"Cáº£ng":13276,"ĠÄĳáº£n":13277,"ĠMaritime":13278,"Ġlem":13279,"ĠHáº¯c":13280,"tá»Ń":13281,"Ġ1946":13282,"Ġat":13283,"Petro":13284,"ĠEstonia":13285,"Ġ540":13286,"ĠAL":13287,"ĠRemix":13288,"ces":13289,"ĠPeople":13290,"KA":13291,"Ġnai":13292,"Ġtitan":13293,"ĠCarlo":13294,"ĠLINH":13295,"cap":13296,"ĠSDF":13297,"ĠPass":13298,"ĠIphone":13299,"ellaini":13300,"ĠlÃ¬nh":13301,"sburg":13302,"eway":13303,"inawa":13304,"ĠWhat":13305,"táº¥t":13306,"ĠEUR":13307,"Ġáº¨n":13308,"ugeot":13309,"ĠOS":13310,"Khuyáº¿n":13311,"ĠBug":13312,"ĠNut":13313,"ĠViÃªng":13314,"ĠSamson":13315,"ĠAna":13316,"chem":13317,"ĠBLÄĲ":13318,"Ġganh":13319,"ĠSuga":13320,"Ġ560":13321,"trang":13322,"ĠMug":13323,"ieu":13324,"ĠTRáº¦N":13325,"arn":13326,"ĠSalman":13327,"ĠChannel":13328,"akov":13329,"ĠLaurent":13330,"Ġgien":13331,"aman":13332,"ĠLatin":13333,"ĠNavibank":13334,"ThÃ´i":13335,"ĠAbdullah":13336,"ĠGho":13337,"ĠKw":13338,"ernandez":13339,"ĠPetr":13340,"leo":13341,"idas":13342,"ĠVSA":13343,"Ġngá»¥t":13344,"ĠVÅ¨":13345,"alke":13346,"1988":13347,"áº¬T":13348,"grini":13349,"Ká»ĭch":13350,"raphic":13351,"ĠMXH":13352,"ĠÄĲÃ¨n":13353,"ĠGáº¡c":13354,"ct":13355,"isco":13356,"ĠKas":13357,"ĠRoman":13358,"Ġá»·":13359,"ĠÄĳÃ¡u":13360,"And":13361,"ĠPepe":13362,"ĠRange":13363,"ngá»ĵi":13364,"ĠLTE":13365,"/-":13366,"Ġhack":13367,"ĠJamie":13368,"TrÃºc":13369,"agawa":13370,"Lá»±a":13371,"ADB":13372,"ĠBlin":13373,"ĠReg":13374,"Äĳá»ĳt":13375,"ĠSpa":13376,"ĠBab":13377,"981":13378,"ĠngÃ¹n":13379,"ÄĳÃ¡ng":13380,"Ġdiáº¿t":13381,"ĠNO":13382,"+,":13383,"Náº¯m":13384,"ĠFulham":13385,"shire":13386,"2030":13387,"háº¿t":13388,"ĠNá»Ńa":13389,"ĠXo":13390,"ĠThaksin":13391,"Ġ186":13392,"ĠWu":13393,"ĠBox":13394,"ĠResearch":13395,"990":13396,"ĠStone":13397,"Ġtestoster":13398,"Ford":13399,"asm":13400,"Ġ2045":13401,"ocus":13402,"CÆ°á»Ŀi":13403,"ĠLockheed":13404,"tois":13405,"ĠDÆ¡i":13406,"Huáº¥n":13407,"ĠHilton":13408,"Jenn":13409,"ĠRobben":13410,"Ġbáº£nh":13411,"Land":13412,"TTT":13413,"ĠIPU":13414,"Ġtiá»ĩt":13415,"Ġdáº¥m":13416,"ÄĲá»Ļt":13417,"HONG":13418,"má»ĳi":13419,"Tá»ĳc":13420,"otor":13421,"ÂŃ":13422,"Äĳau":13423,"ĠKroos":13424,"kus":13425,"ChÃ¹m":13426,"ienViet":13427,"Ġláº£ng":13428,"»Ľm":13429,"á»Ľm":13430,"nháºŃn":13431,"inness":13432,"BGTVT":13433,"Ná»Ńa":13434,"MÃ¢u":13435,"ĠAct":13436,"ambique":13437,"ĠMikhail":13438,"Ġ182":13439,"ĠFair":13440,"kan":13441,"ĠSamuel":13442,"ĠnghÃªu":13443,"Nhá»ĭ":13444,"oday":13445,"ĠNetwork":13446,"Ġá»ķng":13447,"ĠWong":13448,"XHCN":13449,"ĠHeer":13450,"ĠGiÃł":13451,"ĠLá»«a":13452,"aria":13453,"lá»«a":13454,"ĠKhen":13455,"ĠBphone":13456,"lá»Ŀi":13457,"ĠQuay":13458,"ĠSoc":13459,"ĠKin":13460,"Tom":13461,"ĠtÃ¹m":13462,"ĠKhuÃ´n":13463,"ĠMiley":13464,"ĠToronto":13465,"Ġnong":13466,"Ġ179":13467,"Ġ187":13468,"quin":13469,"ĠMumbai":13470,"ĠNháº¯c":13471,"ĠChavez":13472,"ĠOkinawa":13473,"De":13474,"bÃ¡nh":13475,"ĠNhai":13476,"Kon":13477,"ĠLot":13478,"hog":13479,"ĠJar":13480,"Ġ203":13481,"bell":13482,"Economy":13483,"ĠCBS":13484,"ĠBA":13485,"tag":13486,"Ġsp":13487,"ĠAung":13488,"Ġmáº£":13489,"ĠAlbert":13490,"TiÃªm":13491,"CÄĲV":13492,"ĠsoÃ¡i":13493,"Ġquáº§ng":13494,"Ġ177":13495,"khá»ĳi":13496,"Lá»ĳi":13497,"Ġxáº¯t":13498,"HGÄĲ":13499,"Ġ440":13500,"Ġxáº»o":13501,"ĠOf":13502,"ÄĲá»ģn":13503,"Ġpl":13504,"ĠIron":13505,"1991":13506,"ĠMald":13507,"ĠVienna":13508,"Ġgáº«y":13509,"ĠrÃ¨":13510,"ĠÄĲiá»ģm":13511,"Ġná»ĩm":13512,"LÃ¡i":13513,"estay":13514,"ĠStart":13515,"Äĳáº¥u":13516,"ĠEzzor":13517,"ĠCSB":13518,"Vit":13519,"Ġrup":13520,"ĠVald":13521,"ĠNajib":13522,"sw":13523,"Ġsingle":13524,"ĠHend":13525,"rio":13526,"ĠCBCNV":13527,"ĠLá»±a":13528,"MÃły":13529,"ĠMcG":13530,"ĠhuÃ¢n":13531,"Tháº£m":13532,"ĠPVS":13533,"ĠSeb":13534,"Äĳáº¹p":13535,"váºŃt":13536,"Ġchá»±c":13537,"270":13538,"ĠKhas":13539,"ĠxiÃªm":13540,"iaggio":13541,"ĠFT":13542,"ittle":13543,"ĠHall":13544,"210":13545,"cÃ¡n":13546,"ĠNhuáº¿":13547,"ĠSpider":13548,"ĠCÄĥng":13549,"ĠCNH":13550,"tiáº¿n":13551,"Ġconcert":13552,"ĠATP":13553,"aj":13554,"ĠquÃłng":13555,"ĠMI":13556,"enia":13557,"lusconi":13558,"ĠIQ":13559,"ĠMelania":13560,"ĠMáº¡i":13561,"Ġsilicon":13562,"ĠSS":13563,"coln":13564,"chet":13565,"ĠPVD":13566,"orp":13567,"olin":13568,"QSDÄĲ":13569,"Ġrá»¥t":13570,"ilet":13571,"GiÃ³":13572,"ĠTCM":13573,"ĠMorata":13574,"rate":13575,"ities":13576,"Capital":13577,"ĠShoigu":13578,"ĠÄĲáº©u":13579,"TÃ³m":13580,"CSXH":13581,"ĠCooper":13582,"nháºŃp":13583,"eroon":13584,"Washington":13585,"ĠElon":13586,"ipe":13587,"VáºŃt":13588,"Ġdoping":13589,"ĠTeen":13590,"Ġáºµm":13591,"1989":13592,"ĠlÃ¨o":13593,"Ġcort":13594,"ĠBella":13595,"usra":13596,"ĠDá»¯":13597,"ĠVenice":13598,"ĠHSSV":13599,"ĠPTTH":13600,"vÃŃ":13601,"Diá»ĩp":13602,"ĠEo":13603,"má»Ľi":13604,"ĠLGB":13605,"iveshow":13606,"»ĥn":13607,"á»ĥn":13608,"Ġgara":13609,"ĠTháº±ng":13610,"ĠÄĳáºŃn":13611,"ĠDrogba":13612,"ĠFirst":13613,"ĠDanny":13614,"ishino":13615,"ucks":13616,"ĠPhiÃªu":13617,"ĠLawrence":13618,"ĠPhÃª":13619,"biÃªn":13620,"ĠngÃ¡t":13621,"xtan":13622,"enveen":13623,"ria":13624,"ĠBeauty":13625,"ĠTK":13626,"ĠLá»Ńa":13627,"ĠNhá»ķn":13628,"Yo":13629,"VNPT":13630,"Ġran":13631,"sson":13632,"TrÃ¡ch":13633,"Ġjean":13634,"ĠTPCP":13635,"Ġ235":13636,"eca":13637,"amol":13638,"ĠRÃ´":13639,"ront":13640,"ĠYoga":13641,"Ġtrá»ı":13642,"ĠICT":13643,"ICEF":13644,"ĠÄĳá»īa":13645,"Ġsáº¥p":13646,"cáº£m":13647,"ĠSBS":13648,"Æ¯á»¢":13649,"Ġnhá»£t":13650,"ĠMarseille":13651,"Ġsho":13652,"iao":13653,"Tá»ī":13654,"ĠACV":13655,"ĠAbbas":13656,"Ġel":13657,"bb":13658,"ĠRobot":13659,"ĠAvengers":13660,"Ġtháº¹n":13661,"ĠHernandez":13662,"ĠAvent":13663,"Ġráº£":13664,"Ġráº©y":13665,"ags":13666,"ĠJa":13667,"ĠColumbia":13668,"xÃŃt":13669,"ĠGirls":13670,"une":13671,"Ġ219":13672,"Dragon":13673,"1990":13674,"ĠnÃ¡i":13675,"ĠJICA":13676,"ĠTran":13677,"igo":13678,"ĠKoh":13679,"Mu":13680,"ĠMozambique":13681,"ĠWr":13682,"ĠBÄĲKH":13683,"ĠNike":13684,"ĠÄĲÃ¡y":13685,"aru":13686,"vui":13687,"HR":13688,"ĠNexus":13689,"CÃ¡t":13690,"ĠLev":13691,"Hiáº¿u":13692,"ĠÄĳanh":13693,"nÃłng":13694,"ThÃºc":13695,"ĠPellegrini":13696,"ĠLoa":13697,"ĠSNSD":13698,"nháº£y":13699,"Ġ470":13700,"rÃ´ng":13701,"ĠViglacera":13702,"Ġháº¯c":13703,"ners":13704,"zania":13705,"ĠthÃŃa":13706,"ĠTMV":13707,"UBTVQH":13708,"thy":13709,"ViÃªn":13710,"ĠSáº£ng":13711,"ĠElly":13712,"ĠGuinness":13713,"ĠBerlusconi":13714,"ĠthÃ²":13715,"ĠCot":13716,"ĠCarn":13717,"chat":13718,"ÄĲáº¥u":13719,"ĠSiberia":13720,"Ġvol":13721,"Hyundai":13722,"ĠTÃŃ":13723,"ĠBÃĮNH":13724,"1992":13725,"ĠDÅ¨NG":13726,"ĠJersey":13727,"ĠMcLaren":13728,"hu":13729,"ĠFansipan":13730,"http":13731,"?...":13732,"Park":13733,"pan":13734,"ĠHiroshi":13735,"edit":13736,"pÃ´":13737,"ĠEmma":13738,"Ġ275":13739,"conn":13740,"WF":13741,"edu":13742,"ĠTÃ¡":13743,"ĠCHXHCN":13744,"ĠBCTC":13745,"ĠIrina":13746,"máº·c":13747,"Ã¨ng":13748,"Máº¹o":13749,"ĠTNDN":13750,"irect":13751,"Ġcháº»":13752,"ĠSÃ¡t":13753,"gháº¿":13754,"ĠAbdel":13755,"ĠrÃº":13756,"MD":13757,"ĠCCHC":13758,"ĠCCC":13759,"ĠMahm":13760,"Tottenham":13761,"ĠGhouta":13762,"ĠKiá»ĩm":13763,"ĠBanking":13764,"ĠAllen":13765,"ffee":13766,"Ġsoda":13767,"Ġcháº±m":13768,"chel":13769,"ĠVillar":13770,"ĠKiÃªm":13771,"Ġchá»ĭt":13772,"sáº¡ch":13773,"Ġ194":13774,"ĠBru":13775,"ĠCorolla":13776,"ĠKháº©n":13777,"Ġ193":13778,"NÃ©t":13779,"Ãļc":13780,"ĠÄĳuá»ĳc":13781,"berry":13782,"ĠBá»ĥ":13783,"á»ģm":13784,"ĠASEM":13785,"ĠHÃ´":13786,"Ġngai":13787,"EG":13788,".-":13789,"ĠLuke":13790,"lade":13791,"SBD":13792,"unes":13793,"ĠDoha":13794,"ĠZe":13795,"ĠTáºŃn":13796,"ĠJos":13797,"ĠInfin":13798,"ĠVT":13799,"áºłN":13800,"máº¯t":13801,"Ġtá»ģ":13802,"ĠViv":13803,"ĠVedan":13804,"ĠKay":13805,"Ġ630":13806,"ĠMÃºa":13807,"ĠKov":13808,"ĠNon":13809,"ÄĲiáº¿u":13810,"ĠJurgen":13811,"phá»ĳ":13812,"SÃ¡u":13813,"ÄĲÃ´":13814,"ĠCourtois":13815,"pad":13816,"ĠgiÃ¹m":13817,"ava":13818,"HÃ©":13819,"Men":13820,"ĠVers":13821,"ÄĲá»Ļ":13822,"Ġthau":13823,"ĠChÃ¢m":13824,"ĠHem":13825,"ĠGiáº¥c":13826,"asonic":13827,"Trá»©ng":13828,"LÃŃnh":13829,"ĠMERS":13830,"Ġidol":13831,"ĠWis":13832,"ĠMcDonald":13833,"ĠAbramovich":13834,"Ġnatri":13835,"ĠphÄĥng":13836,"ĠBilbao":13837,"ĠVogue":13838,"ĠTaj":13839,"Ung":13840,"ĠMiÃªu":13841,"ĠthÃły":13842,"hÆ°á»Ľng":13843,"entiane":13844,"ĠPierre":13845,"Ġná»©a":13846,"ĠDuc":13847,"ĠMuang":13848,"ĠBac":13849,"ĠTI":13850,"ĠUNCLOS":13851,"ĠPotter":13852,"aig":13853,"ĠDH":13854,"Ġtweet":13855,"occo":13856,"ĠIz":13857,"ĠMBB":13858,"nghá»":13859,"ĠCongo":13860,"ĠcÃ¡ng":13861,"Ġmuá»Ļi":13862,"ĠHuÃª":13863,"Ġnhen":13864,"ĠDÃłi":13865,"ĠREE":13866,"ĠVNR":13867,"SB":13868,"Thiá»ĩn":13869,"Ġ184":13870,"»Ľt":13871,"á»Ľt":13872,"izon":13873,"Ã¶":13874,"ĠGá»Ńi":13875,"ĠTRUNG":13876,"ĠgÃłi":13877,"Ġcrop":13878,"Ġ217":13879,"City":13880,"egal":13881,"ĠnÃºm":13882,"ĠlÆ°á»£m":13883,"fica":13884,"cht":13885,"ĠHind":13886,"Ġná»Ľt":13887,"ĠGuill":13888,"táº§m":13889,"Ġ2026":13890,"ĠKash":13891,"Ġgiá»¡n":13892,"Ġsofa":13893,"»¦":13894,"á»¦":13895,"ĠLever":13896,"ettings":13897,"ĠPlan":13898,"vá»ĭ":13899,"ĠTomahawk":13900,"ĠBurnley":13901,"ĠNhá»ı":13902,"cal":13903,"230":13904,"ĠKCX":13905,"Gian":13906,"ĠHeerenveen":13907,"San":13908,"Ġmon":13909,"ĠRaz":13910,"ĠCorpor":13911,"ĠFellaini":13912,"NASA":13913,"ĠRib":13914,"ĠEva":13915,"Microsoft":13916,"Van":13917,"ighton":13918,"flix":13919,"ĠSag":13920,"arov":13921,"NÃºi":13922,"nhÃ´m":13923,"»¥ng":13924,"á»¥ng":13925,"ĠHerrera":13926,"Ná»ķ":13927,"Ġvir":13928,"VnExpress":13929,"ĠÄĳá»ģm":13930,"fu":13931,"ĠLA":13932,"ĠYG":13933,"ĠngÃ´ng":13934,"ĠChiáº¿u":13935,"ĠTimo":13936,"Ġuranium":13937,"ĠGoldman":13938,"SGGPO":13939,"Se":13940,"ĠCau":13941,"aphone":13942,"ĠAngola":13943,"Ã¼":13944,"ĠRihanna":13945,"001":13946,"ĠSachs":13947,"999":13948,"ouk":13949,"Ġráº¿t":13950,"edl":13951,"ĠNishino":13952,"Ġkhuáº¿ch":13953,"ĠGrande":13954,"ĠrÃºp":13955,"ĠZin":13956,"ĠEvans":13957,"ĠCameroon":13958,"ĠFound":13959,"Mark":13960,"instein":13961,"emon":13962,"ĠSull":13963,"issa":13964,"ĠNhÆ°á»£c":13965,"ĠngÃ³c":13966,"UP":13967,"xit":13968,"ĠcÃ¹i":13969,"hyun":13970,"080":13971,"aker":13972,"ĠComex":13973,"Ġten":13974,"mino":13975,"Ġphiá»ĩt":13976,"há»Ĺ":13977,"Ġsá»©t":13978,"áº©ng":13979,"ĠTÃŃt":13980,"Ġliáº¿ng":13981,"FBI":13982,"Chá»Ŀ":13983,"aire":13984,"Táº·ng":13985,"gÃ£":13986,"ĠnhÄĥng":13987,"amily":13988,"ThuáºŃn":13989,"ĠlÃ²a":13990,"ĠChÆ¡i":13991,"Ġphom":13992,"Ġlip":13993,"á»²NH":13994,"Ġnháº¥m":13995,"ĠAventador":13996,"Iá»ĢU":13997,"die":13998,"ĠFernandes":13999,"ĠUFO":14000,"ĠJoa":14001,"Ġ204":14002,"omb":14003,"ĠTiÃªm":14004,"her":14005,"á»ĭmá»Ľi":14006,"ĠCarina":14007,"LÃłn":14008,"gram":14009,"Ã´á»ĭmá»Ľi":14010,"ĠXÃ³m":14011,"uper":14012,"song":14013,"ĠYun":14014,"ĠTÃ¨o":14015,"ĠHongkong":14016,"ĠYour":14017,"egu":14018,"One":14019,"Ġthoáº¯t":14020,"astic":14021,"áº¤T":14022,"hoggi":14023,"ĠSunny":14024,"ĠGazprom":14025,"exco":14026,"ĠManhattan":14027,"Da":14028,"ViÃªm":14029,"Ġcá»±a":14030,"was":14031,"ĠOCB":14032,"ĠMidd":14033,"á»·u":14034,"XEM":14035,"MÃ´n":14036,"ĠxÃ¬nh":14037,"cz":14038,"sai":14039,"ĠÄĲá»£i":14040,"petro":14041,"Ġluáº©n":14042,"Ġ325":14043,"ĠAnder":14044,"At":14045,"mÃ¹ng":14046,"ĠLow":14047,"indy":14048,"arbucks":14049,"ĠNghÃ¨":14050,"ĠPVI":14051,"ĠYangon":14052,"udo":14053,"Ġmazut":14054,"ĠManagement":14055,"LÄ©nh":14056,"Ġcá»įp":14057,"Ìī":14058,"ĠIndependent":14059,"ienVietPost":14060,"alt":14061,"yme":14062,"GI":14063,"ĠRiver":14064,"ĠCross":14065,"ĠLÆ°á»Ŀng":14066,"ĠWonder":14067,"ĠHÃłi":14068,"terres":14069,"cáº£nh":14070,"cos":14071,"ĠBÃ´":14072,"áº¬N":14073,"ĠMá»±c":14074,"ipal":14075,"berl":14076,"emouth":14077,"ahr":14078,"Ġcháº§m":14079,"Ġkhanh":14080,"App":14081,"Ġ(?":14082,"lins":14083,"ĠTanzania":14084,"ĠMov":14085,"ĠHÃłnÃ´á»ĭmá»Ľi":14086,"ĠVAR":14087,"kusen":14088,"Sá»£":14089,"ĠGÃ³p":14090,"ĠBarb":14091,"etamine":14092,"ĠchÃŃp":14093,"Ġapp":14094,"ĠGel":14095,"ĠtÃ½":14096,"ĠtuÃ´n":14097,"ĠVáº¡c":14098,"ĠJohan":14099,"ĠKaka":14100,"Ġdáº¿":14101,"TiÃªn":14102,"ohan":14103,"ĠBis":14104,"ĠShay":14105,"ĠInterpol":14106,"orough":14107,"ĠSilicon":14108,"ĠPP":14109,"rez":14110,"ravel":14111,"ĠSchalke":14112,"fri":14113,"Ġbáº½":14114,"Ġnáº¿t":14115,"ĠlÃ¢ng":14116,"ĠngÆ°Æ¡i":14117,"ĠKhÃ¡i":14118,"ĠKhashoggi":14119,"ĠgÃºt":14120,"ĠConnect":14121,"ĠÄĳá»ĥu":14122,"ych":14123,"ĠTIN":14124,"ĠCOC":14125,"ĠLac":14126,"tháº¥t":14127,"OL":14128,"Ġcomment":14129,"BÃły":14130,"Mac":14131,"Báº¡c":14132,"etti":14133,"Cáº¡nh":14134,"ĠBÃºt":14135,"tv":14136,"ersky":14137,"ĠNovak":14138,"Ġgáº·m":14139,"ĠAH":14140,"ĠLincoln":14141,"Táº§m":14142,"ÃĤu":14143,"biá»ĩt":14144,"esco":14145,"ĠÄĳÃªnh":14146,"ussein":14147,"quoc":14148,"ĠCre":14149,"ĠInvestment":14150,"ĠChá»¥p":14151,"Ġrá»§a":14152,"ĠpÃ´":14153,"ĠMans":14154,"ĠAlv":14155,"ĠÄĲoÃ²ng":14156,"ĠxÃ¨o":14157,"TrÃŃ":14158,"ĠArn":14159,"ĠGem":14160,"Ġruá»ķi":14161,"eyang":14162,"Ġkhuá»·u":14163,"COC":14164,"Ġquáº«n":14165,"Ġgháº»":14166,"Ġáº¡ch":14167,"1979":14168,"ĠPLVN":14169,"alin":14170,"ĠGuterres":14171,"ĠView":14172,"osi":14173,"Ġmy":14174,"mÃłu":14175,"ĠdÃ´i":14176,"hill":14177,"ĠEast":14178,"Ġ218":14179,"ĠBillboard":14180,"ĠÄĥng":14181,"chá»ĭu":14182,"Ġmel":14183,"atchback":14184,"ĠLGBT":14185,"ĠMasters":14186,"Leaks":14187,"nÃ¢ng":14188,"ĠNano":14189,"ĠGiá»Ĺ":14190,"Ġlá»įi":14191,"Ġfeet":14192,"ĠPart":14193,"ĠNÃ©":14194,"ĠQQ":14195,"ournemouth":14196,"ĠTrá»©ng":14197,"cover":14198,"Ġteaser":14199,"Ġhá»¯ng":14200,"Ġ530":14201,"ĠDiÃªm":14202,"dÃ¹ng":14203,"ĠOliv":14204,"Cáº¯t":14205,"ĠZo":14206,"ĠTNT":14207,"ĠXoan":14208,"Ġrá»±a":14209,"ĠPeugeot":14210,"TÆ°á»£ng":14211,"eko":14212,"TNMT":14213,"LÃ´":14214,"Ġbanh":14215,"Ġrating":14216,"CR":14217,"ĠDor":14218,"ĠhÃºng":14219,"ĠHwang":14220,"ĠnÃ²i":14221,"Cáº¥m":14222,"Ġlá»µ":14223,"ĠSharapova":14224,"ĠNan":14225,"ĠPhá»ķi":14226,"elen":14227,"ĠHoSE":14228,"ĠDaw":14229,"ohama":14230,"Ġsá»©a":14231,"oka":14232,"Ġdan":14233,"Ġtrá»ĵi":14234,"ĠTrá»©":14235,"ĠDNA":14236,"inste":14237,"Ġ090":14238,"ĠEsp":14239,"Web":14240,"Ġkháº¥t":14241,"ĠxÃ¢u":14242,"Ãĥ":14243,"ĠMiguel":14244,"Ġcoc":14245,"iHay":14246,"lon":14247,"ĠVS":14248,"ĠGL":14249,"ĠRÃł":14250,"NuÃ´i":14251,"ĠMáºŃp":14252,"cle":14253,"ÄĲBSCL":14254,"Ġ787":14255,"Ġá»Ķ":14256,"ĠLarry":14257,"ĠMoss":14258,"máº¡nh":14259,"Dung":14260,"Ġ580":14261,"Ġol":14262,"ĠMAX":14263,"Ġnháº¹t":14264,"ĠgÃ³a":14265,"ĠCMC":14266,"Ġrá»įi":14267,"ĠCVT":14268,"ĠStur":14269,"má»¥c":14270,"ĠRoland":14271,"ĠMÃŃa":14272,"ĠYáº¿u":14273,"Ġ208":14274,"ĠÄĲá»¨C":14275,"Ġthong":14276,"umer":14277,"ĠNá»ĳt":14278,"Ġthiu":14279,"ĠKhoan":14280,"Ġout":14281,"NÃ³ng":14282,"ĠSukhoi":14283,"NghiÃªm":14284,"ĠBong":14285,"MáºŃt":14286,"ĠTá»ĵn":14287,"ĠLay":14288,"...\",":14289,"ĠDá»ħ":14290,"ĠCyrus":14291,"ĠLÃ£m":14292,"Ġgáº£":14293,"Share":14294,"Ġmafia":14295,"ĠGIANG":14296,"ĠHoward":14297,"aits":14298,"ĠÃ¡ng":14299,"tráº¯ng":14300,"ĠRak":14301,"nghá»ĩ":14302,"Ġmiáº¿t":14303,"ĠMarcus":14304,"ĠMoun":14305,"Ġcal":14306,"ĠLlor":14307,"ĠCent":14308,"ĠLegend":14309,"des":14310,"ĠSapp":14311,"ĠCháº£":14312,"burn":14313,"Sham":14314,"Ġá»¦":14315,"ĠHeung":14316,"Ġgluc":14317,"Com":14318,"ido":14319,"andro":14320,"149":14321,"Ġlá»±":14322,"ĠTreo":14323,"ĠThÃ¡ch":14324,"ilia":14325,"ĠRomney":14326,"ĠNgÃµ":14327,"bÃ¡c":14328,"Ġko":14329,"Ġ222":14330,"EVFTA":14331,"round":14332,"mec":14333,"Ġitem":14334,"ĠHÄĲLÄĲ":14335,"ĠINF":14336,"ienVietPostBank":14337,"ĠBird":14338,"ĠScarb":14339,"Ġ209":14340,"uto":14341,"ĠrÃ¬u":14342,"ĠJal":14343,"ĠChÃªnh":14344,"¬m":14345,"ĠMÃ©p":14346,"ĠWikipedia":14347,"Ġgháº¹o":14348,"ĠTurbo":14349,"ĠSha":14350,"Ġton":14351,"ĠGhá»ģnh":14352,"heimer":14353,"Pal":14354,"Æ¯á»ļ":14355,"ĠrÄĥm":14356,"ĠJP":14357,"105":14358,"ĠBut":14359,"ĠMá":14360,"ĠSamp":14361,"ĠMá»":14362,"ĠEss":14363,"CVN":14364,"ĠSchwe":14365,"ĠNeuer":14366,"ĠRiyadh":14367,"chen":14368,"ĠGreat":14369,"ness":14370,"mat":14371,"Lá»ĩnh":14372,"WD":14373,"ĠWei":14374,"ĠmÃłnh":14375,"fit":14376,"Ġlove":14377,"Ġcode":14378,"ĠâĢ¢":14379,"Hotline":14380,"ĠNhá»ĭp":14381,"asy":14382,"ĠVisa":14383,"ĠTTC":14384,"ĠXÃŃch":14385,"Ġ640":14386,"Ġ216":14387,"rich":14388,"ĠLuxury":14389,"ĠsÃ©c":14390,"ĠRup":14391,"...),":14392,"ĠmÃ¡ng":14393,"ĠxiÃªn":14394,"iston":14395,"ÄĲÆ°Æ¡ng":14396,"Ġnot":14397,"ĠRecep":14398,"cÃ¡nh":14399,"ĠGiá»ĵng":14400,"ible":14401,"tam":14402,"mAh":14403,"Ġdes":14404,"Ġduá»Ĺi":14405,"hÃºt":14406,"ĠDI":14407,"LÄĲLÄĲ":14408,"ĠWatford":14409,"Lai":14410,"ĠQueens":14411,"ĠMill":14412,"Link":14413,"gate":14414,"Ġbá»ķn":14415,"ĠMÄĥng":14416,"Ġpháº£":14417,"Ġcá»¯":14418,"ĠHÃĻNG":14419,"Ġxá»ĳi":14420,"ĠSeng":14421,"ĠMoody":14422,"ĴNG":14423,"ĠMiá»ħn":14424,"raw":14425,"Nokia":14426,"ĠStyle":14427,"Ġváº©n":14428,"SDF":14429,"ebe":14430,"ĠRÆ¡i":14431,"cháº¿":14432,"ĠBuffon":14433,"ĠBugatti":14434,"ĠShangri":14435,"ĠSÃºp":14436,"ĠScarborough":14437,"Ġcc":14438,"elin":14439,"ĠChol":14440,"ICE":14441,"Cá»±":14442,"Ġ207":14443,"yahoo":14444,"ĠLit":14445,"ĠMcK":14446,"Ġ206":14447,"ĠMR":14448,"Ġ239":14449,"ique":14450,"hing":14451,"ĠvÃŃu":14452,"tráº»":14453,"aspersky":14454,"Ġnháº½o":14455,"Ġstudio":14456,"ĠhÃ¡m":14457,"ĠWo":14458,"ĠtÃ©t":14459,"ĠLiberty":14460,"ĠChun":14461,"ĠbÆ°Æ¡n":14462,"Ãī":14463,"ĠPur":14464,"ĠMate":14465,"ĠAirAsia":14466,"Cá»§":14467,"náº¡n":14468,"ĠCua":14469,"Ġinox":14470,"ĠKHXH":14471,"ĠvÃ¡i":14472,"SK":14473,"Ġhip":14474,"blr":14475,"ĠAse":14476,"ĠBran":14477,"Ġvá»ī":14478,"ĠSÆłN":14479,"ĠoC":14480,"ĠSá»ķ":14481,"III":14482,"ĠQuin":14483,"BXD":14484,"ĠMing":14485,"ĠNani":14486,"Ġpizza":14487,"ThÃ¡ch":14488,"ĠNTNN":14489,"ĠHá»ĴNG":14490,"Manchester":14491,"ĠHV":14492,"ĠPiaggio":14493,"ĠHussein":14494,"ĠWelbeck":14495,"OI":14496,"ĠXay":14497,"Bá»ĵ":14498,"Ġmargin":14499,"ĠLazio":14500,"ĠÃ¹":14501,"xuá»ĳng":14502,"\"âĢ¦":14503,"Ġvá»ĵ":14504,"gam":14505,"ĠCCCD":14506,"itsu":14507,"ĠAeg":14508,"insteiger":14509,"Ġmil":14510,"ĠÂ½":14511,"ĠUm":14512,"ĠGoo":14513,"ĠJorge":14514,"yu":14515,"ĠAmb":14516,"ĠYi":14517,"ĠVientiane":14518,"ĠÄĲÃ³n":14519,"ĠInt":14520,"ĠLisbon":14521,"ulo":14522,"ĠJust":14523,"570":14524,"ĠGan":14525,"ĠMuller":14526,"ĠVáº¿t":14527,"onsai":14528,"ĠnhÃ¢m":14529,"Ġbiáº¿c":14530,"ĠHUD":14531,"ĠIoT":14532,"ĠEXO":14533,"Ġdioxin":14534,"mÃ¡u":14535,"izer":14536,"ĠAquino":14537,"ECO":14538,"RÆ°á»£u":14539,"ĠsÄĥm":14540,"Ġhá»Ļc":14541,"ĠQN":14542,"Ġ512":14543,"ĠTBA":14544,"Ġ214":14545,"ĠLewis":14546,"ĠVillas":14547,"ako":14548,"ĠLeverkusen":14549,"CÃ¡o":14550,"ĠCHÃĤU":14551,"Ġá»³":14552,"ĠnhÃ³i":14553,"ĠOng":14554,"ĠTeam":14555,"ĠJMG":14556,"ĠDynam":14557,"Ġghá»ģnh":14558,"Ġpháº¿t":14559,"ĠCredit":14560,"ĠNetflix":14561,"Made":14562,"Ġráº¡c":14563,"atter":14564,"ĠTRANG":14565,"mand":14566,"hito":14567,"ieri":14568,"phen":14569,"ĠTUáº¤N":14570,"ĠNÃ´m":14571,"ĠQuá»Ľi":14572,"chips":14573,"ingrad":14574,"ĠthÆ¡i":14575,"Ġphá»ī":14576,"arat":14577,"Neymar":14578,"ĠWarner":14579,"myra":14580,"ĠrÃ¡ng":14581,"Ġtáº¯p":14582,"ĠGDTX":14583,"Ġ1947":14584,"ĠLead":14585,"Star":14586,"Ġnháº£n":14587,"ĠÄĳÆ°Æ¡c":14588,"1972":14589,"ĠVat":14590,"há»ĵi":14591,"ĠNÃ©t":14592,"Ġtoilet":14593,"ĠNich":14594,"Nhiáº¿p":14595,"iber":14596,"ĠLHTN":14597,"the":14598,"212":14599,"480":14600,"tric":14601,"ĠAnne":14602,"Gáº¡o":14603,"ĠBand":14604,"ĠQUá»ĲC":14605,"ĠRivers":14606,"Ġváº¹t":14607,"Ġláº¯t":14608,"ifa":14609,"arak":14610,"more":14611,"ution":14612,"ĠVinacomin":14613,"ANA":14614,"ĠDigital":14615,"ĠPav":14616,"ĠFund":14617,"ĠAstra":14618,"Ġ730":14619,"Ġ224":14620,"ĠCBCC":14621,"lÃ²":14622,"Ġngáº©ng":14623,"omon":14624,"Ġcá»įng":14625,"ĠYoshihi":14626,"leg":14627,"ĠWester":14628,"ĠTumblr":14629,"ootball":14630,"ĠKHÃģNH":14631,"Ġ410":14632,"aso":14633,"ĠWTI":14634,"PPP":14635,"bÃ³":14636,"ual":14637,"oop":14638,"ĠWalcott":14639,"ĠSusan":14640,"holm":14641,"esley":14642,"ĠBSC":14643,"ĠtÃły":14644,"Italy":14645,"Lá»¥c":14646,"ĠStarbucks":14647,"ĠForce":14648,"ĠFoundation":14649,"nCoV":14650,"kiá»ĥm":14651,"ĠphÅ©":14652,"ĢN":14653,"ĺC":14654,"ĠPanasonic":14655,"Play":14656,"ĠBá»ĳi":14657,"izen":14658,"1946":14659,"ĠRep":14660,"NTM":14661,"ento":14662,"Ġnháº©m":14663,"ĠPok":14664,"ulin":14665,"ĠTTGT":14666,"ĠKhiáº¿u":14667,"Ġ2035":14668,"silk":14669,"ĠBio":14670,"Ġlá»¥i":14671,"ĠAsan":14672,"Ġmet":14673,"ĠHorm":14674,"GÃ²":14675,"Ġballad":14676,"ĠSchol":14677,"=\"":14678,"ĠSAB":14679,"ĠSÃło":14680,"ĠYokohama":14681,"ĨNH":14682,"suáº¥t":14683,"ĠLáº·c":14684,"ĠRow":14685,"ĠJulia":14686,"ĠHodg":14687,"âĢ¦\".":14688,"ĠScience":14689,"aido":14690,"ĠHappy":14691,"ĠVáº½":14692,"ĠKhÄĥm":14693,"ÃģI":14694,"ĠGraham":14695,"ĠÄĲHÄĲCÄĲ":14696,"ĠSr":14697,"ext":14698,"NgÄĥn":14699,"tá»ĳt":14700,"ĠchÃłm":14701,"ĠYuri":14702,"Ġcá»Ĺi":14703,"ĠLÃºa":14704,"ĠPink":14705,"Ġchá»Ńng":14706,"phÃ¢n":14707,"ĠNgo":14708,"Ġtestosterone":14709,"bury":14710,"iram":14711,"ĠHawk":14712,"Ġcup":14713,"Æ°Æ¡Ã¬":14714,"emala":14715,"tháº¯ng":14716,"ĠBenfica":14717,"Äĳá»īnh":14718,"ibr":14719,"ĠPowell":14720,"CPOA":14721,"ĠCorporation":14722,"terest":14723,"Ġhá»ī":14724,"ĠBog":14725,"ĠSmalling":14726,"ÄĳÆ°a":14727,"sovpetro":14728,"Ġdá»ģn":14729,"GÃ¡i":14730,"ices":14731,"ababy":14732,"Photo":14733,"ĠSime":14734,"Tá»įa":14735,"Ġxoong":14736,"káº¿":14737,"DÆ°a":14738,"ule":14739,"uber":14740,"allas":14741,"ohyd":14742,"ĠTHÃĢNH":14743,"ĠHKTT":14744,"ÃģC":14745,"emi":14746,"zheimer":14747,"ĠNord":14748,"560":14749,"ĠKaty":14750,"isi":14751,"Ġstream":14752,"ĠSpec":14753,"ĠÄĳÃ¡c":14754,"ĠNavas":14755,"Ġhá»Ľ":14756,"Juventus":14757,"ĠmÃ³i":14758,"ovan":14759,"ĠLONG":14760,"thÃŃch":14761,"PN":14762,"Váº¿t":14763,"113":14764,"ergy":14765,"ĠTNVN":14766,"Olymp":14767,"ĠBeat":14768,"Mercedes":14769,"arch":14770,"ART":14771,"ophi":14772,"ĠCast":14773,"Ġsoc":14774,"ĠBeyon":14775,"ĠMatthew":14776,"thá»ķi":14777,"ĠEIB":14778,"ĠTrÃ¢u":14779,"ĠlÃ³":14780,"Quáº¿":14781,"Ġ279":14782,"ĠPalmyra":14783,"Ġbim":14784,"ĠVuit":14785,"Vina":14786,"ĠcÆ°u":14787,"Jennifer":14788,"ĠJazz":14789,"Ġ+/-":14790,"onna":14791,"uatemala":14792,"ĠWh":14793,"aud":14794,"jk":14795,"Hua":14796,"ĠLX":14797,"Ġ315":14798,"ĠReb":14799,"ĠHarper":14800,"\")":14801,"MÃ£i":14802,"ĠSean":14803,"chan":14804,"ĠReagan":14805,"iá»ħng":14806,"ĠNÃ¹ng":14807,"dao":14808,"lando":14809,"720":14810,"TSKH":14811,"440":14812,"nie":14813,"itol":14814,"ĠDÃ£":14815,"phan":14816,"ĠNHCSXH":14817,"ĠRossi":14818,"iar":14819,"290":14820,"Ġquá»ĩt":14821,"ĠLem":14822,"Ġ213":14823,"Ġ229":14824,"ĠVnEconomy":14825,"á»¥a":14826,"ĠnhÃ¡p":14827,"ĠKiÃªu":14828,"váº«n":14829,"ThÃ¡p":14830,"ĠKhoang":14831,"ĠBrah":14832,"Ġ1952":14833,"Thua":14834,"ĠGiÃ³ng":14835,"Mexico":14836,"Ġháº¿n":14837,"Ġhoe":14838,"ĠvÆ¡ÃŃ":14839,"ĠXUÃĤN":14840,"ĠTung":14841,"ĠSig":14842,"ĠClark":14843,"giáº¥y":14844,"ĠtÃłnh":14845,"ĠCPU":14846,"ĠHans":14847,"ĠchÃ¹n":14848,"Ġ265":14849,"Cáº§m":14850,"Ġtrend":14851,"bro":14852,"biáº¿t":14853,"Taxi":14854,"ĠDang":14855,"Ġbox":14856,"ACB":14857,"Ġ211":14858,"ostok":14859,"Mr":14860,"ĠMaldives":14861,"Ġpar":14862,"ĠIAEA":14863,"Ġ620":14864,"ĠXong":14865,"ĠBá»ĨNH":14866,"aume":14867,"Ġ255":14868,"Trá»ĭ":14869,"ĠtÆ°Æ¡m":14870,"ĠLet":14871,"ĠRCEP":14872,"LL":14873,"dioxin":14874,".../.":14875,"ĠlÃło":14876,"ĠNot":14877,"tá»Ļi":14878,"ĠBournemouth":14879,"ĠTKCN":14880,"Ġchá»«a":14881,"ĠnÃ¨":14882,"TKCN":14883,"ĠdÃºi":14884,"Iá»ĤM":14885,"ĠTechnology":14886,"ĠFocus":14887,"Ġngá»ĳn":14888,"ĠRamsey":14889,"ĠStraits":14890,"ĠRáº±m":14891,"táº¡o":14892,"há»į":14893,"ĠHá»Ļp":14894,"ĠUt":14895,"ĠPrad":14896,"Ġ$":14897,"ĠÄĳÃ¹n":14898,"Av":14899,"ĠFrid":14900,"Ġ191":14901,"ĬNH":14902,"ĠtÃ³e":14903,"ĠHamburg":14904,"quez":14905,"MÆ°á»Ŀi":14906,"ĠKent":14907,"MÃł":14908,"ĠCampbell":14909,"Dáº¡y":14910,"utsche":14911,"andra":14912,"ĠAlc":14913,"ĠDNTN":14914,"ĠColle":14915,"Nhung":14916,"ĠGlass":14917,"ĠGH":14918,"ĠBag":14919,"ĠFuj":14920,"ĠKÃª":14921,"SHB":14922,"Chim":14923,"uf":14924,"DuyÃªn":14925,",..":14926,"1930":14927,"ngÃ£":14928,"ĠNur":14929,"ĠnÃ¡":14930,"ĠAllian":14931,"ĠStew":14932,"Tháº¡c":14933,"Ä©u":14934,"ĠChalle":14935,"1973":14936,"thá»ĥ":14937,"Ġ226":14938,"ĠTrá»Ļn":14939,"Ġ247":14940,"Ġ285":14941,"ĠUBCKNN":14942,"ĠBernard":14943,"ECB":14944,"Ġveo":14945,"Ġgáº¡c":14946,"ĠSunni":14947,"ĠDark":14948,"ĠBhut":14949,"ĠBá»ģn":14950,"ĠNSA":14951,"ĠBVSC":14952,"ĠStudio":14953,"ĠCraig":14954,"ĠBá»Ĺng":14955,"ĠSettings":14956,"ká»¹":14957,"Ä¨":14958,"ĠphÃłng":14959,"ĠTrá»Ĺi":14960,"ĠthÆ°á»Ľt":14961,"Ġ412":14962,"ĠSÃŃp":14963,"ĠVinhomes":14964,"giÃºp":14965,"LáºŃt":14966,"dÃłi":14967,"astas":14968,"Ġkhá»Ŀ":14969,"ĠTÃ³m":14970,"ĠExplor":14971,"ensky":14972,"Ġcui":14973,"VNTheo":14974,"Ġmá»įt":14975,"unce":14976,"ĠsÃª":14977,"ĠAlba":14978,"ĠHidd":14979,"Nusra":14980,"Ġ660":14981,"ĠMarina":14982,"ĠMicro":14983,"idan":14984,"ĠDá»įc":14985,"Ġngá»Ĺng":14986,"490":14987,"Ġmail":14988,"ÃĤY":14989,"510":14990,"ĠCÃłn":14991,"ĠKyi":14992,"ĠBritish":14993,"Ġnháº¡o":14994,"ĠMane":14995,"nháº¡c":14996,"ngÃ¢n":14997,"ezil":14998,"gs":14999,"ĠNow":15000,"ÄĲáº¥y":15001,"ĠFall":15002,")/":15003,"acle":15004,"ĠNham":15005,"ĠSz":15006,"lÃª":15007,"ĠRenault":15008,"Ġhá»£t":15009,"ĠNháº¡n":15010,"ĠAkira":15011,"ĠÃ³":15012,"ĠVF":15013,"uchin":15014,"Kháº©n":15015,"zon":15016,"ĠLung":15017,"UNCLOS":15018,"ĠÆłn":15019,"azi":15020,"ĠNancy":15021,"bÃ¬a":15022,"ĠMatic":15023,"ĠHey":15024,"itor":15025,"BMW":15026,"chool":15027,"ĠOpera":15028,"ĠHand":15029,"Khá»§ng":15030,"ĠSáº¯t":15031,"uchi":15032,"ĠLuxem":15033,"Ġgáº·ng":15034,"ĠMoore":15035,"ism":15036,"Vic":15037,"má»ģm":15038,"Kia":15039,"KhuÃ´n":15040,"ĠlÃ¹a":15041,"ouri":15042,"ĠBritney":15043,"ĠCCTV":15044,"ĠSkripal":15045,"avin":15046,"Trailer":15047,"ĠMiranda":15048,"ĠMuá»ĳi":15049,"sá»Ń":15050,"thiáº¿t":15051,"ĠkhÃ¹ng":15052,"ĠWater":15053,"ĠÐ":15054,"ĠJulian":15055,"Ġtuyá»ģn":15056,"ĠToan":15057,"ĠSenegal":15058,"PHÆ¯ÆłNG":15059,"IPO":15060,"ĠAub":15061,"thÃ¢n":15062,"ĠGoetz":15063,"otel":15064,"430":15065,"ĠVillarreal":15066,"ĠVuitton":15067,"ĠSá»ĳt":15068,"ĠPCLB":15069,"ĠHadid":15070,"ĠIng":15071,"eme":15072,"Ġháº¹":15073,"Iá»ĢN":15074,"enos":15075,"Ġvirut":15076,"Ġbá»ĭp":15077,"ĠSqu":15078,"ĠFanpage":15079,"ĠnÃłi":15080,"Ġsá»§ng":15081,"Min":15082,"Ġká»ĭ":15083,"Ġná»Ļm":15084,"°C":15085,"Ġcuá»ĵn":15086,"nháº¡y":15087,"tourist":15088,"ĠMira":15089,"ĠAV":15090,"ĠControl":15091,"TRáº¦N":15092,"ĠSiem":15093,"háº¡t":15094,"ĠLatvia":15095,"Suy":15096,"ĠNháº«n":15097,"For":15098,"ĠPVX":15099,"OPEC":15100,"ĠComplex":15101,"KhÃ³a":15102,"acas":15103,"Km":15104,"ĠÄĲTCK":15105,"ĠDouglas":15106,"omat":15107,"ĠReview":15108,"ĠKnight":15109,"Huawei":15110,"ĠMyung":15111,"CSC":15112,"ĠnhÆ¡":15113,"Ġcá»£t":15114,"ĠbÆ°á»Ľng":15115,"Ġev":15116,"ĠNelson":15117,"ĠBow":15118,"ĠVinatex":15119,"nin":15120,"ĠDucati":15121,"Ġchiu":15122,"Ġenzyme":15123,"ĠJaneiro":15124,"MAI":15125,"ĠTrá»Ļm":15126,"ĠAlzheimer":15127,"ĠGuatemala":15128,"ĠWikiLeaks":15129,"á»¥p":15130,"ĠPO":15131,"vax":15132,"inder":15133,"Ġtrá»ĭa":15134,"Rá»Ŀi":15135,"Ġloanh":15136,"ĠSimeone":15137,"ĠNumber":15138,"Ġtoang":15139,"Lá»Ļc":15140,"gansk":15141,"nhÃ¬n":15142,"KhÃ³i":15143,"phá»¥c":15144,"Jack":15145,"xáº¥u":15146,"ĠIsk":15147,"ĠNevada":15148,"olet":15149,"ĠMatxcÆ¡va":15150,"ĠVincent":15151,"ganic":15152,"ĠnhÆ°á»¡ng":15153,"vá»¡":15154,"ĠNem":15155,"Big":15156,"ĠNathan":15157,"ĠTrÃło":15158,"ĠBVMT":15159,"Ġgáº¥c":15160,"ĠÄĳá»Ŀn":15161,"ĠSchweinsteiger":15162,"ÄĲÃ¡":15163,"ĠStockholm":15164,"Ġtháº£nh":15165,"ĠcÃºn":15166,"ĠDF":15167,"ThÄĥm":15168,"ĠBÃ´i":15169,"Ġ1080":15170,"ĠPy":15171,"ĠAlber":15172,"SÃ¡t":15173,"ĠÄĳáº§n":15174,"ĠCarrick":15175,"ĠÄĳÆ¡":15176,"tec":15177,"Háº¢I":15178,
[...]
